{"<s>": 0, "<pad>": 1, "</s>": 2, "<unk>": 3, ",": 4, ".": 5, "\u2581w": 6, "\u2581i": 7, "\u2581na": 8, "\u2581z": 9, "\u2581si\u0119": 10, "\u2581do": 11, "\u2581-": 12, "\u2581nie": 13, "\u2581jest": 14, "\u2581to": 15, "\u2581o": 16, "\u2581\u017ce": 17, ":": 18, "\u2581(": 19, "\u2581a": 20, "\u2581W": 21, "\u2581\"": 22, "-": 23, "\u2581od": 24, "\u2581przez": 25, "\u2581oraz": 26, "\u2581dla": 27, "\u2581jak": 28, "\u2581za": 29, "?": 30, "\u2581po": 31, "\u2581s\u0105": 32, "\u2581co": 33, "\u2581lub": 34, ")": 35, "\u2581tym": 36, "\\": 37, "\"": 38, "\u2581": 39, "\u2581kt\u00f3re": 40, "\u2581czy": 41, "\u2581ale": 42, "\u2581ma": 43, "\u2581tego": 44, "ki": 45, "s": 46, "o": 47, "\u2581mo\u017ce": 48, "\u2581ze": 49, "ka": 50, "owe": 51, "!": 52, "\u2581tylko": 53, "\u2581tak": 54, "\u2581pod": 55, "a": 56, "\u2581przy": 57, "\u2581tak\u017ce": 58, "\u2581ich": 59, "\u2581Nie": 60, "/": 61, "\u2581by\u0107": 62, "\u2581ju\u017c": 63, "\u2581b\u0119dzie": 64, "\u2581roku": 65, "\u2581bardzo": 66, "na": 67, "\u2581r\u00f3wnie\u017c": 68, "\u2581kt\u00f3ry": 69, "\u2581A": 70, ").": 71, "\u2581jego": 72, "...": 73, "t": 74, "i": 75, "p": 76, "\u2581Na": 77, "owych": 78, "\u2581mo\u017cna": 79, "\u2581te\u017c": 80, "ny": 81, ";": 82, "\u2581danych": 83, "ty": 84, "sz": 85, "cie": 86, "\u2581Po": 87, "k": 88, "\u2581Z": 89, "ta": 90, "e": 91, "z": 92, "w": 93, "nie": 94, "m": 95, "c": 96, "\u2581jej": 97, "j": 98, "\u2581bez": 99, "my": 100, "owy": 101, "ne": 102, "\u2581jednak": 103, "\u2581To": 104, "li": 105, "anie": 106, "\u2581r": 107, "d": 108, "ce": 109, "l": 110, "\u2581przed": 111, "\u2581I": 112, "\u2581tej": 113, "n": 114, "),": 115, "\u2581go": 116, "\u2581aby": 117, "mi": 118, "\u2581ten": 119, "\u2581by": 120, "\u2581jako": 121, "pl": 122, "owanie": 123, "\u2581u": 124, "\u2581O": 125, "j\u0105": 126, "\u2581sobie": 127, "\u2581nas": 128, "\".": 129, "owego": 130, "u": 131, "owa": 132, "\u2581kt\u00f3ra": 133, "\u00b1": 134, "owej": 135, "owania": 136, "\u2581bo": 137, "ch": 138, "\u2581by\u0142o": 139, "le": 140, "\u2581Do": 141, "owa\u0107": 142, "r": 143, "\u2581spos\u00f3b": 144, "\u2581S": 145, "\u2581U": 146, "\u2581lat": 147, "\u2581pracy": 148, "g": 149, "\u2581mi": 150, "\u2581mog\u0105": 151, "\u2581nawet": 152, "\u2581nad": 153, "\u2581jeszcze": 154, "\u25811": 155, "b": 156, "\u2581te": 157, "\u00f3w": 158, "cja": 159, "\u2581kt\u00f3rych": 160, "\u2581os\u00f3b": 161, "\u2581tych": 162, "ci": 163, "\u2581m": 164, "\u2581by\u0142": 165, "la": 166, "\u2581gdy": 167, "\u2581je": 168, "in": 169, "y": 170, "\u2581ni\u017c": 171, "\u2581przypadku": 172, "ni": 173, "\u2581innych": 174, "ane": 175, "ku": 176, "\u2581\u2013": 177, "\u2581Za": 178, "n\u0105": 179, "\u2581wi\u0119c": 180, "dy": 181, "go": 182, "wa": 183, "kie": 184, "owym": 185, "su": 186, "owane": 187, "\u2581mnie": 188, "\u0107": 189, "\u2581b\u0119d\u0105": 190, "tu": 191, "\u2581wi\u0119cej": 192, "\u2581e": 193, "\u0105": 194, "ow\u0105": 195, "\u2581nale\u017cy": 196, "\u00ad": 197, "\u2581Czy": 198, "O": 199, "ania": 200, "\u2581celu": 201, "\u2581Wy": 202, "\u2581P": 203, "\u25812": 204, "\u2581*": 205, "ca": 206, "nia": 207, "\u2581nich": 208, "A": 209, "nych": 210, "\u2581dnia": 211, "P": 212, "\u2581Jak": 213, "\u2581kt\u00f3rym": 214, "wi": 215, "\",": 216, "\u2581nam": 217, "\u2581wiele": 218, "ry": 219, "da": 220, "\u2581on": 221, "\u2581Je\u015bli": 222, "owi": 223, "cy": 224, "nej": 225, "\u2581podczas": 226, "te": 227, "\u2581D": 228, "\u2581dane": 229, "k\u0119": 230, "\u2581czas": 231, "\u2581B": 232, "\u2581kt\u00f3rzy": 233, "\u25813": 234, "\u2581Co": 235, "\u2581z\u0142": 236, "ko": 237, "em": 238, "ro": 239, "S": 240, "ek": 241, "\u2581maj\u0105": 242, "\u2581kt\u00f3rej": 243, "f": 244, "D": 245, "\u2581Two": 246, "\u2581dzieci": 247, "\u2581we": 248, "cz": 249, "\u2581prze": 250, "\u2581E": 251, "owany": 252, "k\u00f3w": 253, "to": 254, "\u2581gdzie": 255, "M": 256, "\u2581R": 257, "ra": 258, "\u2581mu": 259, "\u2581M": 260, "cji": 261, "\u2581.": 262, "\u2581je\u015bli": 263, "t\u00f3w": 264, "\u2581tu": 265, "\u2581by\u0142a": 266, "B": 267, "ga": 268, "czy": 269, "lu": 270, "\u2581K": 271, "\u0142a": 272, "\u2581informacji": 273, "ana": 274, "nym": 275, "\u2581strony": 276, "\u2581wszystkich": 277, "cje": 278, "W": 279, "\u00b6": 280, "2": 281, "\u2581\u2014": 282, "j\u0105cych": 283, "no": 284, "\u2581osobowych": 285, "\u2581bardziej": 286, "\u2581Od": 287, "rze": 288, "owanych": 289, "\u2581kiedy": 290, "j\u0105ce": 291, "j\u0105cy": 292, "x": 293, "\u2581T": 294, "\u2581takie": 295, "\u2581C": 296, "\u2581wielu": 297, "\u2581wy": 298, "re": 299, "k\u0105": 300, "po": 301, "owo": 302, "ski": 303, "T": 304, "czne": 305, "\u2581dzi\u0119ki": 306, "\u2581Jest": 307, "je": 308, "\u2581czasu": 309, "\u2581ta": 310, "nego": 311, "sy": 312, "\u2581G": 313, "C": 314, "K": 315, "\u2581dni": 316, "si": 317, "ska": 318, "\u2581prawo": 319, "\u0144": 320, "ia": 321, "ma": 322, "\u25815": 323, "by": 324, "\u2581us\u0142ug": 325, "\u2581\u017cycia": 326, "\u2581czyli": 327, "E": 328, "cj\u0119": 329, "\u2581s": 330, "\u2581\u017ceby": 331, "\u2581wszystko": 332, "U": 333, "\u2581j\u0105": 334, "L": 335, "wy": 336, "st": 337, "\u258110": 338, "\u2581wszystkim": 339, "\u2581czasie": 340, "an": 341, "h": 342, "\u2581miejsce": 343, "\u2581kilka": 344, "any": 345, "\u2581wszystkie": 346, "'": 347, "\u2581swoje": 348, "\u2581|": 349, "\u2581zawsze": 350, "\u2581Polsce": 351, "\u0142y": 352, "do": 353, "\u2581nim": 354, "\u2581tam": 355, "\u2581w\u0142a\u015bnie": 356, "\u2581by\u0142y": 357, "sze": 358, "lo": 359, "owana": 360, "\u2581de": 361, "\u2581siebie": 362, "\u2581osoby": 363, "kiem": 364, "\u2581zosta\u0142": 365, "\u2581np": 366, "\u2581albo": 367, "kach": 368, "\u25814": 369, "\u017c": 370, "\u2581mi\u0119dzy": 371, "\u2581kt\u00f3rego": 372, "\u2581im": 373, "\u2581naszych": 374, "G": 375, "\u2581naszej": 376, "\u0142o": 377, "\u2581Ko": 378, "\u2581,": 379, "tem": 380, "gi": 381, "j\u0105c": 382, "za": 383, "\u2581umowy": 384, "\u2581L": 385, "\u2581domu": 386, "kami": 387, "ja": 388, "\u2581zakresie": 389, "\u2581takich": 390, "\u25816": 391, "no\u015b\u0107": 392, "\u2581cz\u0119sto": 393, "\u2581inne": 394, "\u2581Ale": 395, "F": 396, "\u2581art": 397, "\u2581serwi": 398, "sie": 399, "\u2581dobrze": 400, "\u2581firmy": 401, "\u2581co\u015b": 402, "\u2581stronie": 403, "dzie": 404, "anych": 405, "\u2581prawa": 406, "\u2581temat": 407, "R": 408, "\u0142am": 409, "cze": 410, "\u2581przetwarz": 411, "lne": 412, "pi": 413, "\u2581F": 414, "\u2581temu": 415, "\u2581trzeba": 416, "\u2581swoich": 417, "sta": 418, "skie": 419, "\u2581ja": 420, "\u25811.": 421, "ar": 422, "\u2581informacje": 423, "sa": 424, "aniu": 425, "Y": 426, "\u2581cz\u0119\u015bci": 427, "\u2581spraw": 428, "\u2581ludzi": 429, "\u2581warto": 430, "sza": 431, "\u2581Ci": 432, "wanie": 433, "\u2581b": 434, "\u2581ko": 435, "\u2581ustawy": 436, "1": 437, "cznych": 438, "\u2581re": 439, "\u2581mamy": 440, "\u0119": 441, "\u2581mo\u017cemy": 442, "com": 443, "pa": 444, "\u2581ponad": 445, "\u2581raz": 446, "bo": 447, "szy": 448, "\u2581ust": 449, "\u2581ramach": 450, "I": 451, "cza": 452, "\u2581jakie": 453, "du": 454, "Z": 455, "\u2581mo\u017cliwo\u015b\u0107": 456, "\u2581roz": 457, "\u0142": 458, "\u2581zar\u00f3wno": 459, "\u2581Tak": 460, "\u2581sprawie": 461, "\u2581poprzez": 462, "\u2581najbardziej": 463, "nik": 464, "bi": 465, "\u2581niego": 466, "\u2581Przy": 467, "mu": 468, "j\u0105cego": 469, "\u2581one": 470, "\u2581[": 471, "\u2581stanie": 472, "ie": 473, "sty": 474, "czny": 475, "\u2581teraz": 476, "mo": 477, "3": 478, "ru": 479, "jemy": 480, "\u2581adres": 481, "\u2581mo\u017cesz": 482, "\u2581podstawie": 483, "li\u015bmy": 484, "\u2581ani": 485, "\u2581ka\u017cdy": 486, "\u2581Prze": 487, "sk": 488, "\u2581\u017cycie": 489, "tk": 490, "://": 491, "\u2581Je\u017celi": 492, "ba": 493, "\u2581mie\u0107": 494, "de": 495, "cj\u0105": 496, "\u015b": 497, "\u2581i\u017c": 498, "\u2581dlatego": 499, "\u2581przetwarzania": 500, "wie": 501, "\u2581g": 502, "\u2581internet": 503, ".,": 504, "\u2581k": 505, "\u2581poniewa\u017c": 506, "\u015bci": 507, "4": 508, "\u2581zwi\u0105zku": 509, "owaniu": 510, "\u2581uwag\u0119": 511, "\u2581musi": 512, "\u2581r\u00f3\u017cnych": 513, "\u2581jako\u015bci": 514, "aniem": 515, "er": 516, "czna": 517, "zy": 518, "amy": 519, "\u2581Dzi\u0119ki": 520, "\u2581niej": 521, "pu": 522, "\u25817": 523, "\u2581naszym": 524, "\u2581/": 525, "gu": 526, "rzy": 527, "\u2581mo\u017cliwo\u015bci": 528, "\u2581jeden": 529, "\u2581czym": 530, "tor": 531, "\u017ce": 532, "\u25818": 533, "\u2581dwa": 534, "me": 535, "\u2581mo": 536, "\u2581rynku": 537, "\u258120": 538, "\u2581zosta\u0142a": 539, "\u2581N": 540, "j\u0105cym": 541, "00": 542, "j\u0105ca": 543, "tach": 544, "\u2581Ser": 545, "cia": 546, "\u2581tutaj": 547, "]": 548, "\u2581Polski": 549, "\u2581p": 550, "\u258114": 551, "\u2581a\u017c": 552, "\u2581ku": 553, "\u2581H": 554, "\u2581jedynie": 555, "at": 556, "\u2581U\u017cy": 557, "\u2581swoj\u0105": 558, "no\u015bci": 559, "skiego": 560, "\u2581dzia\u0142ania": 561, "\u2581li": 562, "\u2581mia\u0142": 563, "\u2581wieku": 564, "wa\u0107": 565, "owa\u0142": 566, ">": 567, "\u2581przede": 568, "\u2581zgodnie": 569, "dzi": 570, "----": 571, "\u2581nic": 572, "\u2581sam": 573, "\u258115": 574, "co": 575, "\u2581naszego": 576, "\u2581my": 577, "\u2581Kl": 578, "\u2581swojej": 579, "\u2581pomoc\u0105": 580, "\u2581miejscu": 581, "\u2581\u2022": 582, "\u2581Pod": 583, "\u2581ka\u017cdym": 584, "\u2581Re": 585, "rz": 586, "J": 587, "\u2581zmiany": 588, "V": 589, "\u2581tre\u015bci": 590, "ich": 591, "\u25812.": 592, "\u258130": 593, "nymi": 594, "\u2581wtedy": 595, "\u2581ona": 596, "\u2581us\u0142ugi": 597, "N": 598, "\u2581przegl\u0105d": 599, "\u2581nr": 600, "\u2581kilku": 601, "\u2581typu": 602, "\u2581dw\u00f3ch": 603, "\u2581Ma": 604, "\u2581pan": 605, "\u2581wraz": 606, "\u2581posiada": 607, "ak": 608, "\u2581dzie\u0144": 609, "\u2581ofer": 610, "wo": 611, "cznej": 612, "\u2581\u201e": 613, "rem": 614, "ien": 615, "\u2581razem": 616, "\u2581miejsca": 617, "\u2581wi": 618, "\u2581naprawd\u0119": 619, "t\u0105": 620, "\u258112": 621, "\u2581produkt\u00f3w": 622, "\u2581ka\u017cdego": 623, "\u2581kt\u00f3r\u0105": 624, "\u2581je\u017celi": 625, "\u017cy": 626, "\u2581zgody": 627, "\u2581rzeczy": 628, "skiej": 629, "\u2581coraz": 630, "\u2581Pa": 631, "\u2581pa": 632, "5": 633, "cyjne": 634, "\u2581t\u0119": 635, "tami": 636, "wia": 637, "\u2581reklam": 638, "\u2581wzgl\u0119du": 639, "\u2581Bo": 640, "tora": 641, "\u2581zosta\u0142y": 642, "\u2581taki": 643, "\u2581ul": 644, "\u2581chwili": 645, "\u2581sytuacji": 646, "\u2581znajduje": 647, "\u015b\u0107": 648, "\u2581nasze": 649, "\u2581kraju": 650, "\u2581f": 651, "czki": 652, "\u2581jednym": 653, "\u2581latach": 654, "6": 655, "\u2581swoim": 656, "\u2581projekt": 657, "\u2581m\u00f3wi": 658, "\u2581poza": 659, "\u2581rodzaju": 660, "am": 661, "d\u017a": 662, "skich": 663, "on": 664, "\u2581zam\u00f3wienia": 665, "owymi": 666, "\u2581ro": 667, "\u2581mam": 668, "wania": 669, "ing": 670, "\u2581\u015bwiecie": 671, "\u2581realizacji": 672, "ani": 673, "\u25819": 674, "pe": 675, "\u2581ustawie": 676, "\u2581in": 677, "\u2581ci": 678, "py": 679, "\u2581wcze\u015bniej": 680, "cznego": 681, "\u2581oko\u0142o": 682, "or": 683, "log": 684, "\u2581In": 685, "\u2581chodzi": 686, "\u017ca": 687, "\u2581du\u017co": 688, "OD": 689, "\u2581jaki": 690, "j\u0105c\u0105": 691, "j\u0105cej": 692, "8": 693, "en": 694, "owie": 695, "\u2581ok": 696, "\u2581ci\u0105gu": 697, "\u2581dotycz\u0105ce": 698, "\u2581innymi": 699, "7": 700, "\u2581samo": 701, "\u2581cz\u0119\u015b\u0107": 702, "\u2581sw\u00f3j": 703, "\u2581Ta": 704, "\u2581kto": 705, "ej": 706, "\u2581pomocy": 707, "\u2581pozwala": 708, "\u2581Ja": 709, "\u2581lecz": 710, "\u2581Dla": 711, "\u2581szybko": 712, "\u2581c": 713, "\u2581prostu": 714, "9": 715, "lnych": 716, "\u2581II": 717, "mail": 718, "H": 719, "\u2581rzecz": 720, "\u2581pocz\u0105tku": 721, "\u25813.": 722, "czka": 723, "we": 724, "j\u0119": 725, "lno\u015bci": 726, "ge": 727, "ow": 728, "czenie": 729, "\u2581p\u00f3\u017aniej": 730, "\u2581naj": 731, "ego": 732, "\u2581wody": 733, "\u2581pierwszy": 734, "\u2581ra": 735, "\u2581zostanie": 736, "\u2581przyk\u0142ad": 737, "\u2581ka": 738, "\u2581No": 739, "cznym": 740, "\u2581\u015bwiata": 741, "cyjnych": 742, "v": 743, "ano": 744, "\u2581Dlatego": 745, "\u2581miasta": 746, "\u2581pro": 747, "\u2581samym": 748, "se": 749, "\u0142em": 750, "\u2581oznacza": 751, "\u2581sprzeda\u017cy": 752, "[": 753, "al": 754, "lny": 755, "\u2581dalej": 756, "\u2581wobec": 757, "\u2581mniej": 758, "aty": 759, "\u2581nowe": 760, "\u2581Administra": 761, "\u2581wy\u0142\u0105cznie": 762, "\u2581zrobi\u0107": 763, "2.": 764, "od": 765, "\u2581ca\u0142y": 766, "%": 767, "\u2581trzy": 768, "\u2581natomiast": 769, "\u2581powiedzia\u0142": 770, "\u2581\u00a7": 771, "\u2581stron": 772, "\u2581rok": 773, "\u2581lata": 774, "il": 775, "czn\u0105": 776, "owanej": 777, "c\u0119": 778, "ter": 779, "\u2581ka\u017cdej": 780, "\u2581projektu": 781, "cznie": 782, "nika": 783, "ur": 784, "\u2581dost\u0119p": 785, "\u2581V": 786, "s\u00f3w": 787, "\u2581J": 788, "\u2581nowych": 789, "i\u0119": 790, "let": 791, "\u2581wie": 792, "\u2581przeciw": 793, "ste": 794, "\u2581sp": 795, "\u2581t": 796, "\u2581plik\u00f3w": 797, "\u2581Ku": 798, "owanego": 799, "\u2581...": 800, "fi": 801, "tki": 802, "tek": 803, "\u2581h": 804, "\u2581bowiem": 805, "pie": 806, "\u2581udzia\u0142": 807, "\u2581Mo": 808, "\u2581czego": 809, "\u2581osobowe": 810, "\u2581znale\u017a\u0107": 811, "\u2581d": 812, "\u258111": 813, "\u2581firm": 814, "\u2581sob\u0105": 815, "alne": 816, "\u2581pi": 817, "czenia": 818, "taj": 819, "\u2581system": 820, "\u2581dziecka": 821, "\u258116": 822, "\u2581Twoje": 823, "owa\u0142a": 824, "art": 825, "so": 826, "sko": 827, "kowe": 828, "\u2581ochrony": 829, "\u258118": 830, "\u2581Jednak": 831, "\u2581ile": 832, "\u2581sieci": 833, "\u2581urz\u0105dzenia": 834, "\u2581dzi\u015b": 835, "\u2581warto\u015bci": 836, "\u2581Pa\u0144stwa": 837, "\u2581internetowej": 838, "\u2581\u015brodk\u00f3w": 839, "nek": 840, "\u2581oferty": 841, "skim": 842, "\u2581powinien": 843, "\u2581swojego": 844, "\u2581cm": 845, "\u2581w\u015br\u00f3d": 846, "dni": 847, "nu": 848, "1.": 849, "owaniem": 850, "\u2581no": 851, "\u2581produkty": 852, "\u2581dzia\u0142alno\u015bci": 853, "\u2581Pro": 854, "dz": 855, "mie": 856, "\u258125": 857, "\u2581cho\u0107": 858, "\u2581De": 859, "\u2581szczeg\u00f3lnie": 860, "\u25812019": 861, "war": 862, "\u2581razie": 863, "\u2581op": 864, "owanym": 865, "\u2581pa\u0144stwa": 866, "\u2581pole": 867, "\u2581odpowiedzia": 868, "\u2581Kiedy": 869, "\u2581nigdy": 870, "\u2581su": 871, "\u2581la": 872, "\u2581terenie": 873, "sto": 874, "\u2581stron\u0119": 875, "\u2581jednej": 876, "\u2581kar": 877, "\u2581pie": 878, "cyjny": 879, "\u2581www": 880, "\u2581potrzeb": 881, "ym": 882, "\u2581stanowi": 883, "et": 884, "\u2581systemu": 885, "\u2581of": 886, "n\u0119": 887, "OR": 888, "\u2581Polska": 889, "\u2581gry": 890, "\u2581da": 891, "dzenia": 892, "\u2581pewno": 893, "\u2581pli": 894, "\u2581bu": 895, "rza": 896, "\u2581gdy\u017c": 897, "\u2581okres": 898, "\u25812016": 899, "\u2581zwi\u0105zane": 900, "\u2581Pani": 901, "om": 902, "\u2581b\u0119dziemy": 903, "\u2581tyle": 904, "anego": 905, "\u2581bezpiecze\u0144stwa": 906, "\u2581rozwoju": 907, "line": 908, "tom": 909, "--": 910, "\u2581powodu": 911, "\u258113": 912, "\u2581poz": 913, "\u2581prawie": 914, "cu": 915, "\u2581zbyt": 916, "szamy": 917, "\u2581sk\u00f3ry": 918, "\u2581100": 919, "a\u0142y": 920, "lin": 921, "\u2581produktu": 922, "\u2581jestem": 923, "bu": 924, "ona": 925, "\u2581Mi": 926, "\u2581postaci": 927, "lem": 928, "\u2581troch\u0119": 929, "\u2581dzia\u0142a": 930, "\u2581b\u0105d\u017a": 931, "AN": 932, "\u2581ludzie": 933, "rami": 934, "\u2581za\u015b": 935, "_": 936, "kom": 937, "im": 938, "rek": 939, "\u258117": 940, "\u2581Aby": 941, "\u2581chyba": 942, "dzenie": 943, "\u2581lepiej": 944, "\u2581us\u0142u": 945, "\u2581jednego": 946, "\u25814.": 947, "\u2581wymaga": 948, "\u2581klient\u00f3w": 949, "c\u0105": 950, "\u2581potem": 951, "\u2581Le": 952, "ment": 953, "\u2581takiego": 954, "\u2581masz": 955, "\u2581Ze": 956, "\u2581tzw": 957, "\u2581gra": 958, "\u2581do\u015b\u0107": 959, "\u2581prac\u0119": 960, "@": 961, "\u2581cz\u0142owieka": 962, "\u2581Us\u0142u": 963, "\u2581kto\u015b": 964, "\u2581Gdy": 965, "lna": 966, "................": 967, "\u2581chce": 968, "cha": 969, "\u2581takim": 970, "pra": 971, "gle": 972, "\u2581Li": 973, "\u2581Wi": 974, "\u2581pomoc": 975, "\u2581Ciebie": 976, "\u25812018": 977, "\u2581zapewnia": 978, "\u015bcie": 979, "\u2581ob": 980, "cki": 981, "ve": 982, "\u2581trakcie": 983, "\u2581S\u0105": 984, "owali": 985, "\u2581wa\u017cne": 986, "ST": 987, "\u2581momencie": 988, "nem": 989, "\u2581Jego": 990, "\u2581Te": 991, "\u2581jedno": 992, "\u2581jednocze\u015bnie": 993, "\u2581oczywi\u015bcie": 994, "el": 995, "\u2581ni\u0105": 996, "an\u0105": 997, "wane": 998, "\u2581Mo\u017ce": 999, "\u258124": 1000, "\u2581mar": 1001, "min": 1002, "dzi\u0107": 1003, "\u2581Sp": 1004, "\u2581ba": 1005, "be": 1006, "\u2581grupy": 1007, "\u2581ty": 1008, "\u2581Warto": 1009, "\u2581okresie": 1010, "\u2581tys": 1011, "lnego": 1012, "uje": 1013, "\u2581drugiej": 1014, "\u2581wysoko\u015bci": 1015, "\u2581nasz": 1016, "anej": 1017, "X": 1018, "czek": 1019, "\u2581le": 1020, "4.": 1021, "\u2581pani": 1022, "\u2581obecnie": 1023, "\u2581oczy": 1024, "\u2581Bardzo": 1025, "\u2581pytanie": 1026, "\u017cenie": 1027, "\u2581znacznie": 1028, "ti": 1029, "d\u00f3w": 1030, "\u2581pracownik\u00f3w": 1031, "\u2581cia\u0142a": 1032, "cka": 1033, "anym": 1034, "\u2581szczeg\u00f3lno\u015bci": 1035, "|": 1036, "\u2581Pan": 1037, "bior": 1038, "\u2581zosta\u0107": 1039, "c\u00f3w": 1040, "\u2581dwie": 1041, "\u2581profesjona": 1042, "\u2581ko\u0144cu": 1043, "cjach": 1044, "ent": 1045, "\u2581Ten": 1046, "lenie": 1047, "\u2581nast\u0119pnie": 1048, "czy\u0107": 1049, "\u2581atrak": 1050, "\u2581mo\u017cliwe": 1051, "owano": 1052, "cz\u0105": 1053, "\u25810": 1054, "rach": 1055, "ach": 1056, "\u2581produkcji": 1057, "\u2581dost\u0119pu": 1058, "\u2581dziecko": 1059, "\u2581\u017cyciu": 1060, "AR": 1061, "\u2581takiej": 1062, "arki": 1063, "\u2581zgod\u0119": 1064, "\u0142u": 1065, "\u2581nieco": 1066, "\u2581pierwsze": 1067, "prze": 1068, "\u2581potrzeby": 1069, "\u2581lo": 1070, "\u2581m\u00f3g\u0142": 1071, "ck": 1072, "lno\u015b\u0107": 1073, "\u2581innym": 1074, "\u2581pomi\u0119dzy": 1075, "stwa": 1076, "t\u0119": 1077, "\u2581dopiero": 1078, "\u2581r\u00f3\u017cne": 1079, "\u2581internetowych": 1080, "kowy": 1081, "\u2581brak": 1082, "\u2581the": 1083, "IE": 1084, "\u2581wed\u0142ug": 1085, "\u2581jeste\u015bmy": 1086, "3.": 1087, "\u2581Pa\u0144stwo": 1088, "wa\u0142": 1089, "tyczne": 1090, "\u2581jedn\u0105": 1091, "\u2581Pi": 1092, "io": 1093, "bie": 1094, "\u2581dzia\u0142a\u0144": 1095, "\u2581zawiera": 1096, "ER": 1097, "\u2581problem": 1098, "\u2581dopas": 1099, "d\u0119": 1100, "\u2581daje": 1101, "\u2581\u015bwiat": 1102, "fo": 1103, "\u2581dost\u0119pne": 1104, "\u2581mia\u0142a": 1105, "\u2581ca\u0142ej": 1106, "\u2581Sprze": 1107, "is": 1108, "\u2581sie": 1109, "ych": 1110, "\u2581historii": 1111, "\u2581formu": 1112, "kle": 1113, "sk\u0105": 1114, "\u2581p\u00f3\u0142": 1115, "\u2581przesy": 1116, "owan\u0105": 1117, "os": 1118, "\u2581powierzchni": 1119, "\u258150": 1120, "\u2581http": 1121, "ary": 1122, "\u2581koniec": 1123, "lnej": 1124, "\u2581wszyscy": 1125, "ni\u0105": 1126, "\u2581korzystania": 1127, "\u2581formie": 1128, "\u2581powiedzie\u0107": 1129, "\u2581nieruchomo\u015bci": 1130, "\u2581zatem": 1131, "\u2581so": 1132, "\u2581zdj\u0119cia": 1133, "sem": 1134, "\u2581zosta\u0142o": 1135, "tra": 1136, "\u2581Wszystkie": 1137, "\u2581marketing": 1138, "\u2581udost\u0119p": 1139, "\u2581zmian": 1140, "\u2581maja": 1141, "lek": 1142, "sz\u0105": 1143, "\u2581produkt": 1144, "us": 1145, "ob": 1146, "ad": 1147, "\u2581dotycz\u0105cych": 1148, "\u2581Rady": 1149, "ri": 1150, "\u2581minut": 1151, "\u2581niekt\u00f3rych": 1152, "\u2581przecie\u017c": 1153, "\u2581zdrowia": 1154, "\u2581zwi\u0105zanych": 1155, "\u2581ko\u0144ca": 1156, "niu": 1157, "\u2581d\u0142ugo": 1158, "\u2581pe\u0142ni": 1159, "\u2581ceny": 1160, "torem": 1161, "dawca": 1162, "\u0141": 1163, "\u2581ide": 1164, "\u2581n": 1165, "\u2581administra": 1166, "0": 1167, "\u0142ki": 1168, "as": 1169, "\u2581praw": 1170, "\u2581cen": 1171, "\u2581czasem": 1172, "\u2581proc": 1173, "\u2581se": 1174, "\u2581s\u0142owa": 1175, "one": 1176, "20": 1177, "\u2581osoba": 1178, "\u2581rodziny": 1179, "\u2581wiem": 1180, "\u2581razy": 1181, "dzeniu": 1182, "10": 1183, "\u2581Mo\u017cna": 1184, "\u2581Ka\u017cdy": 1185, "\u2581me": 1186, "12": 1187, "\u2581sk\u0142ad": 1188, "\u2581obu": 1189, "\u2581nami": 1190, "\u2581g\u0142\u00f3wnie": 1191, "\u2581zamie": 1192, "\u2581innego": 1193, "\u2581klasy": 1194, "tne": 1195, "\u2581Warszawie": 1196, "\u2581energii": 1197, ".)": 1198, "\u2581ni": 1199, "fa": 1200, "\u2581Oczywi\u015bcie": 1201, "stwo": 1202, "\u2581taka": 1203, "\u2581zw\u0142aszcza": 1204, "a\u0142": 1205, "cyjnej": 1206, "\u2581#": 1207, "\u2581kobiet": 1208, "\u2581materia\u0142\u00f3w": 1209, "pro": 1210, "\u2581Produ": 1211, "\u2581ne": 1212, "dza": 1213, "\u2581wsp\u00f3\u0142pracy": 1214, "czone": 1215, "\u2581Warszawa": 1216, "\u2581nimi": 1217, "\u2581wybra\u0107": 1218, "lenia": 1219, "AT": 1220, "\u2581szko\u0142y": 1221, "\u2581kosme": 1222, "\u2581zupe\u0142nie": 1223, "\u2581rozwi\u0105zania": 1224, "\u2581u\u017cytkownik\u00f3w": 1225, "\u2581dodatkowo": 1226, "nij": 1227, "dze": 1228, "towe": 1229, "www": 1230, "ON": 1231, "\u2581Ro": 1232, "\u2581fo": 1233, "tuj": 1234, "\u2581obs\u0142ugi": 1235, "\u2581badania": 1236, "\u2581poziomie": 1237, "np": 1238, "ze": 1239, "\u2581dniu": 1240, "\u2581Wa": 1241, "\u2581programu": 1242, "\u2581pewno\u015bci\u0105": 1243, "\u2581u\u017cytkownika": 1244, "\u25815.": 1245, "\u2581p\u0142atno\u015bci": 1246, "\u2581wykonania": 1247, "\u2581pas": 1248, "\u2581polskich": 1249, "\u2581firma": 1250, "\u2581Go": 1251, "niki": 1252, "\u2581kwietnia": 1253, "\u2581celach": 1254, "\u2581powiado": 1255, "\u2581ilo\u015bci": 1256, "\u2581Roz": 1257, "\u2581uwagi": 1258, "nik\u00f3w": 1259, "\u2581dok\u0142adnie": 1260, "\u2581znajduj\u0105": 1261, "\u2581miesi\u0119cy": 1262, "\u2581ilo\u015b\u0107": 1263, "ier": 1264, "kowych": 1265, "\u2581powinny": 1266, "\u2581X": 1267, "\u2581powinna": 1268, "\u2581kom": 1269, "\u2581km": 1270, "\u2581poziom": 1271, "\u2581p\u0142a": 1272, "dz\u0105": 1273, "\u2581Sa": 1274, "\u2581czemu": 1275, "\u2581kre": 1276, "a\u0142o": 1277, "\u2581nadal": 1278, "\u2581ce": 1279, "\u2581niezwykle": 1280, "\u2581Ponadto": 1281, "cyjnego": 1282, "\u2581przepis\u00f3w": 1283, "um": 1284, "\u2581proces": 1285, "\u2581jako\u015b\u0107": 1286, "\u2581Podczas": 1287, "\u2581znajdziesz": 1288, "\u2581sprawy": 1289, "res": 1290, "\u2581numer": 1291, "\u2581dom": 1292, "\u2581istnieje": 1293, "\u2581odwie": 1294, "\u2581ma\u0142o": 1295, "\u2581prac": 1296, "\u2581chcesz": 1297, "\u2581kur": 1298, "\u2581dostar": 1299, "\u2581nasz\u0105": 1300, "\u2581pierwszej": 1301, "\u2581decyzji": 1302, "\u0144skiej": 1303, "\u2581obraz": 1304, "\u2581ruchu": 1305, "\u2581pana": 1306, "\u2581du\u017ce": 1307, "\u2581wp\u0142yw": 1308, "\u2581w\u00f3wczas": 1309, "ciu": 1310, "no\u015bci\u0105": 1311, "di": 1312, "\u2581pytania": 1313, "\u2581Al": 1314, "lnym": 1315, "\u2581wrze\u015bnia": 1316, "\u2581musz\u0105": 1317, "ler": 1318, "\u2581wysy": 1319, "rzu": 1320, "\u2581wci\u0105\u017c": 1321, "sor": 1322, "\u2581Wi\u0119cej": 1323, "\u2581warunki": 1324, "\u2581ca\u0142ego": 1325, "zu": 1326, "tycznych": 1327, "ali": 1328, "\u2581drodze": 1329, "\u2581Ci\u0119": 1330, "\u2581sa": 1331, "\u2581inny": 1332, "\u2581trzech": 1333, "\u2581pkt": 1334, "\u2581jakim": 1335, "\u2581Spraw": 1336, "szcz": 1337, "\u2581zale\u017cy": 1338, "\u2581mowa": 1339, "\u2581dobre": 1340, "cyjna": 1341, "\u2581funkcjona": 1342, "cyjnym": 1343, "dem": 1344, "\u2581Ka": 1345, "\u2581wiedzy": 1346, "\u2581najlepiej": 1347, "\u2581marki": 1348, "\u2581wyboru": 1349, "\u2581najcz\u0119\u015bciej": 1350, "\u2581godzin": 1351, "der": 1352, "\u2581byli": 1353, "\u2581Przed": 1354, "\u2581jedna": 1355, "\u2581cel\u00f3w": 1356, "nienie": 1357, "\u2581\u017cadnych": 1358, "\u2581Goo": 1359, "st\u00f3w": 1360, "owa\u0142y": 1361, "\u2581samego": 1362, "\u258127": 1363, "\u2581technologii": 1364, "\u2581jaki\u015b": 1365, "\u2581zasady": 1366, "szu": 1367, "\u2581organizacji": 1368, "\u2581Ob": 1369, "\u2581najmniej": 1370, "\u2581stan": 1371, "\u2581jeste\u015b": 1372, "\u2581mln": 1373, "\u0144ski": 1374, "\u25812017": 1375, "nienia": 1376, "\u2581zale\u017cno\u015bci": 1377, "\u2581powinno": 1378, "ujemy": 1379, "\u2581bada\u0144": 1380, "ckiej": 1381, "r\u00f3w": 1382, "\u2581mieszka\u0144c\u00f3w": 1383, "\u2581autor": 1384, "\u2581dzisiaj": 1385, "\u2581pla": 1386, "\u2581u\u017cytk": 1387, "for": 1388, "\u2581Dane": 1389, "\u2581sklepie": 1390, "\u2581\u0142atwo": 1391, "\u2581raczej": 1392, "AM": 1393, "\u2581drzwi": 1394, "\u2581kolejne": 1395, "\u2581odpowiedzi": 1396, "ple": 1397, "\u2581mimo": 1398, "\u2581mogli": 1399, "\u2581stanu": 1400, "lnie": 1401, "\u2581Tw\u00f3j": 1402, "\u017cu": 1403, "\u2581ca\u0142ym": 1404, "5.": 1405, "\u2581program": 1406, "\u2581sto": 1407, "\u2581nowego": 1408, "\u2581zale": 1409, "ckie": 1410, "\u2581ser": 1411, "\u2581tak\u0105": 1412, "cho": 1413, "\u2581sm": 1414, "\u017cenia": 1415, "w\u0105": 1416, "\u2581wysokiej": 1417, "\u2581kolei": 1418, "\u2581\u0142a": 1419, "\u2581\u015bw": 1420, "\u2581bezpo\u015brednio": 1421, "owski": 1422, "\u2581blo": 1423, "\u2581dotyczy": 1424, "ok": 1425, "\u2581stycznia": 1426, "kowego": 1427, "kar": 1428, "\u2581prywatno\u015bci": 1429, "n\u0105\u0107": 1430, "rzenia": 1431, "\u2581koszt\u00f3w": 1432, "\u2581itp": 1433, "ln\u0105": 1434, "nione": 1435, "\u2581kobiety": 1436, "\u2581dzia\u0142anie": 1437, "\u2581ru": 1438, "\u2581przedsi\u0119bior": 1439, "\u2581nowy": 1440, "wali": 1441, "cjami": 1442, "\u2581wy\u015bwiet": 1443, "\u2581terminie": 1444, "jem": 1445, "\u2581Dlaczego": 1446, "ci\u0107": 1447, "\u2581\u015a": 1448, "\u2581USA": 1449, "\u2581anty": 1450, "sku": 1451, "\u2581Teraz": 1452, "\u2581mog\u0119": 1453, "\u2581okazji": 1454, "\u2581Europejskiej": 1455, "\u2581grudnia": 1456, "\u2581Ty": 1457, "\u2581x": 1458, "per": 1459, "\u2581niezb\u0119dne": 1460, "\u2581wynika": 1461, "\u2581Sz": 1462, "\u2581moje": 1463, "+": 1464, "RA": 1465, "\u2581fil": 1466, "\u2581wzgl\u0119dem": 1467, "\u2581wi\u0119kszo\u015b\u0107": 1468, "lik": 1469, "rom": 1470, "ner": 1471, "\u2581problemy": 1472, "\u2581my\u015bli": 1473, "\u2581czynno\u015bci": 1474, "niejsze": 1475, "].": 1476, "szych": 1477, "000": 1478, "\u2581Bi": 1479, "\u2581wygo": 1480, "\u2581plan": 1481, "\u2581rozw\u00f3j": 1482, "\u2581bi": 1483, "nach": 1484, "ownika": 1485, "nki": 1486, "\u2581charakter": 1487, "\u2581urz\u0105": 1488, "ciem": 1489, "\u2581Dzi\u0119kuj\u0119": 1490, "\u2581So": 1491, "\u2581Bez": 1492, "d\u0105": 1493, "\u2581Ofer": 1494, "czony": 1495, "\u2581wersji": 1496, "\u2581Mar": 1497, "\u2581pre": 1498, "lar": 1499, "kon": 1500, "\u2581pa\u017adziernika": 1501, "\u2581\u015bwiadczenia": 1502, "\u2581krwi": 1503, "\u2581ca\u0142\u0105": 1504, "\u2581urz\u0105dze\u0144": 1505, "tka": 1506, "kowa": 1507, "\u258122": 1508, "\u2581wydaje": 1509, "\u2581inaczej": 1510, "\u2581wygl\u0105da": 1511, "\u2581t\u0105": 1512, "niem": 1513, "dach": 1514, "lec": 1515, "\u2581sklepu": 1516, "\u2581pierwszym": 1517, "lach": 1518, "\u2581ksi\u0105\u017cki": 1519, "\u2581listopada": 1520, "\u2581wynosi": 1521, "lizacji": 1522, "\u2581lipca": 1523, "\u2581mie": 1524, "OW": 1525, "ly": 1526, "\u2581Ba": 1527, "\u2581Poli": 1528, "\u015bci\u0105": 1529, "\u2581PR": 1530, "szym": 1531, "\u2581sty": 1532, "\u2581ch": 1533, "\u2581wys\u0142": 1534, "\u2581chwil\u0119": 1535, "\u2581cz\u0142owiek": 1536, "\u2581sprawia": 1537, "ckiego": 1538, "\u2581kierunku": 1539, "r\u0119": 1540, "\u2581kontakt": 1541, "\u2581drogi": 1542, "\u2581oni": 1543, "chy": 1544, "\u258140": 1545, "\u2581cel": 1546, "\u2581umo\u017cliwia": 1547, "\u0144ska": 1548, "\u2581wyb\u00f3r": 1549, "\u2581Naj": 1550, "\u2581PO": 1551, "vi": 1552, "\u2581Komisji": 1553, "\u2581die": 1554, "\u2581prezent": 1555, "\u2581dlaczego": 1556, "ho": 1557, "\u2581szy": 1558, "czego": 1559, "\u2581Niestety": 1560, "\u2581ponownie": 1561, "\u2581przepisy": 1562, "aka": 1563, "\u2581Sta": 1564, "\u2581be": 1565, "\u2581miejsc": 1566, "\u2581Me": 1567, "\u2581We": 1568, "ha": 1569, "\u2581odpowiednio": 1570, "alny": 1571, "\u2581prowadzi": 1572, "ke": 1573, "\u2581dzia\u0142alno\u015b\u0107": 1574, "\u2581Bu": 1575, "\u2581tysi\u0119cy": 1576, "\u2581pieni\u0105dze": 1577, "ni\u0107": 1578, "lep": 1579, "\u2581jakby": 1580, "\u2581jak\u0105": 1581, "\u2581Ju\u017c": 1582, "\u2581St": 1583, "\u2581Unii": 1584, "fe": 1585, "\u2581podr\u00f3\u017c": 1586, "\u2581opis": 1587, "ws": 1588, "\u2581ci\u0119": 1589, "\u2581klienta": 1590, "\u2581sama": 1591, "wany": 1592, "\u2581l": 1593, "\u2581uda\u0142o": 1594, "\u2581towaru": 1595, "wu": 1596, "\u2581zakresu": 1597, "sp": 1598, "\u2581kolor": 1599, "\u2581czerwca": 1600, "ost": 1601, "\u258119": 1602, "\u2581doskonale": 1603, "\u2581par": 1604, "\u2581Su": 1605, "\u2581wyniku": 1606, "\u0144skiego": 1607, "jej": 1608, "\u2581Ni": 1609, "\u2581po\u015brednictwem": 1610, "ju": 1611, "\u2581nikt": 1612, "\u2581zwr\u00f3ci\u0107": 1613, "\u2581pami\u0119ta\u0107": 1614, "\u2581rozwi\u0105zanie": 1615, "\u2581ca\u0142kowicie": 1616, "kt": 1617, "\u2581poli": 1618, "zie": 1619, "mienie": 1620, "rz\u0119": 1621, "dne": 1622, "\u2581drog\u0105": 1623, "\u2581element\u00f3w": 1624, "\u2581usta": 1625, "\u2581koszty": 1626, "\u00f3": 1627, "\u2581gdyby": 1628, "\u2581and": 1629, "wa\u0142a": 1630, "\u2581powy\u017cej": 1631, "\u2581La": 1632, "\u2581telefonu": 1633, "\u2581\u015brodki": 1634, "\u2581dy": 1635, "\u2581III": 1636, "l\u0119": 1637, "j\u0105cymi": 1638, "\u2581pe": 1639, "niej": 1640, "kowej": 1641, "tych": 1642, "\u258123": 1643, "styczne": 1644, "dzone": 1645, "\u2581akcji": 1646, "ingu": 1647, "\u2581warunk\u00f3w": 1648, "\u2581problem\u00f3w": 1649, "\u2581Panie": 1650, "\u2581wiadomo\u015bci": 1651, "ster": 1652, "\u2581Internet": 1653, "\u2581Tu": 1654, "\u2581zak\u0142ad": 1655, "\u2581Mam": 1656, "\u2581godziny": 1657, "\u2581prosz\u0119": 1658, "rzenie": 1659, "ton": 1660, "\u2581wykonane": 1661, "\u2581Sk": 1662, "\u017cy\u0107": 1663, "\u2581moim": 1664, "\u2581auto": 1665, "\u2581elementy": 1666, "\u2581moc": 1667, "va": 1668, "\u2581jakie\u015b": 1669, "a\u0142em": 1670, "szenie": 1671, "\u2581mieli": 1672, "\u2581Ad": 1673, "\u2581ofercie": 1674, "\u2581trudno": 1675, "\u2581z\u0142otych": 1676, "TA": 1677, "\u2581ostatnich": 1678, "\u2581warunkach": 1679, "\u2581biznes": 1680, "lan": 1681, "\u2581umiej\u0119tno\u015bci": 1682, "\u2581Ra": 1683, "aki": 1684, "\u2581fakt": 1685, "\u2581poszczeg\u00f3lnych": 1686, "man": 1687, "tr": 1688, "\u0142e": 1689, "\u2581zostan\u0105": 1690, "\u2581poni\u017cej": 1691, "stu": 1692, "ownik": 1693, "\u2581spotkania": 1694, "\u2581Data": 1695, "\u2581rekla": 1696, "\u2581kro": 1697, "\u0105cych": 1698, "\u2581dobry": 1699, "AL": 1700, "\u2581Kon": 1701, "\u2581post\u0119powania": 1702, "\u2581por": 1703, "\u2581sta": 1704, "\u2581Ch": 1705, ".:": 1706, "un": 1707, "CH": 1708, "lub": 1709, "wki": 1710, "\u2581zobaczy\u0107": 1711, "es": 1712, ":00": 1713, "\u2581mm": 1714, "\u2581\u015bmierci": 1715, "\u2581Przez": 1716, "zna": 1717, "\u2581tra": 1718, "\u017b": 1719, "\u2581witry": 1720, "\u2581Kto": 1721, "chu": 1722, "\u2581niemal": 1723, "\u2581marca": 1724, "\u2581odpowiada": 1725, "daj": 1726, "\u2581fi": 1727, "\u2581serwis": 1728, "\u2581choroby": 1729, "\u2581g\u0142owy": 1730, "\u2581sklep": 1731, "\u258121": 1732, "\u2581wypadku": 1733, "\u2581bio": 1734, "tera": 1735, "\u2581szczeg\u00f3\u0142y": 1736, "11": 1737, "\u2581sierpnia": 1738, "\u2581zaku": 1739, "\u2581film": 1740, "\u2581wa": 1741, "ni\u0119": 1742, "nami": 1743, "\u2581centrum": 1744, "\u2581musimy": 1745, "dia": 1746, "\u2581wniosek": 1747, "\u2581gwaran": 1748, "\u2581wszelkie": 1749, "ut": 1750, "\u2581ro\u015blin": 1751, "\u2581budynku": 1752, "owo\u015bci": 1753, "\u2581Boga": 1754, "\u2581Wszystko": 1755, "\u2581opak": 1756, "\u2581wielo": 1757, "\u2581serca": 1758, "\u2581zaczyna": 1759, "\u2581pora": 1760, "EN": 1761, "\u2581pieni\u0119dzy": 1762, "\u2581Mo\u017cesz": 1763, "\u2581og\u00f3le": 1764, "\u2581chc\u0105": 1765, "\u2581tj": 1766, "\u2581nowo": 1767, "\u2581wi\u0119kszo\u015bci": 1768, "\u2581My": 1769, "\u2581wpisu": 1770, "\u2581Se": 1771, "\u2581stylu": 1772, "\u2581al": 1773, "\u2581ziemi": 1774, "\u2581warto\u015b\u0107": 1775, "ony": 1776, "gen": 1777, "\u2581uzyska\u0107": 1778, "2,": 1779, "\u25816.": 1780, "\u2581skorzysta\u0107": 1781, "cyjn\u0105": 1782, "dzanie": 1783, "gra": 1784, "=": 1785, "\u2581Wed\u0142ug": 1786, "\u2581wystarczy": 1787, "\u2581mocno": 1788, "\u2581kontroli": 1789, "\u2581grafi": 1790, "\u2581odpor": 1791, "\u2581Centrum": 1792, "tyki": 1793, "lat": 1794, "NE": 1795, "\u2581charaktery": 1796, "\u2581Nale\u017cy": 1797, "\u2581razu": 1798, "\u2581wida\u0107": 1799, "anki": 1800, "\u2581obok": 1801, "\u2581wniosku": 1802, "\u2581kategorii": 1803, "\u2581zwykle": 1804, "\u2581j": 1805, "IA": 1806, "\u2581Zobacz": 1807, "daw": 1808, "\u2581twarzy": 1809, "uj\u0105": 1810, "\u0104": 1811, "cach": 1812, "\u2581SMS": 1813, "\u25812015": 1814, "6.": 1815, "IN": 1816, "lami": 1817, "owni": 1818, "niejszych": 1819, "\u2581model": 1820, "\u2581od\u017cy": 1821, "-0": 1822, "\u2581The": 1823, "\u2581para": 1824, "\u2581b\u0119dziesz": 1825, "\u2581https": 1826, "\u2581zna": 1827, "\u2581\u017cy": 1828, "\u2581jednoraz": 1829, "niach": 1830, "\u2581robi": 1831, "\u2581mia\u0142y": 1832, "\u2581bar": 1833, "\u2581korzysta": 1834, "\u2581p\u0142y": 1835, "\u2581polskiego": 1836, "\u2581kon": 1837, "\u2581spraw\u0119": 1838, "\u258160": 1839, "sia": 1840, "\u2581liczba": 1841, "\u2581dwu": 1842, "\u0105ce": 1843, "mia": 1844, "\u2581odpowiednie": 1845, "\u2581zada\u0144": 1846, "\u2581prawem": 1847, "\u2581nadziej\u0119": 1848, "\u2581m\u00f3j": 1849, "\u2581Prosz\u0119": 1850, "cznymi": 1851, "\u2581Jako": 1852, "\u2581celem": 1853, "szenia": 1854, "\u2581staje": 1855, "owa\u0142o": 1856, "CZ": 1857, "\u2581mie\u015bcie": 1858, "\u2581siedzib\u0105": 1859, "\u00b7": 1860, "zacji": 1861, "tuje": 1862, "\u2581dar": 1863, "\u2581pu": 1864, "\u2581stosunku": 1865, "\u2581linii": 1866, "\u2581zwie": 1867, "\u2581rodzic\u00f3w": 1868, "\u2581godz": 1869, "dawcy": 1870, "czych": 1871, "\u2581mojej": 1872, "towy": 1873, "9.": 1874, "lon": 1875, "alna": 1876, "cami": 1877, "len": 1878, "ten": 1879, "\u2581dodatkowe": 1880, "zm": 1881, "dami": 1882, "wienia": 1883, "\u25812014": 1884, "\u2581prowadzenia": 1885, "\u2581wok\u00f3\u0142": 1886, "\u2581funkcji": 1887, "\u2581m\u00f3wi\u0142": 1888, "ron": 1889, "\u2581mocy": 1890, "\u2581200": 1891, "\u2581prawda": 1892, "\u2581\u015brodowiska": 1893, "\u2581robi\u0107": 1894, "\u2581Tym": 1895, "\u017a": 1896, "\u2581sz": 1897, "\u2581wojny": 1898, "\u2581pory": 1899, "\u2581mieszkania": 1900, "\u2581sk\u0142ada": 1901, "\u2581prace": 1902, "\u2581\u015bwiet": 1903, "\u2581chcemy": 1904, "\u2581polskiej": 1905, "\u2581wo": 1906, "\u2581wybie": 1907, "waniu": 1908, "\u2581fa": 1909, "\u2581znaczenie": 1910, "\u2581zadania": 1911, "\u2581Jan": 1912, "\u0142\u00f3w": 1913, "\u2581miasto": 1914, "\u2581rol\u0119": 1915, "):": 1916, "czeniu": 1917, "\u2581Lu": 1918, "\u2581problemu": 1919, "\u2581liczby": 1920, "\u2581kolejny": 1921, "den": 1922, "\u00f3r": 1923, "\u2581du\u017c\u0105": 1924, "czej": 1925, "\u2581wiadomo": 1926, "\u2581War": 1927, "\u2581kupi\u0107": 1928, "\u2581miesz": 1929, "\u2581aplikacji": 1930, "\u2581towar": 1931, "\u2581nowej": 1932, "\u2581j\u0119zyka": 1933, "\u2581bran\u017cy": 1934, "\u2581Je": 1935, "\u2581'": 1936, "\u2581g\u0142os": 1937, "\u2581stanowi\u0105": 1938, "sach": 1939, "\u2581korzysta\u0107": 1940, "ss": 1941, "\u2581Natomiast": 1942, "th": 1943, "Po": 1944, "\u2581przypadkach": 1945, "czeniem": 1946, "\u2581Lo": 1947, "0.": 1948, "\u2581Jakie": 1949, "\u2581sp\u0119": 1950, "\u2581spo\u0142eczno\u015bci": 1951, "\u2581produk": 1952, "50": 1953, "\u2581powietrza": 1954, "\u2581nauki": 1955, "camy": 1956, "\u2581drugi": 1957, "\u2581leczenia": 1958, "\u2581szkolenia": 1959, "\u2581Obecnie": 1960, "\u2581g\u00f3ry": 1961, "\u2581Wie": 1962, "\u2581przestrzeni": 1963, "ii": 1964, "\u2581zasad": 1965, "\u2581pokoju": 1966, "\u2581odbywa": 1967, "m\u00f3w": 1968, "\u2581u\u017cy": 1969, "\u2581Dodatkowo": 1970, "\u2581dobra": 1971, "niony": 1972, "\u2581Kar": 1973, ".\\": 1974, "\u258126": 1975, "\u2581oferuje": 1976, "fort": 1977, "lony": 1978, "\u0142\u0105": 1979, "\u2581ga": 1980, "szej": 1981, "\u2581stronach": 1982, "\u2581jazdy": 1983, "\u2581znajdzie": 1984, "\u2581pozycji": 1985, "\u2581an": 1986, "\u2581zmieni\u0107": 1987, "\u2581pozna": 1988, "lone": 1989, "dowe": 1990, "\u2581tworzy": 1991, "\u2581moich": 1992, "lej": 1993, "\u2581tytu\u0142u": 1994, "\u2581si": 1995, "ul": 1996, "\u2581b\u0119d\u0119": 1997, "ni\u0119cia": 1998, "owani": 1999, ");": 2000, "owali\u015bmy": 2001, "\u2581wyszuki": 2002, "\u2581Pe": 2003, "\u2581sta\u0142o": 2004, "\u2581zm": 2005, "\u2581braku": 2006, "\u2581ca\u0142e": 2007, "ranie": 2008, "\u2581ofert": 2009, "\u258128": 2010, "\u2581klik": 2011, "\u2581dr": 2012, "\u2581zdj\u0119\u0107": 2013, "\u2581sk": 2014, "\u2581ha": 2015, "\u2581Europy": 2016, "\u2581lu": 2017, "anu": 2018, "\u2581w\u0142os\u00f3w": 2019, "\u2581kolejnych": 2020, "tro": 2021, "anymi": 2022, "\u2581w\u0142a\u015bciwo\u015bci": 2023, "\u2581<": 2024, "\u2581S\u0105d": 2025, "n\u00f3w": 2026, "\u2581foto": 2027, "giem": 2028, "\u2581rozwi\u0105za\u0144": 2029, "jmy": 2030, "\u2581koszt": 2031, "\u2581w\u0105tpliwo\u015bci": 2032, "\u2581spo\u017cy": 2033, "\u2581cena": 2034, "\u2581IN": 2035, "\u2581zakupu": 2036, "dzeniem": 2037, "\u2581Opera": 2038, "\u2581wzrost": 2039, "l\u0105": 2040, "\u2581inwestycji": 2041, "towych": 2042, "\u2581przynajmniej": 2043, "\u2581uczni\u00f3w": 2044, "\u2581polega": 2045, "19": 2046, "ct": 2047, "kowi": 2048, "\u2581formy": 2049, "\u258129": 2050, "\u2581go\u015bci": 2051, "\u2581w\u0142asnych": 2052, "\u0118": 2053, "\u017c\u0105": 2054, "\u2581powoduje": 2055, "\u2581cele": 2056, "\u2581portalu": 2057, "\u2581sp\u00f3\u0142ki": 2058, "\u2581Czas": 2059, "\u2581ono": 2060, "\u2581chocia\u017c": 2061, "\u2581zdecydowanie": 2062, "\u2581zazwyczaj": 2063, "rz\u0105": 2064, "wienie": 2065, "\u2581zesp\u00f3\u0142": 2066, "mujemy": 2067, "\u2581wy\u017cej": 2068, "\u2581Autor": 2069, "\u2581spo": 2070, "Dz": 2071, "\u2581kontak": 2072, "r\u0105": 2073, "\u2581udzia\u0142u": 2074, "ble": 2075, "\u2581=": 2076, "\u2581uzyskania": 2077, "\u2581form": 2078, "\u2581standar": 2079, "7.": 2080, "\u2581ca\u0142o\u015bci": 2081, "\u2581wp\u0142ywa": 2082, "\u2581klien": 2083, "\u2581si\u0142": 2084, "\u2581ograniczenia": 2085, "\u2581styl": 2086, "\u2581samej": 2087, "ckich": 2088, "\u2581kuchni": 2089, "\u017cone": 2090, "ber": 2091, "\u2581bezpiecze\u0144stwo": 2092, "stra": 2093, "\u0144skim": 2094, "cjon": 2095, "\u2581wyniki": 2096, "\u2581Poza": 2097, "\u2581powie": 2098, "\u2581przysz\u0142o\u015bci": 2099, "\u2581korzystanie": 2100, "\u015bciach": 2101, "\u2581trwa": 2102, "\u2581Mamy": 2103, "stycznych": 2104, "\u2581Krakowie": 2105, "\u2581wra\u017cenie": 2106, "tacji": 2107, "ant": 2108, "\u2581mia\u0142o": 2109, "\u2581Pre": 2110, "\u201d": 2111, "\u2581sprzeda\u017c": 2112, "\u2581niepe\u0142nospraw": 2113, "\u2581wiedzie\u0107": 2114, "\u2581Du": 2115, "\u2581usuni\u0119cia": 2116, "dnie": 2117, "\u2581specjali": 2118, "czona": 2119, "\u2581Sam": 2120, "\u2581zamiast": 2121, "\u2581pol": 2122, "\u2581praca": 2123, "zi": 2124, "AC": 2125, "..": 2126, "24": 2127, "\u2581nasza": 2128, "\u2581>": 2129, "Nie": 2130, "\u2581kultury": 2131, "\u2581musisz": 2132, "\u2581pami\u0119ci": 2133, "zacja": 2134, "\u2581w\u0142asne": 2135, "\u2581stosowania": 2136, "\u2581grze": 2137, "ver": 2138, "rod": 2139, "\u2581lutego": 2140, "\u2581Ce": 2141, "che": 2142, "\u2581stopniu": 2143, "dny": 2144, "\u2581najlepszych": 2145, "\u2581strona": 2146, "ji": 2147, "\u2581podatku": 2148, "sh": 2149, "\u2581Ar": 2150, "czu": 2151, "\u2581adresem": 2152, "lacja": 2153, "kuje": 2154, "\u2581rodzaj": 2155, "zo": 2156, "\u2581pojawia": 2157, "\u2581zastosowanie": 2158, "\u2581rower": 2159, "\u2581olej": 2160, "\u2581lin": 2161, "szcza": 2162, "\u2581dzieje": 2163, "8.": 2164, "nicy": 2165, "\u2581materia\u0142y": 2166, "wa\u0142y": 2167, "\u2581uk\u0142ad": 2168, "\u2581dokument\u00f3w": 2169, "\u2581poziomu": 2170, "\u2581pomys\u0142": 2171, "\u2581konta": 2172, "\u2581Sto": 2173, "\u2581Jej": 2174, "\u2581du\u017cej": 2175, "\u2581em": 2176, "wal": 2177, "OS": 2178, "\u2581Nast\u0119pnie": 2179, "\u2581Ga": 2180, "wym": 2181, "ol": 2182, "\u2581wcale": 2183, "\u2581On": 2184, "\u2581sami": 2185, "\u2581budowy": 2186, "\u2581ruch": 2187, "wanych": 2188, "\u2581opinii": 2189, "\u0142ania": 2190, "\u2581prosimy": 2191, "\u2581dob": 2192, "jego": 2193, "\u25811,": 2194, "\u2581mal": 2195, "\u2581soli": 2196, "tak": 2197, "\u2581najlepsze": 2198, "cem": 2199, "szki": 2200, "\u2581termin": 2201, "15": 2202, "\u2581okre\u015blonych": 2203, "\u2581techno": 2204, "tni": 2205, "\u2581polskim": 2206, "\u2581procesu": 2207, "tyw": 2208, "\u2581najwy\u017cszej": 2209, "\u2581Prawo": 2210, "\u25817.": 2211, "\u2581metody": 2212, "tel": 2213, "\u25812013": 2214, "k\u0142a": 2215, "\u2581Informacje": 2216, "\u2581spotkanie": 2217, "\u2581pierwszego": 2218, "gn": 2219, "ami": 2220, "\u2581ry": 2221, "\u2581niekt\u00f3re": 2222, "pia": 2223, "\u2581materia\u0142": 2224, "\u2581niestety": 2225, "\u2581do\u015bwiadczenie": 2226, "\u2581du": 2227, "\u2581Face": 2228, "30": 2229, "\u2581SP": 2230, "\u2581st": 2231, "\u2581Tylko": 2232, "ud": 2233, "\u2581zdaniem": 2234, "\u2581niedo": 2235, "\u2581sprawdzi\u0107": 2236, "mina": 2237, "\u2581media": 2238, "\u2581sprawa": 2239, "\u2581potrafi": 2240, "\u2581r\u00f3\u017c": 2241, "szka": 2242, "\u2581akce": 2243, "\u2581szkole": 2244, "\u2581si\u0142y": 2245, "\u2581ochronie": 2246, "\u2581zapra": 2247, "\u25812012": 2248, "\u2581szcz\u0119\u015bcie": 2249, "\u2581zespo\u0142u": 2250, "\u2581publicznych": 2251, "\u2581UE": 2252, "\u2581serii": 2253, "tyczny": 2254, "\u2581spo\u015br\u00f3d": 2255, "\u2581przeciwko": 2256, "przy": 2257, "\u2581Fi": 2258, "\u2581natychmiast": 2259, "\u2581punktu": 2260, "\u2581efekt": 2261, "KA": 2262, "\u2581uk\u0142adu": 2263, "\u2581pom\u00f3c": 2264, "\u2581pose\u0142": 2265, "\u2581cy": 2266, "tego": 2267, "\u2581pacjent\u00f3w": 2268, "\u2581Cena": 2269, "\u2581sprz\u0119t": 2270, "\u2581cz\u0142onk\u00f3w": 2271, "lni": 2272, "\u2581pewne": 2273, "\u2581kt\u00f3rymi": 2274, "\u2581Mimo": 2275, "\u2581wad": 2276, "\u2581cie": 2277, "\u2581podobnie": 2278, "\u2581unika": 2279, "\u2581u\u017cywane": 2280, "\u2581ma\u0142ych": 2281, "SZ": 2282, "\u2581wszelkich": 2283, "wek": 2284, "ckim": 2285, "\u2581konto": 2286, "\u2581wiadomo\u015b\u0107": 2287, "\u2581Nawet": 2288, "\u2581dost\u0119pnych": 2289, "tory": 2290, "\u2581Takie": 2291, "\u2581Kom": 2292, "\u2581forma": 2293, "\u2581nast\u0119puj\u0105ce": 2294, "\u2581Bar": 2295, "\u2581pierwszych": 2296, "\u2581rz\u0105d": 2297, "\u2581sprz\u0119tu": 2298, "styczny": 2299, "\u2581znaczy": 2300, "sami": 2301, "\u2581zwierz\u0105t": 2302, "\u2581(\"": 2303, ",5": 2304, "\u258110.": 2305, "\u2581tekst": 2306, "g\u00f3w": 2307, "\u2581ma\u0142e": 2308, "bar": 2309, "\u2581Zgodnie": 2310, "\u2581kwestii": 2311, "\u2581dostawy": 2312, "ED": 2313, "\u2581Ru": 2314, "\u2581imi\u0119": 2315, "\u0142e\u015b": 2316, "\u2581kolo": 2317, "\u2581profil": 2318, "\u2581Zam": 2319, "\u2581mat": 2320, "\u2581podr\u00f3\u017cy": 2321, "\u2581zapisy": 2322, "ard": 2323, "\u2581by\u0142oby": 2324, "czym": 2325, "\u2581lubi": 2326, "ate": 2327, "cenia": 2328, "try": 2329, "\u2581blisko": 2330, "EK": 2331, "mentu": 2332, "\u2581Nr": 2333, "\u2581mobi": 2334, "jo": 2335, "\")": 2336, "\u2581dro": 2337, "lizacja": 2338, "1,": 2339, "\u2581zakup": 2340, "\u2581samochodu": 2341, "anka": 2342, "por": 2343, "\u2581elektronicznej": 2344, "ir": 2345, "\u2581Piotr": 2346, "\u2581Firma": 2347, "\u2581kiedy\u015b": 2348, "\u2581noc": 2349, "\u2581Polak\u00f3w": 2350, "\u2581m\u0119\u017cczyzn": 2351, "\u2581Bie": 2352, "\u2581pocz": 2353, "\u2581Trzeba": 2354, "\u2581tar": 2355, "\u2581rze": 2356, "atu": 2357, "\u2581posiadaj\u0105": 2358, "ks": 2359, "\u2581w\u0142a\u015bciwie": 2360, "czonych": 2361, "tym": 2362, "\u2581euro": 2363, "\u25818.": 2364, "AP": 2365, "\u2581wr\u0119cz": 2366, "\u2581mi\u0142o\u015bci": 2367, "\u2581do\u015bwiadczenia": 2368, "\u2581Opis": 2369, "\u2581nocy": 2370, "\u2581System": 2371, "zuje": 2372, "\u2581minister": 2373, "\u2581uda": 2374, "OL": 2375, "\u0144skie": 2376, "nku": 2377, "\u2581mikro": 2378, "\u2581\u00b6": 2379, "wiaj\u0105": 2380, "dzania": 2381, "\u2581Europie": 2382, "\u2581Wo": 2383, "\u258180": 2384, "\u2581orygina": 2385, "larz": 2386, "\u2581Ich": 2387, "\u2581Krak\u00f3w": 2388, "\u2581cztery": 2389, "\u2581ofert\u0119": 2390, "\u2581obejmuje": 2391, "\u2581PiS": 2392, "\u2581uro": 2393, "\u2581pomaga": 2394, "\u2581Gra": 2395, "rane": 2396, "\u2581same": 2397, "\u2581Projekt": 2398, "\u2581ka\u017cda": 2399, "\u2581sytuacja": 2400, "szego": 2401, "\u2581prawnych": 2402, "tno\u015bci": 2403, "\u2581interne": 2404, "\u0144skich": 2405, "\u2581sy": 2406, "0,": 2407, "\u2581projekt\u00f3w": 2408, "\u2581r\u0119ce": 2409, "tnie": 2410, "\u2581potrzebne": 2411, "\u2581Polskiej": 2412, "szymi": 2413, "\u015bni": 2414, "\u2581Was": 2415, "\u2581Rek": 2416, "ator": 2417, "\u2581gene": 2418, "pli": 2419, "\u2581w\u0142asnej": 2420, "tor\u00f3w": 2421, "-3": 2422, "\u2581konieczne": 2423, "\u2581ciekawe": 2424, "\u2581swego": 2425, "szczenia": 2426, "\u2581pa\u0144stwo": 2427, "\u2581du\u017cych": 2428, "\u2581tren": 2429, "\u2581500": 2430, "\u2581u\u017cywa": 2431, "\u2581gminy": 2432, "book": 2433, "szczenie": 2434, "\u2581loka": 2435, "\u2581przyczyny": 2436, "ent\u00f3w": 2437, "\u2581sta\u0142": 2438, "\u2581zapewni\u0107": 2439, "it": 2440, "owo\u015b\u0107": 2441, "\u2581materia\u0142u": 2442, "\u2581\u015bwietnie": 2443, "dzaj\u0105": 2444, "\u2581pozwoli": 2445, "\u2581wykonywania": 2446, "wka": 2447, "towej": 2448, "\u2581cieka": 2449, "dza\u0107": 2450, "AD": 2451, "stan": 2452, "\u2581stanowisko": 2453, "st\u0105": 2454, "\u2581B\u00f3g": 2455, "\u2581zwro": 2456, "\u2581Jestem": 2457, "\u2581was": 2458, "\u2581Zam\u00f3w": 2459, "waj\u0105": 2460, "\u2581zajmuje": 2461, "tal": 2462, "\u2581sk\u00f3r\u0119": 2463, "\u2581wykorzystywane": 2464, "ran": 2465, "czy\u0142": 2466, "\u2581Si": 2467, "NA": 2468, "logia": 2469, "\u2581szuka": 2470, "alnych": 2471, "wem": 2472, "jcie": 2473, "\u2581walki": 2474, "ot": 2475, "hi": 2476, "aru": 2477, "\u2581stosowa\u0107": 2478, "\u0105cy": 2479, "\u2581oceny": 2480, "\u2581doda\u0107": 2481, "\u2581sporo": 2482, "\u2581Ne": 2483, "\u2581polski": 2484, "tna": 2485, "\u2581wi\u0119ksze": 2486, "\u2581mon": 2487, "\u2581s\u0142\u00f3w": 2488, "\u2581drugie": 2489, "\u2581wymie": 2490, "\u2581grup": 2491, "\u2581du\u017cy": 2492, "macji": 2493, "\u2581lekko": 2494, "IS": 2495, "\u2581sztuki": 2496, "\u2581ad": 2497, "\u2581jakich": 2498, "\u2581ulicy": 2499, "\u2581czasach": 2500, "\u2581VAT": 2501, "\u2581ki": 2502, "niejszy": 2503, "\u2581By\u0142": 2504, "\u015bciami": 2505, "\u2581wp\u0142ywu": 2506, "wana": 2507, "tyce": 2508, "ni\u0119cie": 2509, "\u2581Pana": 2510, "-20": 2511, "\u2581\u017by": 2512, "\u2581Pra": 2513, "\u2581samochod\u00f3w": 2514, "\u2581pozwalaj\u0105": 2515, "\u2581najwa\u017cniejsze": 2516, "tyka": 2517, "towa": 2518, "nka": 2519, "\u2581po\u017cy": 2520, "tar": 2521, "dna": 2522, "\u2581danej": 2523, "owskiego": 2524, "\u2581miejscowo\u015bci": 2525, "\u2581panie": 2526, "\u2581punkt\u00f3w": 2527, "\u2581jednostki": 2528, "Ba": 2529, "s\u0142ugi": 2530, "\u2581proste": 2531, "an\u00f3w": 2532, "\u2581cho": 2533, "\u2581polityki": 2534, "bat": 2535, "\u2581ryzyko": 2536, "ato": 2537, "\u2581wolno": 2538, "tow": 2539, "gro": 2540, "owiec": 2541, "\u2581ode": 2542, "\u2581otrzyma\u0107": 2543, "\u2581Jana": 2544, "cenie": 2545, "\u2581Ry": 2546, "\u2581rynek": 2547, "\u2581NA": 2548, "\u2581cz\u0119\u015bciej": 2549, "\u2581publicznej": 2550, "\u2581chcia\u0142": 2551, "\u2581wygl\u0105d": 2552, "\u2581wyda": 2553, "bym": 2554, "onu": 2555, "\u2581dost\u0119pny": 2556, "\u2581mog\u0142a": 2557, "\u2581Ha": 2558, "tny": 2559, "\u2581Be": 2560, "\u2581ho": 2561, "\u2581insta": 2562, "ata": 2563, "\u2581ch\u0142o": 2564, "\u2581zam\u00f3wienie": 2565, "w\u0119": 2566, ".\"": 2567, "\u2581punkt": 2568, "\u2581sposobu": 2569, "\u2581nawi": 2570, "\u2581innej": 2571, "\u2581osobom": 2572, "\u2581zgadza": 2573, "\u2581momentu": 2574, "\u2581szk\u00f3\u0142": 2575, "rowa": 2576, "\u2581piel\u0119gna": 2577, "\u2581ster": 2578, "\u2581niez": 2579, "\u2581pom": 2580, "lak": 2581, "\u25810,": 2582, "\u2581danego": 2583, "tacja": 2584, "\u2581dostos": 2585, "dzony": 2586, "\u2581zak": 2587, "\u2581odst\u0105pienia": 2588, "wne": 2589, "\u2581sta\u0107": 2590, "\u2581element": 2591, "ownicy": 2592, "\u2581magne": 2593, "OT": 2594, "\u2581nasi": 2595, "cen": 2596, "\u2581rzeczywisto\u015bci": 2597, "\u2581smak": 2598, "\u2581Wiele": 2599, "\u2581Nasze": 2600, "towa\u0107": 2601, "\u2581terminu": 2602, "Bo": 2603, "ownik\u00f3w": 2604, "\u2581korzyst": 2605, "\u2581du\u017cym": 2606, "\u2581Ki": 2607, "\u2581szcze": 2608, "tery": 2609, "\u2581Pami\u0119taj": 2610, "id": 2611, "\u2581cia\u0142o": 2612, "\u017cony": 2613, "\u2581reklamy": 2614, "\u2581Spo": 2615, "\u2581pra": 2616, "owska": 2617, "\u2581wykonanie": 2618, "\u2581Ho": 2619, "\u2581d\u0142u\u017cej": 2620, "bia": 2621, "alnym": 2622, "czo": 2623, "dnych": 2624, "nuje": 2625, "\u2581uczestnik\u00f3w": 2626, "ren": 2627, "tycznej": 2628, "\u2581He": 2629, "\u2581anali": 2630, "14": 2631, "\u2581zachowania": 2632, "16": 2633, "\u2581idealnie": 2634, "\u2581edy": 2635, "alnie": 2636, "\u2581czeka": 2637, "atyczne": 2638, "czno\u015b\u0107": 2639, "\u2581oparciu": 2640, "\u2581zwrotu": 2641, "\u2581organizmu": 2642, "ang": 2643, "les": 2644, "ient": 2645, "\u2581kupu": 2646, "\u2581elegan": 2647, "\u2581kg": 2648, "\u258135": 2649, "\u2581wiedz\u0119": 2650, "\u2581indywidualnych": 2651, "\u2581zmienia": 2652, "3,": 2653, "ps": 2654, "\u2581zostaje": 2655, "\u2581\u015blub": 2656, "\u2581tematy": 2657, "\u2581rz\u0105du": 2658, "</": 2659, "\u2581zmie": 2660, "owa\u0144": 2661, "40": 2662, "dzi\u0142": 2663, "\u2581Pu": 2664, "\u2581for": 2665, "\u2581aktywno\u015bci": 2666, "\u2581daw": 2667, "\u2581wyra\u017anie": 2668, "\u2581pane": 2669, "tyczna": 2670, "dzonych": 2671, "\u2581Andrzej": 2672, "\u258131": 2673, "\u2581Opr\u00f3cz": 2674, "kowym": 2675, "\u2581Da": 2676, "\u2581m\u0142odych": 2677, "OM": 2678, "nionych": 2679, "\u2581miejscach": 2680, "\u2581dam": 2681, "\u2581prezydenta": 2682, "\u25812010": 2683, "\u2581wykorzysta\u0107": 2684, "\u2581promo": 2685, "\u2581widzenia": 2686, "rysty": 2687, "\u2581\u030b": 2688, "\u2581wyst\u0119puje": 2689, "\u2581br": 2690, "czaj\u0105c": 2691, "\u2581kra": 2692, "niejsza": 2693, "gie": 2694, "dzia": 2695, "\u2581ci\u0105\u017cy": 2696, "60": 2697, "EL": 2698, "tury": 2699, "lacji": 2700, "\u2581obowi\u0105zek": 2701, "\u2581Nad": 2702, "ium": 2703, "\u2581bud\u017cetu": 2704, "zja": 2705, "\u2581\u015bwiat\u0142a": 2706, "\u2581stosuje": 2707, "\u25812,": 2708, "\u2581Dzi\u015b": 2709, "\u2581system\u00f3w": 2710, "\u2581sko": 2711, "\u2581istotne": 2712, "\u2581wi\u0119ksz\u0105": 2713, "\u2581systemie": 2714, "\u2581m\u00f3wi\u0107": 2715, "\u2581zaj\u0119\u0107": 2716, "\u2581moja": 2717, "\u2581Kur": 2718, "\u2581wpis": 2719, "....": 2720, "\u2581ak": 2721, "\u2581instytucji": 2722, "\u2581dokona\u0107": 2723, "\u2581kom\u00f3r": 2724, "\u2581kontaktu": 2725, "cam": 2726, "ng": 2727, "praw": 2728, "nes": 2729, "\u2581dodatkowych": 2730, "\u2581kobieta": 2731, "staw": 2732, "bierz": 2733, "\u2581zaj\u0119cia": 2734, "\u2581wiesz": 2735, "szt": 2736, "\u2581kraj\u00f3w": 2737, "\u2581w\u0142asnego": 2738, "\u2581stoi": 2739, "he": 2740, "\u2581Wam": 2741, "\u2581Europejskiego": 2742, "\u2581kart": 2743, "\u2581niech": 2744, "\u2581Cy": 2745, "\u2581wydarzenia": 2746, "\u2581zewn\u0105trz": 2747, "owa\u0142em": 2748, "\u2581pozostaje": 2749, "\u2581dobrej": 2750, "\u2581lit": 2751, "gar": 2752, "\u015a": 2753, "\u2581wynik": 2754, "\u2581chc\u0119": 2755, "\u2581opr\u00f3cz": 2756, "\u2581Por": 2757, "\u2581Prywa": 2758, "\u2581do\u015bwiad": 2759, "szcze": 2760, "WA": 2761, "\u2581transportu": 2762, "li\u0107": 2763, "\u2581&": 2764, "\u2581wiemy": 2765, "\u2581cyt": 2766, "ft": 2767, "\u2581sprawach": 2768, "\u2581szereg": 2769, "dro": 2770, "\u2581rzeczywi\u015bcie": 2771, "\u2581Dost\u0119p": 2772, "era": 2773, "op": 2774, "IP": 2775, "13": 2776, "pod": 2777, "18": 2778, "lika": 2779, "\u2581drugim": 2780, "zd": 2781, "rak": 2782, "\u2581mojego": 2783, "\u2581dodania": 2784, "\u2581karty": 2785, "\u2581zanim": 2786, "\u25812011": 2787, "\u2581test": 2788, "\u2581w\u0142osy": 2789, "br": 2790, "waj": 2791, "\u2581u\u017cyciu": 2792, "\u2581mi\u0142o": 2793, "\u2581rozmowy": 2794, "\u25812020": 2795, "\u2581\u015bwiad": 2796, "4,": 2797, "wach": 2798, "pt": 2799, "scy": 2800, "\u2581zdrowie": 2801, "ans": 2802, "jne": 2803, "\u2581Coo": 2804, "\u2581zapewnienia": 2805, "\u2581eko": 2806, "\u2581czego\u015b": 2807, "stka": 2808, "\u2581w\u0142asn\u0105": 2809, "\u2581podmiot\u00f3w": 2810, "\u2581diety": 2811, "ral": 2812, "\u2581zap": 2813, "\u2581my\u015bl": 2814, "\u2581ka\u017cd\u0105": 2815, "\u2581towar\u00f3w": 2816, "\u2581Op": 2817, "\u2581opieki": 2818, "\u2581ca\u0142kiem": 2819, "\u2581Y": 2820, "\u2581Vi": 2821, "\u2581wysoko": 2822, "g\u0105": 2823, "\u2581zmianie": 2824, "wis": 2825, "\u2581bazy": 2826, "\u2581idzie": 2827, "czk\u0119": 2828, "\u017ceniem": 2829, "\u0105c": 2830, "\u2581musia\u0142": 2831, "\u2581wewn\u0105trz": 2832, "\u2581oka": 2833, "\u2581Pol": 2834, "\u2581ciebie": 2835, "\u00e9": 2836, "\u2581firmie": 2837, "\u2581instalacji": 2838, "net": 2839, "\u2581zarz\u0105dzania": 2840, "\u2581praktycznie": 2841, "\u2581komunikacji": 2842, "\u2581zasadzie": 2843, "\u2581W\u015br\u00f3d": 2844, "\u2581niczym": 2845, "\u2581autom": 2846, "\u2581Di": 2847, "szone": 2848, "17": 2849, "\u2581Pie": 2850, "wamy": 2851, "owanymi": 2852, "\u00d3W": 2853, "stro": 2854, "\u2581wolno\u015bci": 2855, "\u2581w\u0142adzy": 2856, "\u2581porz\u0105dku": 2857, "tan": 2858, "\u2581v": 2859, "yt": 2860, "\u2581Warszawy": 2861, "\u2581polskie": 2862, "\u2581pewnie": 2863, "\u2581producenta": 2864, "\u2581u\u017cytkowania": 2865, "\u2581oferta": 2866, "rzy\u0107": 2867, "\u2581dotycz\u0105": 2868, "EM": 2869, "\u2581umie": 2870, "\u2581prowadzone": 2871, "\u2581lekarza": 2872, "prawa": 2873, "\u2581IV": 2874, "\u2581wsp\u00f3lnie": 2875, "\u2581wod\u0105": 2876, "ger": 2877, "\u2581etapie": 2878, "ont": 2879, "pis": 2880, "\u2581przedstawia": 2881, "\u2581Ex": 2882, "\u2581odkry": 2883, "la\u0107": 2884, "\u0142ka": 2885, "\u2581przygotowania": 2886, "\u2581nowym": 2887, "\u2581funkcjonowania": 2888, "tno\u015b\u0107": 2889, "mach": 2890, "\u2581dniach": 2891, "\u2581okre\u015bla": 2892, "\u2581sk\u0142adnik\u00f3w": 2893, "\u2581ds": 2894, "\u2581zazna": 2895, "\u2581ministra": 2896, "wych": 2897, "\u2581r\u0119": 2898, "tuj\u0105": 2899, "Na": 2900, "\u2581RP": 2901, "PS": 2902, "\u2581odpowiedni": 2903, "\u2581wyko\u0144": 2904, "\u2581malu": 2905, "and": 2906, "AS": 2907, "racji": 2908, "\u2581dobrowo": 2909, "czonym": 2910, "\u2581\u017b": 2911, "\u2581dobrym": 2912, "\u2581um\u00f3w": 2913, "\u2581zach\u0119": 2914, "\u2581tygodni": 2915, "\u2581este": 2916, "ser": 2917, "\u2581gu": 2918, "\u2581Jeszcze": 2919, "roz": 2920, "\u2581tymi": 2921, "\u2581m\u00f3wi\u0105c": 2922, "naj": 2923, "\u2581zaraz": 2924, "\u2581wsparcie": 2925, "\u2581r\u00f3\u017cnego": 2926, "j\u0105co": 2927, "\u2581wielko\u015bci": 2928, "\u2581rand": 2929, "\u2581Dom": 2930, "5,": 2931, "czyli": 2932, "\u015bnie": 2933, "\u2581komisji": 2934, "\u2581procent": 2935, "ra\u0107": 2936, "\u2581now\u0105": 2937, "\u2581\u017cadnego": 2938, "\u2581Cz\u0119sto": 2939, "\u2581telefon": 2940, "\u2581decyzj\u0119": 2941, "\u2581wysoko\u015b\u0107": 2942, "ak\u00f3w": 2943, "----------------": 2944, "\u2581**": 2945, "logii": 2946, "\u2581An": 2947, "tur": 2948, "\u2581cof": 2949, "\u2581skutecznie": 2950, "\u2581zam": 2951, "\u2581komfor": 2952, "par": 2953, "\u2581realizacj\u0119": 2954, "\u2581zn\u00f3w": 2955, "80": 2956, "\u2581m\u0142odzie\u017cy": 2957, "\u2581zainteres": 2958, "\u2581tygodniu": 2959, "towego": 2960, "\u2581zakres": 2961, "\u2581wn\u0119trza": 2962, "\u258170": 2963, "z\u0119": 2964, "\u2581wzi\u0105\u0107": 2965, "nica": 2966, "\u2581znowu": 2967, "fil": 2968, "\u2581tytu\u0142": 2969, "wer": 2970, "\u2581dosz\u0142o": 2971, "\u2581uwa\u017ca": 2972, "\u2581elektroniczn\u0105": 2973, "szko": 2974, "\u2581najpierw": 2975, "\u2581firm\u0119": 2976, "\u2581wsparcia": 2977, "\u2581historia": 2978, "menty": 2979, "jak": 2980, "ed": 2981, "\u0142at": 2982, "\u2581obowi\u0105zk\u00f3w": 2983, "\u2581pa\u0144stw": 2984, "\u2581metr\u00f3w": 2985, "\u2581informacj\u0119": 2986, "\u2581wsi": 2987, "\u2581zaledwie": 2988, "\u2581r\u00f3wnie": 2989, "\u2581300": 2990, "*": 2991, "\u2581okresu": 2992, "\u2581modelu": 2993, "\u2581tworzenia": 2994, "\u2581spa": 2995, "\u2581zabawy": 2996, "\u2581Nasza": 2997, "szek": 2998, "\u2581wreszcie": 2999, "\u2581niezale\u017cnie": 3000, "\u2581Wtedy": 3001, "\u2581cze": 3002, "\u2581grupa": 3003, "tyk": 3004, "\u2581pozy": 3005, "czonego": 3006, "\u2581drog\u0119": 3007, "\u2581powinni\u015bmy": 3008, "\u2581zaba": 3009, "\u2581przechowy": 3010, "25": 3011, "\u2581odpowied\u017a": 3012, "ch\u00f3w": 3013, "\u2581rozpoczyna": 3014, "\u2581Konsu": 3015, "\u2581okolicy": 3016, "\u2581zadanie": 3017, "\u2581samych": 3018, "\u2581Urz\u0119du": 3019, "=\"": 3020, "\u2581masa": 3021, "\u2581XX": 3022, "\u2581kwoty": 3023, "\u2581ch\u0119tnie": 3024, "\u2581przewo": 3025, "\u2581wiedz\u0105": 3026, "\u2581woli": 3027, "\u2581innowa": 3028, "\u2581[...]": 3029, "nikami": 3030, "\u2581dowolnym": 3031, "\u2581zad": 3032, "\u2581Mu": 3033, "\u2581drewna": 3034, "\u2581osob\u0119": 3035, "\u2581krajach": 3036, "\u2581Jeste\u015bmy": 3037, "on\u00f3w": 3038, "dowy": 3039, "\u2581powiedzia\u0142a": 3040, "\u2581Szu": 3041, "\u2581stanowiska": 3042, "stki": 3043, "\u2581dekora": 3044, "\u2581pozna\u0107": 3045, "\u2581opinie": 3046, "niane": 3047, "akie": 3048, "mar": 3049, "\u2581wzrostu": 3050, "cer": 3051, "\u25819.": 3052, "\u2581listy": 3053, "\u2581Nic": 3054, "nikiem": 3055, "\u2581Twoja": 3056, "\u2581prowadzenie": 3057, "\u2581urz\u0105dzenie": 3058, "\u2581far": 3059, "\u2581cenie": 3060, "\u2581finansowych": 3061, "bra": 3062, "\u2581przepisami": 3063, "\u2581nazwa": 3064, "\u2581li\u015bcie": 3065, "\u2581spe\u0142nia": 3066, "\u2581py": 3067, "\u2581mi\u0119\u015bni": 3068, "\u2581liczy\u0107": 3069, "\u2581\u0179r\u00f3d\u0142o": 3070, "\u2581wyj\u0105tkowo": 3071, "men": 3072, "\u2581j\u0119zyk": 3073, "\u2581(...)": 3074, "\u2581rozwija": 3075, "\u2581filmu": 3076, "\u2581zawie": 3077, "\u2581d\u0142ugo\u015bci": 3078, "nio": 3079, "\u2581do\u0142\u0105": 3080, "\u2581Im": 3081, "kow": 3082, "\u2581podmiotom": 3083, "czymy": 3084, "zji": 3085, "\u2581zestaw": 3086, "\u2581min": 3087, "\u2581market": 3088, "menta": 3089, "czyn": 3090, "\u2581cz": 3091, "\u2581ciep\u0142a": 3092, "\u2581jaka": 3093, "________________": 3094, "\u2581zacz\u0105\u0142": 3095, "\u2581Posiada": 3096, "dowych": 3097, "\u2581twarz": 3098, "\u2581Ochrony": 3099, "\u2581techniczne": 3100, "\u2581tk": 3101, "\u2581roli": 3102, "IT": 3103, "towi": 3104, "\u2581spo\u0142ecznej": 3105, "\u2581logi": 3106, "\u2581\u017cywo": 3107, "htt": 3108, "\u2581Pawe\u0142": 3109, "czanie": 3110, "mer": 3111, "dom": 3112, "mienia": 3113, "\u2581Ko\u015bcio\u0142a": 3114, "\u017ceniu": 3115, "skiem": 3116, "tura": 3117, "\u2581otrzymania": 3118, "nic": 3119, "spo": 3120, "pi\u0107": 3121, "lor": 3122, "ram": 3123, "\u2581b\u00f3l": 3124, "\u2581US": 3125, "\u2581leczenie": 3126, "\u2581Tra": 3127, "-5": 3128, "leg": 3129, "\u2581drugiego": 3130, "\u2581gospodarki": 3131, "\u2581wniesienia": 3132, "\u2581p\u0142yn": 3133, "owicz": 3134, "ff": 3135, "\u2581czas\u00f3w": 3136, "9,": 3137, "\u2581nagle": 3138, "\u2581obie": 3139, "\u2581p\u0119": 3140, "\u2581dowo": 3141, "\u2581przygotowa\u0107": 3142, "cze\u0144": 3143, "\u2581au": 3144, "tnej": 3145, "\u2581inni": 3146, "\u2581cia": 3147, "AW": 3148, "wi\u0105": 3149, "szczy": 3150, "\u2581Ca": 3151, "\u25813,": 3152, "\u2581Regu": 3153, "jesz": 3154, "\u2581bieg": 3155, "\u2581forum": 3156, "\u2581chroni": 3157, "tycznego": 3158, "lety": 3159, "\u2581wspiera": 3160, "\u2581Fir": 3161, "\u2581podstawy": 3162, "jek": 3163, "cone": 3164, "sen": 3165, "\u2581Poniewa\u017c": 3166, "tnych": 3167, "aku": 3168, "\u2581analizy": 3169, "\u2581prawdopodobnie": 3170, "GO": 3171, "\u2581Chc\u0119": 3172, "czni": 3173, "\u2581\u017c\u0105dania": 3174, "\u2581dosta": 3175, "\u2581czasami": 3176, "\u25812009": 3177, "\u2581pokaz": 3178, "czyk": 3179, "\u2581\u017ar\u00f3d\u0142o": 3180, "\u2581list": 3181, "\u2581zmiana": 3182, "\u2581samoch\u00f3d": 3183, "\u2581nadaje": 3184, "\u2581tle": 3185, "\u2581podania": 3186, "\u2581sprzeciwu": 3187, "\u2581stos": 3188, "ta\u017cu": 3189, "raz": 3190, "\u2581wskazuje": 3191, "\u2581lek": 3192, "\u2581planu": 3193, "\u2581Wystarczy": 3194, "\u2581tor": 3195, "now": 3196, "\u258190": 3197, "\u2581Program": 3198, "ET": 3199, "liki": 3200, "\u2581itd": 3201, "IK": 3202, "\u2581liczb\u0119": 3203, "\u2581pozosta\u0142ych": 3204, "\u2581Strona": 3205, "ez": 3206, "\u2581lepsze": 3207, "\u2581\u015bwie": 3208, "e\u015b": 3209, "\u2581wod\u0119": 3210, "\u2581sali": 3211, "pisz": 3212, "\u2581cen\u0119": 3213, "\u2581s\u0142u\u017cby": 3214, "ktu": 3215, "\u2581biur": 3216, "\u2581zwi\u0119k": 3217, "\u2581specjalnie": 3218, "\u2581masy": 3219, "\u2581bie": 3220, "czem": 3221, "\u2581\u0142\u0105": 3222, "\u2581ci\u0105gle": 3223, "\u2581korzy\u015bci": 3224, "\u2581czterech": 3225, "\u2581pewien": 3226, "\u2581u\u017cytkownik": 3227, "ic": 3228, "23": 3229, "\u2581kszta\u0142t": 3230, "\u2581wyzna": 3231, "IC": 3232, "\u2581obszarze": 3233, "wej": 3234, "\u2581zakup\u00f3w": 3235, "\u258145": 3236, "\u2581sta\u0142a": 3237, "ter\u00f3w": 3238, "bry": 3239, "\u2581Cho\u0107": 3240, "at\u00f3w": 3241, "tion": 3242, "dnia": 3243, "kty": 3244, "\u2581zawarcia": 3245, "\u2581Tam": 3246, "\u2581narz\u0119dzi": 3247, "\u25812000": 3248, "\u2581relacji": 3249, "\u2581przesz\u0142o\u015bci": 3250, "\u2581Tego": 3251, "\u2581\u017cadnej": 3252, "\u2581dobr\u0105": 3253, "leni": 3254, "\u00f3wki": 3255, "\u2581publikacji": 3256, "niku": 3257, "rat": 3258, "\u2581producent\u00f3w": 3259, "\u2581100%": 3260, "\u2581pe\u0142n\u0105": 3261, "\u2581prowadzi\u0107": 3262, "wego": 3263, "\u2581z\u0142o\u017cenia": 3264, "Za": 3265, "\u2581pozosta": 3266, "\u2581du\u017ca": 3267, "\u2581w\u0142asnym": 3268, "\u2581rodzin": 3269, "\u2581rodzi": 3270, "\u2581promocji": 3271, "\u2581ksi\u0105\u017cek": 3272, "\u25812008": 3273, "\u2581kod": 3274, "\u2581przyczyn": 3275, "\u2581stosowanie": 3276, "\u2581charakterze": 3277, "\u2581wykorzystuje": 3278, "\u2581Fa": 3279, "\u2581potwierdza": 3280, "wiania": 3281, "\u2581zle": 3282, "\u2581nazwisko": 3283, "dzona": 3284, "\u2581mas": 3285, "\u2581skoro": 3286, "\u2581pi\u0119\u0107": 3287, "ina": 3288, "\u2581Tar": 3289, "\u2581kraj": 3290, "\u0144stwu": 3291, "\u2581imieniu": 3292, "\u015bwiet": 3293, "\u2581narz\u0119dzia": 3294, "kow\u0105": 3295, "\u2581prof": 3296, "dzy": 3297, "\u2581rozporz\u0105dzenia": 3298, "dz\u0119": 3299, "\u2581dzie": 3300, "\u2581przycisk": 3301, "dar": 3302, "\u2581przetwarza": 3303, "\u2581\u0141": 3304, "\u2581dost\u0119pna": 3305, "\u2581Art": 3306, "dat": 3307, "da\u0107": 3308, "czeni": 3309, "cz\u0119": 3310, "\u2581pewnym": 3311, "\u2581da\u0107": 3312, "tej": 3313, "\u2581ca\u0142a": 3314, "\u2581hor": 3315, "\u2581mi\u0142o\u015b\u0107": 3316, "\u2581komunika": 3317, "s\u0142u": 3318, "\u2581Komisja": 3319, "\u2581okre\u015blone": 3320, "\u2581sza": 3321, "gach": 3322, "\u2581stali": 3323, "\u2581j\u0119zyku": 3324, "emu": 3325, "cza\u0107": 3326, "\u2581transport": 3327, "\u2581czu": 3328, "\u2581nieza": 3329, "OP": 3330, "\u2581per": 3331, "\u2581projekty": 3332, "\u2581szans\u0119": 3333, "\u2581wyra\u017ca": 3334, "\u2581stosowane": 3335, "\u2581zapach": 3336, "\u2581zesta": 3337, "\u2581Muzeum": 3338, "\u2581meble": 3339, "\u2581t\u0142uszcz": 3340, "\u2581cho\u0107by": 3341, "\u2581odpowiednich": 3342, "\u2581pobli\u017cu": 3343, "LE": 3344, "rzem": 3345, "\u2581przedsi\u0119biorc\u00f3w": 3346, "\u2581reklama": 3347, "ES": 3348, "lina": 3349, "str": 3350, "\u2581naturalne": 3351, "stru": 3352, "\u2581\\": 3353, "uk": 3354, "win": 3355, "US": 3356, "bel": 3357, "\u2581przeczy": 3358, "\u2581Foto": 3359, "\u2581SA": 3360, "\u2581miesi\u0105c": 3361, "vo": 3362, "szy\u0107": 3363, "\u2581Part": 3364, "\u2581stopnia": 3365, "\u2581Gu": 3366, "ono": 3367, "\u2581podstawowych": 3368, "AK": 3369, "\u2581efekty": 3370, "dow": 3371, "\u2581ban": 3372, "\u2581pe\u0142ne": 3373, "\u2581ST": 3374, "\u2581wykona\u0107": 3375, "\u2581samodzielnie": 3376, "\u2581sklep\u00f3w": 3377, "\u2581op\u0142a": 3378, "\u2581szef": 3379, "lii": 3380, "\u2581podmioty": 3381, "\u2581przypomina": 3382, "\u2581rejestracji": 3383, "\u2581sen": 3384, "\u2581gospodarczej": 3385, "\u2581miast": 3386, "\u2581pomo\u017ce": 3387, "ra\u017c": 3388, "\u2581zastrze": 3389, "\u2581zmian\u0119": 3390, "\u2581konieczno\u015bci": 3391, "owcy": 3392, "\u2581wsp\u00f3\u0142": 3393, "wiamy": 3394, "\u2581Ban": 3395, "\u2581temperatury": 3396, "\u2581Nowo": 3397, "6,": 3398, "\u2581Gminy": 3399, "k\u0142ad": 3400, "cyjnie": 3401, "\u2581dostaw": 3402, "\u2581mn\u00f3stwo": 3403, "\u2581po\u0142\u0105czenie": 3404, "\u2581podobne": 3405, "dzimy": 3406, "\u2581kolorze": 3407, "\u2581Nowy": 3408, "\u2581stworzy\u0107": 3409, "\u2581przeznaczone": 3410, "\u2581Cie": 3411, "<": 3412, "\u2581sposob\u00f3w": 3413, "\u2581pyta\u0144": 3414, "\u2581histori\u0119": 3415, "\u2581akcep": 3416, "cal": 3417, "\u2581sma": 3418, "chi": 3419, "\u2581zbie": 3420, "niaj\u0105": 3421, "szaj\u0105": 3422, "8,": 3423, "\u2581\u015bwiat\u0142o": 3424, "\u2581spokojnie": 3425, "\u2581m\u0119": 3426, "\u2581przeprowa": 3427, "\u2581ostatnie": 3428, "\u2581Miasta": 3429, "lanie": 3430, "\u2581dom\u00f3w": 3431, "\u2581liczne": 3432, "\u2581Adam": 3433, "ph": 3434, "\u2581funkcj\u0119": 3435, "ec": 3436, "\u2581stro": 3437, "OK": 3438, "\u2581wsp\u00f3\u0142pracu": 3439, "\u2581po\u017cyczki": 3440, "\u2581Powy\u017csze": 3441, "\u015bci\u0107": 3442, "\u2581By": 3443, "\u2581wielkie": 3444, "\u2581chor\u00f3b": 3445, "\u2581zaprojekt": 3446, "\u2581rekru": 3447, "\u2581wysok\u0105": 3448, "\u2581muzyki": 3449, "ZE": 3450, "-2": 3451, "\u2581okoliczno\u015bci": 3452, "\u2581interes": 3453, "\u2581WY": 3454, "\u2581prawne": 3455, "\u2581Tomasz": 3456, "\u2581otrzyma": 3457, "\u2581prosty": 3458, "\u2581pomi": 3459, "\u2581ozdob": 3460, "\u2581funkcje": 3461, "\u2581pojazd\u00f3w": 3462, "\u2581pochodzi": 3463, "\u2581sytuacj\u0119": 3464, "\u0142ami": 3465, "czonej": 3466, "\u2581czynienia": 3467, "\u2581studia": 3468, "\u2581doros\u0142ych": 3469, "\u2581dokumenty": 3470, "czy\u0142a": 3471, "\u2581dyrektor": 3472, "\u2581spacer": 3473, "\u2581got": 3474, "\u2581\u017ar\u00f3de\u0142": 3475, "p\u0119": 3476, "ling": 3477, "\u2581gro": 3478, "\u2581ka\u017cde": 3479, "\u2581przys\u0142uguje": 3480, "logiczne": 3481, "fer": 3482, "or\u00f3w": 3483, "\u2581mn\u0105": 3484, "\u2581Potem": 3485, "cony": 3486, "aln\u0105": 3487, "\u2581z\u0142o": 3488, "\u2581Wi\u0119kszo\u015b\u0107": 3489, "rowa\u0107": 3490, "m\u0119": 3491, "ctwo": 3492, "\u2581pat": 3493, "\u2581sta\u0142y": 3494, "owc\u00f3w": 3495, "\u2581Car": 3496, "\u2581optyma": 3497, "\u25811)": 3498, "\u2581prepara": 3499, "\u2581Dzie\u0144": 3500, "\u2581godzinach": 3501, "\u2581Micha\u0142": 3502, "tujemy": 3503, "\u2581star": 3504, "\u017cona": 3505, "\u2581telefoni": 3506, "\u2581wynik\u00f3w": 3507, "\u2581nast\u0119puje": 3508, "\u2581prezydent": 3509, "\u2581150": 3510, "styczna": 3511, "Wy": 3512, "\u2581wymiany": 3513, "\u2581Oto": 3514, "\u2581zapobiega": 3515, "\u2581typ": 3516, "\u2581kry": 3517, "raj": 3518, "\u2581Ka\u017cda": 3519, "\u2581wysokie": 3520, "\u2581\u015bwiatowej": 3521, "\u017conych": 3522, "\u2581moment": 3523, "\u2581dziedzinie": 3524, "\u2581zastosowania": 3525, "\u2581r\u0119k\u0119": 3526, "\u2581zamiesz": 3527, "\u2581ostatnim": 3528, "\u2581przechowywania": 3529, "\u2581ks": 3530, "\u2581mog\u0142y": 3531, "\u2581spo\u0142ecze\u0144stwa": 3532, "46": 3533, "\u2581\u0142atwiej": 3534, "\u2581odpowiedniego": 3535, "\u2581pierwsza": 3536, "\u2581dzia\u0142": 3537, "rzone": 3538, "\u2581modu": 3539, "pi\u0119": 3540, "\u2581wyna": 3541, "\u2581organizm": 3542, "\u2581zwi\u0119ksza": 3543, "pospolitej": 3544, "\u2581sk\u0142adania": 3545, "%.": 3546, "\u2581Rzeczy": 3547, "79": 3548, "\u2581r\u0119ki": 3549, "\u2581\u015b": 3550, "\u2581papier": 3551, "\u2581osob": 3552, "\u2581Con": 3553, "\u2581woda": 3554, "nii": 3555, "\u2581oczekiwania": 3556, "\u2581rozwi\u0105zaniem": 3557, "tycznym": 3558, "\u2581dowiedzie\u0107": 3559, "\u2581w\u0142asny": 3560, "\u2581uczy": 3561, "\u2581fizycznych": 3562, "\u2581milion\u00f3w": 3563, "\u2581konkursu": 3564, "90": 3565, "\u2581Ju": 3566, "\u2581najwi\u0119kszych": 3567, "waniem": 3568, "\u2581okaza\u0142o": 3569, "\u2581miejscem": 3570, "\u2581kogo\u015b": 3571, "ya": 3572, "\u2581tu\u017c": 3573, "\u2581Polskiego": 3574, "\u2581Jezus": 3575, "sza\u0107": 3576, "\u2581trening": 3577, "\u2581my\u015bl\u0105": 3578, "\u2581par\u0119": 3579, "\u2581cyfr": 3580, "son": 3581, "\u2581dobrego": 3582, "\u2581por\u00f3wnaniu": 3583, "\u017cem": 3584, "\u2581kot": 3585, "\u2581elementem": 3586, "styka": 3587, "\u2581gier": 3588, "\u2581op\u0142aty": 3589, "dzi\u0142a": 3590, "\u2581\u015brodku": 3591, "\u2581nast\u0119puj\u0105cych": 3592, "ZY": 3593, "ar\u00f3w": 3594, "\u2581wn\u0119trz": 3595, "\u2581okazj\u0119": 3596, "pre": 3597, "\u2581osob\u0105": 3598, "\u2581wg": 3599, "\u2581Fo": 3600, "\u2581potwier": 3601, "\u2581automatycznie": 3602, "pla": 3603, "pach": 3604, "\u2581trafi": 3605, "\u2581trans": 3606, "\u2581Dobrze": 3607, "\u2581Or": 3608, "\u2581kuchen": 3609, "ers": 3610, "\u2581certyfika": 3611, "\u2581Dy": 3612, "lonych": 3613, "\u2581Wszyscy": 3614, "\u2581cz\u0119\u015bci\u0105": 3615, "\u2581meta": 3616, "\u2581specjalne": 3617, "\u2581substancji": 3618, "\u2581nowa": 3619, "\u2581napisa\u0142": 3620, "\u2581panu": 3621, "\u2581drzew": 3622, "\u2581mieszka": 3623, "zmu": 3624, "\u2581nowoczes": 3625, "\u25812007": 3626, "70": 3627, "\u2581Sejmu": 3628, "\u2581broni": 3629, "\u015bmy": 3630, "\u2581psycho": 3631, "\u2581super": 3632, "Q": 3633, "g\u0119": 3634, "\u2581PL": 3635, "\u2581znaczenia": 3636, "\u2581program\u00f3w": 3637, "fy": 3638, "\u2581prezentu": 3639, "\u2581organi": 3640, "\u2581Osob": 3641, "\u2581g\u0142ow\u0119": 3642, "\u00f3d": 3643, "\u2581zasadach": 3644, "pem": 3645, "\u2581napi": 3646, "\u2581jednostek": 3647, "\u2581krok": 3648, "\u2581wi\u0119kszej": 3649, "skimi": 3650, "\u2581orze": 3651, "\u2581s\u0105d": 3652, "\u2581Powia": 3653, "\u2581brakuje": 3654, "\u2581sposobem": 3655, "\u2581prosto": 3656, "\u2581miesi\u0105ce": 3657, "dek": 3658, "\u2581Jednym": 3659, "\u2581ponosi": 3660, "\u2581miar\u0119": 3661, "\u2581sk\u0142adniki": 3662, "cm": 3663, "\u25812)": 3664, "rt": 3665, "nom": 3666, "\u258111.": 3667, "\u2581miesi\u0105ca": 3668, "\u2581Rosji": 3669, "ref": 3670, "\u2581Dzieci": 3671, "\u2581wita": 3672, "tyk\u00f3w": 3673, "\u2581oszcz\u0119": 3674, "\u2581dodaje": 3675, "pon": 3676, "i\u0107": 3677, "\u2581wybiera": 3678, "\u2581post\u0119powanie": 3679, "\u2581mebli": 3680, "larza": 3681, "tru": 3682, "\u2581obiekt\u00f3w": 3683, "tnego": 3684, "pol": 3685, "\u2581sposoby": 3686, "\u2581buty": 3687, "\u2581My\u015bl\u0119": 3688, "\u2581trudne": 3689, "7,": 3690, "\u2581intensyw": 3691, "\u2581spi": 3692, "\u2581po\u0142owie": 3693, "\u2581spraw\u0105": 3694, "\u2581stopni": 3695, "\u2581wydarze\u0144": 3696, "\u2581uszkodzenia": 3697, "\u2581zakupy": 3698, "\u2581wam": 3699, "\u2581ci\u0119\u017cko": 3700, "\u2581Regulaminu": 3701, "\u2581opcji": 3702, "\u2581kup": 3703, "\u2581oto": 3704, "45": 3705, "\u2581znane": 3706, "\u2581sub": 3707, "\u2581Chodzi": 3708, "\u2581budynk\u00f3w": 3709, "\u2581grupie": 3710, "\u2581Podobnie": 3711, "stycznej": 3712, "iu": 3713, "\u2581przechowywane": 3714, "\u2581zreszt\u0105": 3715, "wska": 3716, "\u2581\u017caden": 3717, "\u2581pojawiaj\u0105": 3718, "\u2581ostatni": 3719, "\u2581zawarte": 3720, "\u2581bazie": 3721, "\u2581wniosk\u00f3w": 3722, "fu": 3723, "\u2581codziennie": 3724, "\u2581zachwy": 3725, "lew": 3726, "\u2581wojew\u00f3dztwa": 3727, "kowo": 3728, "\u2581ryzyka": 3729, "\u2581Tre": 3730, "\u2581najlepszy": 3731, "ance": 3732, "\u2581pracuje": 3733, "\u2581o\u015bwiadczenia": 3734, "\u2581zatrudnienia": 3735, "\u2581inter": 3736, "lia": 3737, "\u2581g\u0142osu": 3738, "bor": 3739, "\u2581prezes": 3740, "\u2581programie": 3741, "\u2581w\u0142o": 3742, "\u2581Francji": 3743, "\u2581oce": 3744, "\u2581sos": 3745, "\u2581m\u0119\u017cczyzna": 3746, "\u2581podstaw": 3747, "\u2581analiz": 3748, "\u2581poczucie": 3749, "ca\u0107": 3750, "nionym": 3751, "\u2581rozmiar": 3752, "\u2581odpowiedniej": 3753, "\u2581s\u0142o": 3754, "\u2581g\u0142ow\u0105": 3755, "\u2581spo\u0142ecznych": 3756, "\u2581pokazuje": 3757, "\u2581dzie\u0107mi": 3758, "\u2581kwot\u0119": 3759, "\u2581Mie": 3760, "\u2581Zjednoczonych": 3761, "\u2581nazw\u0119": 3762, "\u2581powsta\u0142": 3763, "\u2581budow\u0119": 3764, "\u25812004": 3765, "\u2581konferencji": 3766, "\u2581gdzie\u015b": 3767, "\u2581Anna": 3768, "\u2581statystycznych": 3769, "wia\u0107": 3770, "\u2581modele": 3771, "\u2581pi\u0119kne": 3772, "\u2581pos\u0142\u00f3w": 3773, "\u2581najnow": 3774, "\u2581wy\u0142\u0105": 3775, "au": 3776, "ni\u0142": 3777, "\u2581ustawa": 3778, "\u2581Znaj": 3779, "\u2581inform": 3780, "\u2581up": 3781, "\u2581kana": 3782, "EG": 3783, "\u2581Krzysztof": 3784, "\u2581win": 3785, "wami": 3786, "SP": 3787, "mal": 3788, "\u2581krem": 3789, "\u2581\u0142azie": 3790, "\u2581diagno": 3791, "\u2581gaz": 3792, "kli": 3793, "\u2581Per": 3794, "\u2581Kry": 3795, "\u2581obowi\u0105zku": 3796, "\u2581samocho": 3797, "\u2581Jezusa": 3798, "pki": 3799, "\u2581dziennie": 3800, "\u2581publicznego": 3801, "\u2581ple": 3802, "\u2581swej": 3803, "ama": 3804, "\u2581jakiej": 3805, "lki": 3806, "\u2581stabi": 3807, "\u2581pisze": 3808, "\u2581finansowe": 3809, "\u2581wszystkiego": 3810, "nionego": 3811, "gami": 3812, "\u2581trudno\u015bci": 3813, "sz\u0119": 3814, "tnym": 3815, "\u2581bran": 3816, "\u2581maj": 3817, "\u2581hi": 3818, "\u2581rozpozna": 3819, "dn\u0105": 3820, "\u2581Nasz": 3821, "\u2581konkuren": 3822, "\u2581kwa": 3823, "lona": 3824, "\u2581najwa\u017cniejszych": 3825, "\u2581kolory": 3826, "\u2581pacjenta": 3827, "\u2581podstawowe": 3828, "\u2581Gdzie": 3829, "gene": 3830, "\u2581\u015bmier\u0107": 3831, "\u2581wykonany": 3832, "\u2581wykorzystania": 3833, "\u2581oprogramowania": 3834, "\u2581sezonie": 3835, "\u2581podkre\u015bla": 3836, "\u2581czym\u015b": 3837, "\u00d3": 3838, "\u2581\u0141a": 3839, "&": 3840, "\u2581mld": 3841, "\u2581nauczycieli": 3842, "\u2581Cz": 3843, "\u2581Gru": 3844, "\u2581musz\u0119": 3845, "\u2581niewiele": 3846, "\u2581uniwers": 3847, "\u2581u\u017cyte": 3848, "\u2581wymagania": 3849, "alnego": 3850, "\u2581Dz": 3851, "\u2581moj\u0105": 3852, "\u2581polu": 3853, "tyczn\u0105": 3854, "\u2581d\u0142ugi": 3855, "\u2581table": 3856, "\u2581s\u0142owo": 3857, "kro": 3858, "\u2581aktualnie": 3859, "\u2581\u017ar\u00f3d\u0142a": 3860, "WE": 3861, "\u2581okna": 3862, "sti": 3863, "owa\u0142am": 3864, "\u2581kt\u00f3remu": 3865, "stwie": 3866, "czk\u0105": 3867, "\u2581sesji": 3868, "p\u00f3w": 3869, "\u2581Masz": 3870, "\u2581znajdziemy": 3871, "\u2581danym": 3872, "\u2581\u015bwiadczenie": 3873, "\u2581dr\u00f3g": 3874, "\u2581preferencji": 3875, "\u2581pocz\u0105tek": 3876, "DZ": 3877, "\u2581start": 3878, "\u2581ml": 3879, "\u2581\u0142\u0105czy": 3880, "\u2581praktyce": 3881, "\u2581studi\u00f3w": 3882, "\u2581Parlamentu": 3883, "\u2581przedmiotem": 3884, "\u2581stacjon": 3885, "\u258112.": 3886, "\u2581kurs": 3887, "\u2581umow\u0119": 3888, "\u2581ela": 3889, "\u2581Nowe": 3890, "mm": 3891, "\u2581Gdyby": 3892, "\u2581wsp\u00f3lnego": 3893, "\u2581kul": 3894, "\u2581zagro\u017cenia": 3895, "s\u0142": 3896, "-4": 3897, "anem": 3898, "\u2581rodzice": 3899, "\u2581\u015bci": 3900, "\u2581usu": 3901, "\u2581trwania": 3902, "\u2581uzna": 3903, "duje": 3904, "\u2581potrzeba": 3905, "-19": 3906, "\u2581procesie": 3907, "\u2581pracowa\u0107": 3908, "\u2581skali": 3909, "\u2581z\u0142o\u017cy\u0107": 3910, "czania": 3911, "\u2581Wielkiej": 3912, "\u2581wykonana": 3913, "\u2581zapewne": 3914, "\u2581zacz\u0105\u0107": 3915, "\u2581szeroko": 3916, "KI": 3917, "\u2581droga": 3918, "ka\u0107": 3919, "\u25812002": 3920, "bli": 3921, "nne": 3922, "\u2581publi": 3923, "\u2581zdj\u0119cie": 3924, "\u2581jo": 3925, "\u2581sur": 3926, "\u2581Ap": 3927, "uro": 3928, "\u2581\u015bcie": 3929, "\u2581\u0142u": 3930, "alnej": 3931, "\u2581wi\u0105\u017ce": 3932, "\u2581wa\u017cna": 3933, "\u2581kredy": 3934, "\u2581swoimi": 3935, "\u2581partii": 3936, "\u2581og\u0142oszenia": 3937, "wi\u0107": 3938, "\u2581rowe": 3939, "\u2581prawnie": 3940, "\u2581imprezy": 3941, "\u2581pal": 3942, "\u2581artyku\u0142\u00f3w": 3943, "leniu": 3944, "\u2581otrzyma\u0142": 3945, "\u2581drug\u0105": 3946, "\u2581mia\u0142em": 3947, "\u2581monta\u017c": 3948, "UR": 3949, "row": 3950, "\u2581wyb": 3951, "\u2581prost": 3952, "b\u0119": 3953, "\u2581szko": 3954, "\u2581niewy": 3955, "\u2581\u017ale": 3956, "\u2581maszyn": 3957, "taminy": 3958, "\u2581Star": 3959, "\u2581powinni": 3960, "s\u0142o": 3961, "\u2581powoli": 3962, "lator": 3963, "dnego": 3964, "10.": 3965, "\u2581pojazdu": 3966, "\u2581wido": 3967, "ban": 3968, "tycznie": 3969, "\u2581Jednocze\u015bnie": 3970, "\u2581bru": 3971, "ruje": 3972, "\u2581natury": 3973, "\u2581nag": 3974, "\u2581pos\u0142a": 3975, "\u2581zrozumie\u0107": 3976, "\u2581konstrukcji": 3977, "\u2581przestrze\u0144": 3978, "\u2581imprez": 3979, "\u2581oczu": 3980, "\u2581lek\u00f3w": 3981, "\u2581nale\u017c\u0105": 3982, "cin": 3983, "\u2581Nazwa": 3984, "\u258136": 3985, "\u2581niepo": 3986, "\u2581Prawa": 3987, "\u2581Par": 3988, "lane": 3989, "\u2581rzadko": 3990, "\u2581trady": 3991, "\u2581Sza": 3992, "\u2581\u015bciany": 3993, "\u2581zako\u0144czeniu": 3994, "\u2581ponow": 3995, "\u2581podobnych": 3996, "\u2581g\u0142\u00f3wnym": 3997, "\u2581daty": 3998, "\u2581sukces": 3999, "\u2581y": 4000, "\u2581ochron\u0119": 4001, "\u2581obja": 4002, "\u2581piersi": 4003, "\u2581mog\u0142o": 4004, "\u2581nazwy": 4005, "\u2581pracownicy": 4006, "bach": 4007, "\u0142on": 4008, "daj\u0105": 4009, "wa\u0142o": 4010, "r\u00f3": 4011, "ID": 4012, "owca": 4013, "\u2581t\u0142u": 4014, "\u2581zachowa\u0107": 4015, "\u2581szuka\u0107": 4016, "czno\u015bci": 4017, "\u2581dyspozycji": 4018, "\u2581rozwi": 4019, "\u2581tre\u015b\u0107": 4020, "kowania": 4021, "\u2581u\u017cywa\u0107": 4022, "\u00b0": 4023, "\u2581wielk\u0105": 4024, "\u25812006": 4025, "\u2581zainteresowa\u0144": 4026, "anek": 4027, "\u2581db": 4028, "\u2581tydzie\u0144": 4029, "\u2581aran": 4030, "\u2581z\u0119b\u00f3w": 4031, "\u2581kredytu": 4032, "\u2581objawy": 4033, "\u2581Osoby": 4034, "\u2581Kultury": 4035, "\u2581Gro": 4036, "\u2581dowie": 4037, "\u2581Praw": 4038, "\u2581rezerwa": 4039, "\u2581okaza\u0107": 4040, "\u2581sytuacjach": 4041, "\u2581doda\u0142": 4042, "dnym": 4043, "\u2581Ak": 4044, "\u2581Przede": 4045, "UE": 4046, "\u2581dzi": 4047, "\u2581Czym": 4048, "rania": 4049, "ning": 4050, "\u2581Pierwszy": 4051, "kich": 4052, "\u2581sezon": 4053, "\u2581zni": 4054, "czno": 4055, "\u2581W\u0142\u0105": 4056, "\u2581rano": 4057, "\u2581osi\u0105gn\u0105\u0107": 4058, "\u2581zapa": 4059, "\u2581Ko\u015bci\u00f3\u0142": 4060, "\u2581Tymczasem": 4061, "\u2581mg": 4062, "\u2581wyposa": 4063, "\u2581wymagaj\u0105": 4064, "nice": 4065, "\u2581sprawdzi": 4066, "\u2581artyku\u0142y": 4067, "gan": 4068, "PR": 4069, "\u2581daleko": 4070, "\u2581g\u0142o": 4071, "lizm": 4072, "\u2581Sh": 4073, "\u2581handlowych": 4074, "\u2581zdolno\u015bci": 4075, "\u2581Zawsze": 4076, "\u2581ostatnio": 4077, "\u2581Ri": 4078, "kowa\u0107": 4079, "\u2581ca\u0142o\u015b\u0107": 4080, "\u2581czynnik\u00f3w": 4081, "cj": 4082, "\u2581m\u00f3wi\u0105": 4083, "\u2581zobowi\u0105zany": 4084, "\u2581wygodne": 4085, "mem": 4086, "\u2581cechy": 4087, "\u2581powszechnie": 4088, "\u2581zam\u00f3wie\u0144": 4089, "\u2581Sie": 4090, "ine": 4091, "\u2581odb\u0119dzie": 4092, "\u2581psa": 4093, "\u2581okazuje": 4094, "\u2581prze\u017cy": 4095, "\u2581urz\u0119du": 4096, "\u2581wyst\u0105pienia": 4097, "\u2581kor": 4098, "\u2581szybciej": 4099, "\u2581Hu": 4100, "suje": 4101, "\u2581kolor\u00f3w": 4102, "\u2581wyst\u0119puj\u0105": 4103, "\u2581pow": 4104, "tow\u0105": 4105, "oru": 4106, "2)": 4107, "\u2581zabezpie": 4108, "muje": 4109, "to\u015b\u0107": 4110, "\u2581groma": 4111, "\u2581posta\u0107": 4112, "\u2581wydania": 4113, "nujemy": 4114, "\u2581dzieci\u0119": 4115, "\u2581przygotowanie": 4116, "\u2581doda": 4117, "****": 4118, "\u2581For": 4119, "\u2581poczty": 4120, "luje": 4121, "i\u0119k": 4122, "\u2581spotka\u0144": 4123, "\u2581w\u0119": 4124, "\u2581wskazane": 4125, "\u2581stacji": 4126, "\u2581odpowiedni\u0105": 4127, "\u2581popra": 4128, "\u2581gwarancji": 4129, "\u2581niczego": 4130, "\u2581Brak": 4131, "\u2581chwil": 4132, "\u2581kampanii": 4133, "gna": 4134, "are": 4135, "\u258100": 4136, "dnej": 4137, "\u2581poko": 4138, "\u2581zasi": 4139, "\u2581gar": 4140, "\u2581komputer": 4141, "\u2581Bo\u017ce": 4142, "\u2581popular": 4143, "\u2581wa\u017cny": 4144, "s\u0142a": 4145, "\u2581Sko": 4146, "\u2581d\u0142ugie": 4147, "\u2581opo": 4148, "\u2581pojem": 4149, "\u2581Szcze": 4150, "\u2581wysta": 4151, "\u2581ksi\u0105\u017cka": 4152, "22": 4153, "dr": 4154, "\u2581po\u0142\u0105czenia": 4155, "\u2581\u017cy\u0107": 4156, "\u2581pewno\u015b\u0107": 4157, "kowanie": 4158, "\u2581\u015bmie": 4159, "\u2581pola": 4160, "rzony": 4161, "\u2581zim": 4162, "\u2581zegar": 4163, "\u2581artyku\u0142": 4164, "\u2581sprz\u0119": 4165, "\u2581zawieraj\u0105": 4166, "\u2581rejestra": 4167, "org": 4168, "\u2581dyskusji": 4169, "\u2581ojca": 4170, "\u2581st\u0105d": 4171, "owuje": 4172, "\u2581serce": 4173, "\u2581dobrych": 4174, "\u2581edukacji": 4175, "\u2581sklepach": 4176, "\u2581Tutaj": 4177, "\u2581\u017c": 4178, "\u2581druga": 4179, "\u2581og": 4180, "\u2581um": 4181, "\u2581los": 4182, "\u2581mieszkanie": 4183, "ci\u0119": 4184, "\u2581r\u00f3wno": 4185, "\u2581fanta": 4186, "\u2581znak": 4187, "liny": 4188, "\u2581obni": 4189, "\u2581rodzaje": 4190, "\u2581mechani": 4191, "\u2581wystawi": 4192, "\u2581wizu": 4193, "\u2581Mo\u017cemy": 4194, "dno\u015b\u0107": 4195, "\u2581roszcze\u0144": 4196, "\u2581przepis": 4197, "\u2581metod": 4198, "ill": 4199, "\u2581pe\u0142nej": 4200, "\u2581potrzebuje": 4201, "\u2581di": 4202, "\u2581wk\u0142ad": 4203, "\u2581zawartych": 4204, "\u2581bezpieczne": 4205, "\u258195": 4206, "\u2581\u0107wiczenia": 4207, "\u2581zastos": 4208, "\u2581alkoholu": 4209, "\u2581komputera": 4210, "\u2581widzi": 4211, "\u2581otrzymuje": 4212, "\u2581ska": 4213, "\u2581zarazem": 4214, "kiej": 4215, "\u2581wz": 4216, "\u2581Zw": 4217, "\u2581rady": 4218, "\u2581film\u00f3w": 4219, "\u2581pi\u0105tek": 4220, "\u2581wenty": 4221, "\u2581s\u0105du": 4222, "\u2581biura": 4223, "\u013d": 4224, "\u2581prawn\u0105": 4225, "\u2581Dzie": 4226, "\u2581projekcie": 4227, "\u2581Dob": 4228, "\u2581got\u00f3w": 4229, "\u2581Pracy": 4230, "\u2581administracji": 4231, "\u2581szybkie": 4232, "\u258148": 4233, "dziesz": 4234, "stwem": 4235, "\u2581g\u0142owie": 4236, "\u2581pracownika": 4237, "\u2581przestrze": 4238, "\u2581\u015bwiadomo\u015b\u0107": 4239, "\u2581Au": 4240, "\u2581wprost": 4241, "\u2581tro": 4242, "\u2581pierwsz\u0105": 4243, "\u0143": 4244, "\u2581Organiz": 4245, "\u25812005": 4246, "\u2581(2": 4247, "\u2581mody": 4248, "\u2581przygo": 4249, "rzej": 4250, "\u2581Historia": 4251, "\u2581zabaw": 4252, "\u2581alu": 4253, "rac": 4254, "owskiej": 4255, "\u2581bak": 4256, "\u2581wal": 4257, "\u2581ubezpieczenia": 4258, "\u2581VI": 4259, "\u2581znajd\u0105": 4260, "EC": 4261, "\u2581Uniwersytetu": 4262, "\u2581wycie": 4263, "\u2581dost\u0119pno\u015b\u0107": 4264, "\u2581stomato": 4265, "dowej": 4266, "\u2581recen": 4267, "\u2581przyj\u0119cia": 4268, "\u2581nu": 4269, "\u2581odniesieniu": 4270, "\u2581kwestia": 4271, "\u2581ko\u015bcio\u0142a": 4272, "\u2581op\u0142at": 4273, "\u2581stra": 4274, "stw": 4275, "fek": 4276, "\u2581wersja": 4277, "\u2581DO": 4278, "tn\u0105": 4279, "szony": 4280, "ene": 4281, "wszy": 4282, "\u2581g\u00f3r": 4283, "\u2581Bank": 4284, "\u2581zachowanie": 4285, "\u2581wynagrodzenia": 4286, "\u2581gwarantuje": 4287, "\u2581Cho": 4288, "st\u0119": 4289, "\u0105d": 4290, "\u2581Infor": 4291, "\u2581sprawdza": 4292, "\u2581Niekt\u00f3re": 4293, "\u2581punkty": 4294, "\u2581zabieg": 4295, "\u2581nowoczesne": 4296, "pat": 4297, "\u2581\u015bwiadcze\u0144": 4298, "\u2581pomieszczenia": 4299, "\u2581transakcji": 4300, "\u2581banku": 4301, "\u2581usun\u0105\u0107": 4302, "\u2581p\u0142yty": 4303, "\u2581\u0142\u0105cznie": 4304, "\u2581technicznych": 4305, "\u2581wchodzi": 4306, "\u2581rodzinie": 4307, "\u2581unikn\u0105\u0107": 4308, "\u2581gru": 4309, "\u2581Izby": 4310, "pera": 4311, "niejszym": 4312, "\u2581partner\u00f3w": 4313, "\u2581\u015bwi\u0105te": 4314, "\u2581bawe\u0142": 4315, "\u2581Przygot": 4316, "\u2581nap\u0119": 4317, "\u2581Przedsi\u0119bior": 4318, "To": 4319, "\u2581interesu": 4320, "\u2581opini\u0119": 4321, "\u2581Dzisiaj": 4322, "\u2581stale": 4323, "\u2581sta\u0142e": 4324, "\u2581vi": 4325, "\u2581syn": 4326, "\u2581podlega": 4327, "\u2581wideo": 4328, "szona": 4329, "\u2581Kor": 4330, "\u0142ek": 4331, "\u2581wyci\u0105g": 4332, "\u2581ma\u0142y": 4333, "\u2581San": 4334, "kowane": 4335, "\u2581rozumieniu": 4336, "chem": 4337, "ci\u0105": 4338, "dzili": 4339, "\u2581przypadk\u00f3w": 4340, "\u2581wprowadzenie": 4341, "\u2581partner": 4342, "qu": 4343, "\u2581am": 4344, "\u2581okien": 4345, "\u2581zarejestr": 4346, "In": 4347, "\u2581lekarz": 4348, "\u0142ach": 4349, "\u2581najwi\u0119cej": 4350, "\u2581pomimo": 4351, "kowski": 4352, "ownie": 4353, "\u2581Kategoria": 4354, "\u2581By\u0107": 4355, "Do": 4356, "\u25811000": 4357, "\u2581koszy": 4358, "\u2581baz": 4359, "\u2581tele": 4360, "\u2581powsta\u0142a": 4361, "\u2581\u015ble": 4362, "cep": 4363, "12.": 4364, "\u2581opowiada": 4365, "\u2581wiary": 4366, "\u2581jakiego\u015b": 4367, "\u2581stwo": 4368, "\u2581koniecznie": 4369, "\u2581B\u0119dzie": 4370, "\u2581Inne": 4371, "\u2581koszu": 4372, "\u2581komple": 4373, "\u2581Jo": 4374, "\u2581201": 4375, "\u2581wi\u0119kszych": 4376, "\u2581stanowi\u0107": 4377, "\u2581Chrystusa": 4378, "\u2581wady": 4379, "\u2581Sy": 4380, "logicznych": 4381, "\u2581dia": 4382, "\u2581]": 4383, "pisy": 4384, "lama": 4385, "\u2581pobytu": 4386, "\u2581podstaw\u0105": 4387, "ria": 4388, "\u2581mi\u0119dzynarod": 4389, "\u2581trybie": 4390, "\u2581nara": 4391, "lacj\u0119": 4392, "\u2581dora": 4393, "n\u0105\u0142": 4394, "\u2581ud": 4395, "\u2581problemem": 4396, "\u2581\u015brodka": 4397, "\u2581konfi": 4398, "\u2581zawarto\u015bci": 4399, "\u2581ogromne": 4400, "\u2581smaku": 4401, "towania": 4402, "\u2581fak": 4403, "\u2581fach": 4404, "\u2581pr": 4405, "\u2581spotka\u0107": 4406, "pom": 4407, "\u2581powstania": 4408, "\u25814,": 4409, "cych": 4410, "\u2581Pierwsze": 4411, "czaj\u0105": 4412, "\u2581specjalnych": 4413, "ant\u00f3w": 4414, "\u2581zaawans": 4415, "\u2581s\u0142y": 4416, "\u2581sam\u0105": 4417, "stycznego": 4418, "\u2581znanych": 4419, "\u2581systemy": 4420, "\u2581Wykonaw": 4421, "\u2581znany": 4422, "\u2581dochodzi": 4423, "\u2581wyr\u00f3\u017c": 4424, "\u2581odczu": 4425, "\u2581jako\u015b": 4426, "\u2581przej\u015b\u0107": 4427, "\u2581El": 4428, "\u2581informuje": 4429, "\u2581mieszka\u0144": 4430, "\u2581obecno\u015bci": 4431, "ura": 4432, "kr\u0119": 4433, "\u2581przysz\u0142o\u015b\u0107": 4434, "\u2581bud": 4435, "\u2581skargi": 4436, "\u2581powod\u00f3w": 4437, "\u2581ko\u0144czy": 4438, "\u2581by\u0142em": 4439, "\u2581obrazu": 4440, "\u2581ar": 4441, "bi\u0107": 4442, "lam": 4443, "\u2581Dar": 4444, "\u2581ojciec": 4445, "\u258132": 4446, "\u2581zach": 4447, "\u2581pokry": 4448, "\u2581dzia\u0142a\u0107": 4449, "\u2581Polacy": 4450, "\u2581tekstu": 4451, "\u2581\u0142ago": 4452, "\u2581her": 4453, "\u2581przele": 4454, "\u2581dotychczas": 4455, "\u2581wnioski": 4456, "\u2581asorty": 4457, "\u2581IP": 4458, "czon\u0105": 4459, "wiam": 4460, "\u2581\u017co\u0142nierzy": 4461, "torzy": 4462, "land": 4463, "\u2581poszu": 4464, "\u2581Ziemi": 4465, "\u2581s\u0142u": 4466, "\u2581Mat": 4467, "\u2581u\u017cytku": 4468, "\u2581Wia": 4469, "\u2581wsz\u0119dzie": 4470, "sk\u00f3w": 4471, "\u2581kontek\u015bcie": 4472, "ll": 4473, "\u2581Marek": 4474, "\u2581XIX": 4475, "\u2581zawarto\u015b\u0107": 4476, "kla": 4477, "\u2581(1": 4478, "\u2581cukru": 4479, "zn": 4480, "\u201d.": 4481, "\u2581konserwa": 4482, "gowe": 4483, "\u2581ko\u015bci": 4484, "\u2581widoczny": 4485, "\u2581\u015bwi\u0119": 4486, "cznik": 4487, "\u2581instruk": 4488, "\u2581konieczno\u015b\u0107": 4489, "\u2581portal": 4490, "\u2581pewnego": 4491, "towym": 4492, "\u2581tru": 4493, "\u2581matki": 4494, "\u2581persona": 4495, "\u2581faktycznie": 4496, "szem": 4497, "\u2581\u017cywno\u015bci": 4498, "\u0105ca": 4499, "\u2581dokument": 4500, "\u2581Wal": 4501, "\u2581Jacek": 4502, "\u2581w\u0142a": 4503, "\u2581zapewniaj\u0105": 4504, "\u2581120": 4505, "\u2581zde": 4506, "akiem": 4507, "\u2581wyr\u00f3\u017cnia": 4508, "\u2581400": 4509, "\u2581osobi\u015bcie": 4510, "\u2581pok\u00f3j": 4511, "caj\u0105": 4512, "g\u0142o": 4513, "\u2581\u0142atwe": 4514, "\u2581kawy": 4515, "tele": 4516, "\u2581lak": 4517, "\u2581gruczo": 4518, "dal": 4519, "\u2581zapis": 4520, "%,": 4521, "\u25812001": 4522, "\u2581og\u0142o": 4523, "kuj\u0105": 4524, "niona": 4525, "stami": 4526, "\u2581Ide": 4527, "\u2581ponadto": 4528, "\u2581Kra": 4529, "\u2581u\u017cycia": 4530, "\u2581wzor": 4531, "\u2581robo": 4532, "\u2581informacja": 4533, "\u2581nogi": 4534, "\u2581Istnieje": 4535, "\u2581sku": 4536, "\u2581adresu": 4537, "gh": 4538, "2019": 4539, "stem": 4540, "\u2581odleg\u0142o\u015bci": 4541, "\u2581charakteru": 4542, "\u2581teren": 4543, "\u2581zawi": 4544, "stycznym": 4545, "\u2581Ministerstwo": 4546, "\u2581wyra": 4547, "\u2581Niemiec": 4548, "\u2581By\u0142a": 4549, "nemu": 4550, "\u2581lud\u017ami": 4551, "czamy": 4552, "\u2581m\u00f3c": 4553, "\u258133": 4554, "\u017conej": 4555, "\u2581upraw": 4556, "\u2581wiek": 4557, "\u2581daj\u0105": 4558, "poli": 4559, "\u2581Liczba": 4560, "ersona": 4561, "\u2581wyro": 4562, "\u2581plasti": 4563, "\u2581naro": 4564, "\u2581Cze": 4565, "\u2581zwi\u0105zek": 4566, "iar": 4567, "LA": 4568, "metr": 4569, "\u2581mo\u017cecie": 4570, "\u2581kryteria": 4571, "\u2581Wyko": 4572, "\u2581operacji": 4573, "\u2581ryb": 4574, "\u015bli": 4575, "ck\u0105": 4576, "\u2581utrzymania": 4577, "\u2581p\u0142o": 4578, "stym": 4579, "-10": 4580, "\u2581Paw\u0142a": 4581, "\u2581pr\u00f3b": 4582, "pienia": 4583, "\u2581pod\u0142\u0105": 4584, "letni": 4585, "\u2581bie\u017c\u0105co": 4586, "\u2581war": 4587, "\u2581wielki": 4588, "\u2581form\u0119": 4589, "\u2581wielkim": 4590, "bin": 4591, "got": 4592, "\u2581Q": 4593, "\u2581Niech": 4594, "\u2581bank": 4595, "\u2581aplika": 4596, "\u2581wypowiedzi": 4597, "del": 4598, "\u2581nieu": 4599, "\u2581decyzja": 4600, "\u2581atak": 4601, "Ma": 4602, "pto": 4603, "\u2581wysy\u0142a": 4604, "\u2581m\u00f3zgu": 4605, "\u2581pi\u0119ciu": 4606, "\u2581zainstal": 4607, "\u2581Bogu": 4608, "OB": 4609, "\u2581Pla": 4610, "\u2581wyko": 4611, "mon": 4612, "szeniu": 4613, "GA": 4614, "NIE": 4615, "75": 4616, "\u2581wspomaga": 4617, "hu": 4618, "\u2581Bur": 4619, "\u2581zacz\u0119\u0142a": 4620, "\u2581przypad": 4621, "\u2581Com": 4622, "\u2581warunkiem": 4623, "\u2581organiz": 4624, "wiaj\u0105c": 4625, "\u2581Pat": 4626, "\u2581propozycji": 4627, "\u2581Celem": 4628, "ena": 4629, "\u2581posta": 4630, "brania": 4631, "\u2581Korzyst": 4632, "\u2581sk\u0105d": 4633, "\u258134": 4634, "liwy": 4635, "\u2581g\u0142\u00f3wnych": 4636, "\u2581Sejm": 4637, "\u2581procedury": 4638, "z\u0142": 4639, "\u2581osobie": 4640, "\u2581podane": 4641, "ctwa": 4642, "\u2581pewnych": 4643, "\u2581stawia": 4644, "\u2581cyklu": 4645, "\u2581kolekcji": 4646, "\u2581inn\u0105": 4647, "\u2581podsum": 4648, "\u2581hotelu": 4649, "\u2581wkr\u00f3tce": 4650, "king": 4651, "\u2581pochodzenia": 4652, "\u2581prawnej": 4653, "\u2581zmieni": 4654, "atem": 4655, "lno\u015bci\u0105": 4656, "\u2581znalaz\u0142": 4657, "\u2581Mon": 4658, "niejsz\u0105": 4659, "\u2581cieszy\u0107": 4660, "two": 4661, "\u2581artyku\u0142u": 4662, "\u2581menu": 4663, "\u2581poprawki": 4664, "\u0105cego": 4665, "\u2581Hi": 4666, "\u2581obiektu": 4667, "\u2581Niemcy": 4668, "\u2581wykorzystanie": 4669, "\u2581Lin": 4670, "\u2581Wil": 4671, "mieniem": 4672, "\u2581arom": 4673, "bienie": 4674, "\u2581terytorium": 4675, "\u2581przedmiot\u00f3w": 4676, "nia\u0107": 4677, "ako": 4678, "\u2581organu": 4679, "lot": 4680, "\u2581Taki": 4681, "rad": 4682, "\u2581stwierdzi\u0142": 4683, "\u2581w\u0142adze": 4684, "\u2581Poznaniu": 4685, "\u2581wyj\u0105tkiem": 4686, "\u2581wykorzystaniem": 4687, "99": 4688, "pad": 4689, "\u2581Forum": 4690, "\u2581Grupa": 4691, "\u2581PLN": 4692, "\u2581Poni\u017cej": 4693, "\u2581r\u00f3\u017cni": 4694, "\u2581konsu": 4695, "liz": 4696, "\u2581Plan": 4697, "\u2581lod\u00f3w": 4698, "\u0105cym": 4699, "\u2581kredyt": 4700, "\u2581wybranych": 4701, "\u2581bywa": 4702, "\u2581spo\u0142eczne": 4703, "\u2581specjalist\u00f3w": 4704, "\u2581Ge": 4705, "27": 4706, "rz\u0105dzenia": 4707, "\u2581g\u00f3r\u0119": 4708, "\u2581niedziel\u0119": 4709, "\u2581poniedzia\u0142ek": 4710, "\u2581termo": 4711, "\u2581g\u0142\u00f3wnej": 4712, "ralne": 4713, "\u2581Pozna": 4714, "\u2581pokarm": 4715, "tycz": 4716, "\u2581potrafi\u0105": 4717, "lania": 4718, "\u2581sch": 4719, "\u2581zagranicznych": 4720, "\u2581\u017ar\u00f3d\u0142em": 4721, "dniki": 4722, "\u2581zabezpieczenia": 4723, "200": 4724, "\u2581modeli": 4725, "UM": 4726, "\u2581niniejszego": 4727, "\u2581Jeden": 4728, "mini": 4729, "\u2581podej\u015bcie": 4730, "\u2581u\u0142atwia": 4731, "\u2581widok": 4732, "\u2581decyduje": 4733, "grze": 4734, "\u2581opa": 4735, "\u2581auta": 4736, "\u2581rejestru": 4737, "\u2581dba": 4738, "\u2581przedsi\u0119biorstw": 4739, "\u2581Marcin": 4740, "26": 4741, "ni\u0119ciu": 4742, "\u2581sporz\u0105": 4743, "\u2581wykry": 4744, "\u2581pobie": 4745, "\u2581obrony": 4746, "\u2581dodatek": 4747, "\u2581Regulamin": 4748, "\u2581powietrze": 4749, "kowie": 4750, "\u2581sens": 4751, "\u2581Media": 4752, "\u2581sprzeda": 4753, "\u2581pis": 4754, "\u2581osi\u0105gni\u0119cia": 4755, "czo\u015bci": 4756, "\u2581stara": 4757, "sze\u0144": 4758, "\u2581sprostowania": 4759, "\u2581widz\u0119": 4760, "dla": 4761, "\u2581ko\u0144cowym": 4762, "\u2581premier": 4763, "\u2581gr": 4764, "OG": 4765, "\u2581list\u0119": 4766, "\u2581s\u0142u\u017cy": 4767, "\u2581b\u0142\u0105d": 4768, "\u2581wodzie": 4769, "\u0144stwo": 4770, "1)": 4771, "\u2581domy": 4772, "\u2581jakiego": 4773, "cej": 4774, "\u2581granicy": 4775, "wanego": 4776, "\u2581ko\u0142o": 4777, "nowa": 4778, "\u2581pos": 4779, "\u2581sprzed": 4780, "\u2581inna": 4781, "\u2581Chocia\u017c": 4782, "asa": 4783, "\u2581wiedzia\u0142": 4784, "\u2581najpopular": 4785, "35": 4786, "\u2581uczniowie": 4787, "\u2581Archi": 4788, "\u2581Ministra": 4789, "stek": 4790, "\u2581regularnie": 4791, "\u2581mieszka\u0144cy": 4792, "\u2581owoc\u00f3w": 4793, "\u2581konkurs": 4794, "\u2581k\u0105tem": 4795, "\u2581atmosfery": 4796, "\u2581tygodnie": 4797, "\u2581po\u015bwi\u0119": 4798, "\u2581klubu": 4799, "\u2581kogo": 4800, "\u0144sk\u0105": 4801, "\u2581pojawi": 4802, "\u2581zrobi": 4803, "\u2581pe\u0142no": 4804, "\u2581Zesp\u00f3\u0142": 4805, "und": 4806, "\u2581Wielu": 4807, "\u2581z\u0142a": 4808, "\u2581jakichkolwiek": 4809, "\u2581edycji": 4810, "\u2581udzia\u0142em": 4811, "\u2581przesy\u0142": 4812, "\u2581tworz\u0105": 4813, "\u2581producent": 4814, "rg": 4815, "\u2581obywateli": 4816, "\u2581naturalnych": 4817, "NI": 4818, "\u2581skutki": 4819, "\u2581numerem": 4820, "\u2581plus": 4821, "\u2581\u015brodowisko": 4822, "\u2581minimum": 4823, "si\u0105": 4824, "\u2581sprawiedliwo\u015bci": 4825, "\u2581ostatecznie": 4826, "\u2581przydat": 4827, "\u2581okre\u015bli\u0107": 4828, "IM": 4829, "\u2581posze": 4830, "\u2581zgodno\u015b\u0107": 4831, "\u2581ubo": 4832, "\u2581prezesa": 4833, "j\u0119cia": 4834, "\u2581nieprawid\u0142": 4835, "\u2581Internecie": 4836, "\u0142o\u015bci": 4837, "\u2581sek": 4838, "\u2581wyprze": 4839, "\u2581Mor": 4840, "wanej": 4841, "rze\u0144": 4842, "\u2581s\u0142ucha": 4843, "\u2581m\u0142odzie\u017c": 4844, "\u2581Gwaran": 4845, "\u2581wz\u00f3r": 4846, "iej": 4847, "\u2581fe": 4848, "\u2581tem": 4849, "\u2581wi\u0119ksza": 4850, "dzonego": 4851, "\u2581zdarzenia": 4852, "\u2581wyj\u0105tk": 4853, "zdy": 4854, "\u2581regionu": 4855, "uj\u0105c": 4856, "zacj\u0119": 4857, "\u2581wyp": 4858, "\u2581autora": 4859, "\u2581bal": 4860, "\u2581Th": 4861, "\u2581sobot\u0119": 4862, "\u2581przekazania": 4863, "\u2581sumie": 4864, "\u2581Euro": 4865, "\u017cki": 4866, "\u2581godzinie": 4867, "\u2581udzie": 4868, "\u2581dzieciom": 4869, "21": 4870, "\u2581zapew": 4871, "\u2581niepowtarz": 4872, "\u2581zostali": 4873, "jach": 4874, "\u2581dzia\u0142aj\u0105": 4875, "\u2581sie\u0107": 4876, "\u2581akurat": 4877, "htm": 4878, "\u2581ost": 4879, "waj\u0105c": 4880, "\u2581wizyty": 4881, "\u2581Rad": 4882, "\u2581wypad": 4883, "\u2581Ludzie": 4884, "\u2581\u0107wicze\u0144": 4885, "\u2581kasy": 4886, "\u2581Wroc\u0142aw": 4887, "\u2581godzin\u0119": 4888, "\u2581student\u00f3w": 4889, "\u2581arty": 4890, "\u25812003": 4891, "\u2581fol": 4892, "ciel": 4893, "\u2581Praca": 4894, "\u2581skutek": 4895, "\u2581zagospodar": 4896, "arka": 4897, "\u2581Gar": 4898, "\u2581przej": 4899, "\u2581terapii": 4900, "\u2581terenu": 4901, "up": 4902, "\u2581Taka": 4903, "entu": 4904, "\u2581klient": 4905, "\u2581klim": 4906, "ceni": 4907, "\u2581uchwy": 4908, "\u2581dysku": 4909, "\u2581naturalny": 4910, "\u2581w\u0142a\u015bciciel": 4911, "\u2581nagrody": 4912, "\u2581pary": 4913, "\u2581kilkana\u015bcie": 4914, "\u2581wymagane": 4915, "wen": 4916, ".0": 4917, "niami": 4918, "\u2581w\u0142adz": 4919, "!!!": 4920, "\u2581staj\u0105": 4921, "r\u00f3d": 4922, "\u2581wynikaj\u0105cych": 4923, "\u2581o\u015bwiadczenie": 4924, "\u2581stosunkowo": 4925, "\u2581my\u015bl\u0119": 4926, "\u2581mi\u0119k": 4927, "\u2581Nowa": 4928, "lana": 4929, "\u2581zapoznania": 4930, "k\u0142ada": 4931, "\u2581si\u0142\u0119": 4932, "\u2581d\u017awi\u0119k": 4933, "\u2581zmy": 4934, "\u2581przedmiotu": 4935, "\u2581dost\u0119pno\u015bci": 4936, "\u2581poprawy": 4937, "kry": 4938, "\u2581\u0141odzi": 4939, "\u2581obs\u0142ug\u0119": 4940, "wano": 4941, "\u2581zabiegu": 4942, "\u258138": 4943, "\u2581przekaza\u0107": 4944, "\u2581proces\u00f3w": 4945, "\u2581Rozwoju": 4946, "rym": 4947, "\u2581R\u00f3wnie\u017c": 4948, "\u2581W\u0142a\u015bnie": 4949, "\u2581ww": 4950, "\u2581dolar\u00f3w": 4951, "\u2581up\u0142ywem": 4952, "atycznych": 4953, "styczn\u0105": 4954, "\u2581poj\u0119cia": 4955, "\u2581Wi\u0119c": 4956, "\u2581turyst\u00f3w": 4957, "OWE": 4958, "\u2581ZUS": 4959, "\u2581gad": 4960, "\u2581chocia\u017cby": 4961, "\u2581badanie": 4962, "\u2581zwierz\u0119": 4963, "\u015bcia": 4964, "\u2581zab": 4965, "\u2581Umowy": 4966, "\u2581g\u0142osowania": 4967, "\u2581wypo\u017cy": 4968, "\u2581przygot": 4969, "kiego": 4970, "\u2581chcia\u0142bym": 4971, "\u2581odpad\u00f3w": 4972, "\u2581zamieszkania": 4973, "!!": 4974, "\u2581wtorek": 4975, "gnie": 4976, "\u2581Lek": 4977, "\u2581Wprowa": 4978, "\u2581uprawnie\u0144": 4979, "\u2581tw\u00f3r": 4980, "\u2581dzieckiem": 4981, "\u2581poma": 4982, "\u2581niezb\u0119dnych": 4983, "\u2581czyn": 4984, "\u2581Termin": 4985, "\u2581wyja\u015bnia": 4986, "\u2581decyzje": 4987, "\u2581dokumentu": 4988, "\u2581Grupy": 4989, "\u2581czwartek": 4990, "\u2581grzy": 4991, "\u2581zauwa\u017cy\u0107": 4992, "\u2581wsp\u00f3\u0142prac\u0119": 4993, "\u2581mierze": 4994, "\u2581ludziom": 4995, "TM": 4996, "\u2581sport": 4997, "\u2581d\u0142ugo\u015b\u0107": 4998, "\u017cna": 4999, "\u2581wydaw": 5000, "\u2581pozycj\u0119": 5001, "\u2581mniejsze": 5002, "czar": 5003, "cio": 5004, "\u2581zadaniem": 5005, "\u2581or": 5006, "\u2581sk\u00f3ra": 5007, "\u2581\u015brod\u0119": 5008, "\u2581obecno\u015b\u0107": 5009, "\u2581prosta": 5010, "\u2581OD": 5011, "\u2581uszko": 5012, "klej": 5013, "\u2581Rozpo": 5014, "\u2581Windows": 5015, "\u2581granic\u0105": 5016, "\u2581ostatniej": 5017, "\u2581w\u00f3z": 5018, "\u2581zdolno\u015b\u0107": 5019, "\u2581programy": 5020, "\u2581ataku": 5021, "\u2581Kilka": 5022, "asy": 5023, "nomi": 5024, "\u2581Narodowego": 5025, "\u2581owoce": 5026, "\u2581\u0142y": 5027, "\u2581rozm\u00f3w": 5028, "\u2581TVN": 5029, "\u2581geo": 5030, "q": 5031, "nikach": 5032, "\u2581zd": 5033, "anin": 5034, "\u258155": 5035, "\u2581Ber": 5036, "\u2581chi": 5037, "\u2581darmo": 5038, "\u2581szeroki": 5039, "dzki": 5040, "\u2581nadzor": 5041, "\u2581maj\u0105c": 5042, "\u2581zag": 5043, "\u2581ksi\u0119": 5044, "wski": 5045, "\u2581przyjem": 5046, "\u2581wi\u0119kszy": 5047, "\u2581NIE": 5048, "\u2581Pas": 5049, "stron": 5050, "\u2581powi\u0119k": 5051, "\u2581zmniej": 5052, "\u2581restaura": 5053, "\u2581wielokrotnie": 5054, "\u2581\u017cyje": 5055, "ni\u0119ciem": 5056, "ater": 5057, "tali": 5058, "anci": 5059, "\u2581nocleg": 5060, "\u2581wysokim": 5061, "\u2581obszar": 5062, "fika": 5063, "\u2581po\u0142\u0105czeniu": 5064, "\u2581Wa\u017cne": 5065, "dam": 5066, "\u2581Internetu": 5067, "ces": 5068, "sek": 5069, "\u2581zg\u0142oszenia": 5070, "\u2581obli": 5071, "\u2581Cz\u0119\u015b\u0107": 5072, "\u2581pokaza\u0107": 5073, "\u2581ofiar": 5074, "cyjnymi": 5075, "\u2581Brytanii": 5076, "\u2581Biuro": 5077, "\u2581oleju": 5078, "\u2581lokalnych": 5079, "dno\u015bci": 5080, "\u2581Zdrowia": 5081, "\u2581przyjaci\u00f3\u0142": 5082, "\u2581bierze": 5083, "\u2581w\u0142\u0105": 5084, "\u2581przedstawicieli": 5085, "PL": 5086, "ANIE": 5087, "\u2581leki": 5088, "\u2581widoczne": 5089, "\u2581podwy\u017c": 5090, "rok": 5091, "kaj": 5092, "jny": 5093, "kiewicz": 5094, "\u2581kim": 5095, "\u2581winy": 5096, "\u2581logo": 5097, "i\u0105": 5098, "YCH": 5099, "\u2581tworzenie": 5100, "\u2581cieszy": 5101, "\u2581liczy": 5102, "\u2581sk\u00f3rze": 5103, "\u2581kolejno\u015bci": 5104, "oba": 5105, "\u2581Wysoka": 5106, "p\u0142a": 5107, "\u2581wieczorem": 5108, "\u2581w\u0142a\u015bciwego": 5109, "\u2581zwi\u0119kszenie": 5110, "\u2581Prowa": 5111, "\u2581postrze": 5112, "\u2581wina": 5113, "\u2581wp\u0142ywem": 5114, "\u2581bezp\u0142at": 5115, "nianie": 5116, "\u2581obiekty": 5117, "\u2581maszyny": 5118, "\u2581pt": 5119, "\u2581pogo": 5120, "\u2581Chcesz": 5121, "\u2581he": 5122, "\u2581odda": 5123, "\u2581ciekawych": 5124, "cona": 5125, "\u2581zali": 5126, "\u2581opisu": 5127, "czono": 5128, "\u2581zadba\u0107": 5129, "\u2581strze": 5130, "\u2581ham": 5131, "\u2581odno": 5132, "n\u0119\u0142a": 5133, ":3": 5134, "\u017ce\u0144": 5135, "\u2581owoc": 5136, "\u2581za\u0142o\u017cenia": 5137, "\u2581kle": 5138, "g\u0142a": 5139, "\u2581naukowych": 5140, "\u2581wprowadza": 5141, "\u2581zainteresowania": 5142, "11.": 5143, "ownikom": 5144, "\u2581pi\u0119knie": 5145, "\u2581stopy": 5146, "\u017cek": 5147, "\u2581zapalenie": 5148, "\u2581r\u0105k": 5149, "\u2581Maria": 5150, "\u2581zawodowych": 5151, "\u017cka": 5152, "\u2581Bra": 5153, "\u2581New": 5154, "\u2581Sprawiedliwo\u015bci": 5155, "\u2581Aktu": 5156, "\u2581podoba": 5157, "\u2581Przecie\u017c": 5158, "st\u0119pu": 5159, "ley": 5160, "\u2581musieli": 5161, "\u2581rodzina": 5162, "\u2581Nigdy": 5163, "\u2581propozycje": 5164, "\u2581trwa\u0142o": 5165, "cze\u0144stwo": 5166, "\u2581kom\u00f3rek": 5167, "\u2581sztu": 5168, "\u2581wzd\u0142u\u017c": 5169, "\u2581Wroc\u0142awiu": 5170, "\u2581obej": 5171, "\u015bnik\u00f3w": 5172, "\u2581zwrot": 5173, "-1": 5174, "\u2581Polityka": 5175, "\u2581osi\u0105g": 5176, "\u2581Cel": 5177, "\u2581indywidualne": 5178, "Ko": 5179, "lory": 5180, "\u2581zre": 5181, "\u2581kreatyw": 5182, "\u0142\u0119": 5183, "\u2581G\u00f3r": 5184, "\u2581tryb": 5185, "00.": 5186, "\u2581magazyn": 5187, "\u2581wydatk\u00f3w": 5188, "czce": 5189, "\u2581dosta\u0107": 5190, "RE": 5191, "\u2581dok\u0142ad": 5192, "\u2581wzboga": 5193, "\u2581lekarzy": 5194, "\u2581Uwaga": 5195, "\u2581opublik": 5196, "\u2581Pozna\u0144": 5197, "\u2581zbiera": 5198, "\u2581bym": 5199, "\u2581skuteczne": 5200, "TY": 5201, "\u2581najlepszym": 5202, "\u2581recep": 5203, "/6": 5204, "\u2581stu": 5205, "\u2581mro": 5206, "dnik": 5207, "gram": 5208, "\u2581Sch": 5209, "\u2581Funduszu": 5210, "\u2581przyzna": 5211, "\u2581KRS": 5212, "\u2581wysoki": 5213, "\u2581rozsze": 5214, "\u2581le\u017cy": 5215, "\u2581bohater": 5216, "j\u00f3w": 5217, "\u2581zapi": 5218, "\u2581oba": 5219, "\u2581dystrybu": 5220, "\u2581regulaminu": 5221, "\u2581zapozna\u0107": 5222, "\u2581poch": 5223, "szanie": 5224, "\u2581Zapew": 5225, "\u2581zabra\u0107": 5226, "\u2581tel": 5227, "anta": 5228, "\u2581uprawnienia": 5229, "dze\u0144": 5230, "\u2581zamont": 5231, "\u2581ulu": 5232, "\u2581Fe": 5233, "\u2581podj\u0105\u0107": 5234, "\u2581mia\u0142am": 5235, "\u2581jakim\u015b": 5236, "\u2581Dia": 5237, "bieg": 5238, "\u2581przyj\u0119cie": 5239, "\u2581podanie": 5240, "\u2581wyma": 5241, "\u2581kwota": 5242, "\u2581ex": 5243, "\u2581cza": 5244, "\u2581telewizji": 5245, "obie": 5246, "\u2581przedstawi": 5247, "28": 5248, "enty": 5249, "\u2581regu\u0142y": 5250, "\u2581ro\u015bliny": 5251, "forma": 5252, "\u2581Ot\u00f3\u017c": 5253, "\u2581st\u00f3p": 5254, "\u2581\u017be": 5255, "mencie": 5256, "\u2581przekracza": 5257, "\u2581Niemczech": 5258, "logi": 5259, "\u2581Wz": 5260, "\u2581firm\u0105": 5261, "\u2581Ministerstwa": 5262, "kin": 5263, "\u2581snu": 5264, "\u2581u\u017cy\u0107": 5265, "\u2581wy\u017csze": 5266, "\u2581nowoczesnych": 5267, "\u2581dokumentacji": 5268, "czas": 5269, "\u2581poprzednim": 5270, "\u2581dynami": 5271, "\u2581polityce": 5272, "\u2581Mora": 5273, "czane": 5274, "\u2581doskona": 5275, "\u2581oddech": 5276, "\u2581Usta": 5277, "\u2581g\u0142os\u00f3w": 5278, "unk": 5279, "uj\u0105ce": 5280, "\u25813)": 5281, "\u2581seria": 5282, "\u2581zobacz": 5283, "roni": 5284, "alno\u015bci": 5285, "dowa": 5286, "\u2581oczach": 5287, "kim": 5288, ":0": 5289, "\u2581przodu": 5290, "\u2581wyg": 5291, "\u2581Mog\u0105": 5292, "ction": 5293, "\u2581Mal": 5294, "\u2581ozna": 5295, "\u2581faktu": 5296, "gli": 5297, "\u2581odbiorc\u00f3w": 5298, "\u2581wyklu": 5299, "\u2581regulacji": 5300, "ven": 5301, "port": 5302, "skach": 5303, "\u2581biznesu": 5304, "\u2581cebu": 5305, "\u2581podj\u0119cia": 5306, "dli": 5307, "wianie": 5308, "\u2581etap": 5309, "zuj\u0105": 5310, "\u2581ci\u0105": 5311, "\u2581Super": 5312, "lis": 5313, "\u2581sprzyja": 5314, "\u2581Reje": 5315, "\u2581cukier": 5316, "\u2581w\u0119gl": 5317, "\u2581zap\u0142a": 5318, "nnych": 5319, "\u2581bezpo\u015bredniego": 5320, "\u2581Die": 5321, "\u2581dawna": 5322, "\u2581zasob\u00f3w": 5323, "\u2581gwiazd": 5324, "\u2581p\u0142ci": 5325, "\u2581chro": 5326, "nd": 5327, "\u2581w\u0142asno\u015bci": 5328, "\u2581wakacje": 5329, "\u2581ujaw": 5330, "\u2581Pow": 5331, "NY": 5332, "\u2581zgo": 5333, "\u2581bi\u017cu": 5334, "\u2581utrzyma\u0107": 5335, "\u2581prote": 5336, "\u2581podaje": 5337, "\u2581uczestni": 5338, "\u2581gor": 5339, "\u2581emocji": 5340, "\u2581zawiera\u0107": 5341, "\u2581konsul": 5342, "\u2581\u015bwi\u0119ta": 5343, "\u2581post\u0119powaniu": 5344, "\u2581filmy": 5345, "\u2581kuch": 5346, "NIA": 5347, "\u2581zwi\u0105zany": 5348, "\u2581Nikt": 5349, "\u2581dawno": 5350, "\u2581meczu": 5351, "\u2581najwi\u0119ksze": 5352, "\u2581posiada\u0107": 5353, "\u2581Har": 5354, "\u2581pomieszcze\u0144": 5355, "\u2581wyposa\u017cone": 5356, "\u2581Rok": 5357, "enta": 5358, "\u2581(19": 5359, "jnych": 5360, "\u2581\u0142": 5361, "\u2581swych": 5362, "\u2581PC": 5363, "\u2581nieo": 5364, "\u2581druku": 5365, "\u2581dosy\u0107": 5366, "\u2581By\u0142o": 5367, "\u2581kandydat\u00f3w": 5368, "cjom": 5369, "ANIA": 5370, "\u2581popraw": 5371, "dor": 5372, "\u2581ustaw\u0105": 5373, "\u2581dzie\u0142a": 5374, "\u2581kupi": 5375, "\u2581jaj": 5376, "\u2581dniem": 5377, "-6": 5378, "enia": 5379, "\u2581konsekwencji": 5380, "ksy": 5381, "dra": 5382, "\u2581r\u0119ka": 5383, "\u2581jak\u0105\u015b": 5384, "\u2581Bo\u017cego": 5385, "\u2581kszta\u0142cie": 5386, "\u2581pozosta\u0142e": 5387, "\u2581wykonuje": 5388, "\u2581tradycji": 5389, "\u2581utrzymanie": 5390, "kan": 5391, "liwo\u015b\u0107": 5392, "ganie": 5393, "\u2581Kos": 5394, "\u2581medi\u00f3w": 5395, "\u2581maksymalnie": 5396, "--------": 5397, "wam": 5398, "\u2581wej\u015b\u0107": 5399, "\u2581nar": 5400, "\u2581ciep\u0142o": 5401, "\u2581pow\u0142o": 5402, "\u2581dokonania": 5403, "\u2581dziecku": 5404, "\u2581handlu": 5405, "\u2581PRZE": 5406, "\u2581gr\u0119": 5407, "\u2581metod\u0105": 5408, "\u2581hotel": 5409, "\u2581sprawiaj\u0105": 5410, "gno": 5411, "\u2581budynek": 5412, "\u2581starszych": 5413, "\u2581takimi": 5414, "dzi\u0142o": 5415, "\u2581Kodeksu": 5416, "\u2581niezw\u0142ocznie": 5417, "biera": 5418, "\u2581drzewa": 5419, "\u2581\u015brednio": 5420, "\u2581techniki": 5421, "\u25815,": 5422, "\u2581profilu": 5423, "\u2581emocje": 5424, "nar": 5425, "\u2581Producent": 5426, "\u2581dany": 5427, "Re": 5428, "stych": 5429, "\u2581delika": 5430, "\u2581:": 5431, "\u2581post": 5432, "\u2581ro\u015bnie": 5433, "\u2581zaplan": 5434, "mak": 5435, "\u2581zosta": 5436, "dzi\u0142y": 5437, "\u2581+": 5438, "\u2581Jednak\u017ce": 5439, "\u2581budowlanych": 5440, "\u2581Film": 5441, "\u2581poprze": 5442, "\u2581wielkich": 5443, "\u2581postanowienia": 5444, "\u2581idealny": 5445, "dzamy": 5446, "\u2581w\u0119gla": 5447, "mowe": 5448, "\u2581dostosowania": 5449, "\u2581stres": 5450, "grafia": 5451, "\u2581Odpowie": 5452, "\u0142ad": 5453, "\u2581En": 5454, "\u2581Stu": 5455, "danie": 5456, "\u00e1": 5457, "\u2581nikogo": 5458, "\u2581S\u0105du": 5459, "\u2581wysoka": 5460, "\u2581powietrzu": 5461, "i\u00f3w": 5462, "\u2581Minister": 5463, "\u2581cz\u0119": 5464, "\u2581przep\u0142ywu": 5465, "\u2581powiatu": 5466, "\u2581leku": 5467, "\u2581pod\u0142o": 5468, "\u2581restauracji": 5469, "\u2581popularne": 5470, "\u2581Nauk": 5471, "\u2581zap\u0142aty": 5472, "\u2581zdanie": 5473, "\u2581os": 5474, "lacje": 5475, "\u2581cech": 5476, "CI": 5477, "\u2581ustalenia": 5478, "\u2581Dosta": 5479, "\u2581wolny": 5480, "\u2581pr\u00f3by": 5481, "lizowa\u0107": 5482, "\u2581Polskie": 5483, "\u2581oli": 5484, "\u2581zewn\u0119trznych": 5485, "usz": 5486, "\u2581fizycznej": 5487, "\u2581koloru": 5488, "\u2581przewodnicz\u0105cy": 5489, "\u2581g\u0142\u00f3wne": 5490, "\u2581finans\u00f3w": 5491, "\u2581zwi": 5492, "nau": 5493, "\u2581IT": 5494, "\u2581mieli\u015bmy": 5495, "\u2581energi\u0119": 5496, "\u2581przyj": 5497, "\u2581Pierwsza": 5498, "nionej": 5499, "\u2581\u0142y\u017ce": 5500, "\u2581pacjent": 5501, "\u2581d\u00f3\u0142": 5502, "\u2581niezawo": 5503, "\u2581prawdziwe": 5504, "wna": 5505, "\u2581smo": 5506, "95": 5507, "\u2581odbior": 5508, "\u2581dziennik": 5509, "\u25811997": 5510, "\u2581pe\u0142nym": 5511, "\u2581inspi": 5512, "\u2581policji": 5513, "\u2581pozytywnie": 5514, "\u017cy\u0142": 5515, "si\u0119": 5516, "\u2581klas": 5517, "\u2581funda": 5518, "\u2581zewn\u0119trzne": 5519, "\u2581ksi\u0105\u017ck\u0119": 5520, "\u2581\u0142o": 5521, "\u2581prawid\u0142owo": 5522, "r\u00f3j": 5523, "\u2581Publi": 5524, "\u2581twoje": 5525, "\u2581uczelni": 5526, "\u258137": 5527, "\u2581ci\u0105g": 5528, "\u2581skrzy": 5529, "\u2581kr\u00f3tko": 5530, "\u2581prokuratury": 5531, "wcze": 5532, "czak": 5533, "\u2581m\u00f3g\u0142by": 5534, "\u2581serdecznie": 5535, "\u2581Zau": 5536, "form": 5537, "\u2581ogromn\u0105": 5538, "\u2581Zanim": 5539, "\u2581wyposa\u017cenia": 5540, "\u2581drukar": 5541, "\u2581r\u0119cznie": 5542, "prawy": 5543, "\u2581u\u0142at": 5544, "\u00f3\u017c": 5545, "?\"": 5546, "\u2581ma\u0142a": 5547, "\u2581i\u015b\u0107": 5548, "mium": 5549, "\u2581\u015brodowisku": 5550, "aliz": 5551, "\u2581przenoszenia": 5552, "\u2581try": 5553, "\u2581Stanis\u0142aw": 5554, "\u2581obowi\u0105zki": 5555, "\u2581ksi\u0105\u017cce": 5556, "\u2581wej\u015bcia": 5557, "\u2581makija": 5558, "\u2581zaburzenia": 5559, "\u2581aktyw": 5560, "\u2581wy\u015ble": 5561, "\u2581Dopiero": 5562, "\u2581dodatku": 5563, "\u2581stolicy": 5564, "lnymi": 5565, "\u2581ma\u0142ej": 5566, "zje": 5567, "mio": 5568, "\u2581Cor": 5569, "atyz": 5570, "lno": 5571, "\u017cej": 5572, "\u2581relacje": 5573, "\u2581SK": 5574, "OWY": 5575, "\u2581Chi": 5576, "\u2581publiczne": 5577, "\u2581Robert": 5578, "\u2581przeko": 5579, "\u2581chorych": 5580, "lanych": 5581, "\u2581kompleks": 5582, "\u2581sp\u00f3\u0142ek": 5583, "\u2581zgoda": 5584, "\u2581Kam": 5585, "\u2581skorzystania": 5586, "\u2581Gda\u0144sku": 5587, "76": 5588, "\u2581Auto": 5589, "\u2581istnienia": 5590, "\u258116.": 5591, "\u2581b\u00f3lu": 5592, "\u2581Prez": 5593, "mier": 5594, "ou": 5595, "rzach": 5596, "her": 5597, "dziemy": 5598, "gowych": 5599, "\u2581w\u0142a\u015bciciela": 5600, "\u2581apartam": 5601, "\u2581pomy": 5602, "rus": 5603, "\u2581zmniejsza": 5604, "Ch": 5605, "\u2581s\u0142u\u017cy\u0107": 5606, "\u2581wyrzu": 5607, "\u2581Z\u0142o": 5608, "\u2581ocenia": 5609, "\u2581\u015bwiadomo\u015bci": 5610, "los": 5611, "\u2581You": 5612, "czko": 5613, "pka": 5614, "\u2581realizowane": 5615, "hy": 5616, "\u2581\u015brodek": 5617, "\u2581ekran": 5618, "\u2581przeznaczony": 5619, "\u2581struktury": 5620, "\u2581powie\u015bci": 5621, "\u2581spe\u0142ni": 5622, "\u2581pojawi\u0142": 5623, "\u2581opisy": 5624, "\u2581sportowe": 5625, "\u2581powi": 5626, "anina": 5627, "\u2581Miasto": 5628, "\u2581dzi\u0119kuj\u0119": 5629, "\u2581ustaw": 5630, "\u2581uchwa\u0142y": 5631, "\u2581dru": 5632, "\u2581cerami": 5633, "\u2581teksty": 5634, "gon": 5635, "\u2581wygl\u0105da\u0107": 5636, "\u2581czeka\u0107": 5637, "\u2581ci\u0119\u017car": 5638, "\u2581Zie": 5639, "\u2581sze\u015b\u0107": 5640, "\u2581klienci": 5641, "\u2581odleg\u0142o\u015b\u0107": 5642, "\u2581wybor\u00f3w": 5643, "\u2581obowi\u0105z": 5644, "\u2581dyrektywy": 5645, ":5": 5646, "\u2581wprowadzenia": 5647, "\u2581oko": 5648, "ce\u0144": 5649, "\u2581kompozy": 5650, "\u2581wzmacnia": 5651, "IL": 5652, "\u2581skupia": 5653, "\u2581sp\u0142a": 5654, "\u2581systemem": 5655, "\u2581konsumenta": 5656, "\u2581Zach\u0119": 5657, "ione": 5658, "\u2581prywatnych": 5659, "\u2581wa\u017cnych": 5660, "\u2581wyborze": 5661, "\u2581Szczeg\u00f3lnie": 5662, "\u2581rodzaj\u00f3w": 5663, "\u2581istniej\u0105": 5664, "\u2581macie": 5665, "\u25811,5": 5666, "\u2581mine": 5667, "\u2581matka": 5668, "\u2581kolek": 5669, ".-": 5670, "\u2581najwi\u0119ksz\u0105": 5671, "\u2581krew": 5672, "nak": 5673, "\u2581ty\u0142u": 5674, "\u0142anie": 5675, "\u2581szkody": 5676, "\u2581okre\u015blony": 5677, "3)": 5678, "\u2581odcie": 5679, "kos": 5680, "\u2581Dowie": 5681, "\u258120.": 5682, "\u2581pi\u0119kna": 5683, "ase": 5684, "\u2581doprowadzi\u0107": 5685, "\u2581przedstawiciele": 5686, "\u2581obud": 5687, "dzien": 5688, "\u2581utwor\u00f3w": 5689, "\u2581Trum": 5690, "uj": 5691, "\u2581cz\u0142owiekiem": 5692, "MA": 5693, "rowi": 5694, "\u2581Park": 5695, "\u2581Oznacza": 5696, "\u2581250": 5697, "\u2581delikatnie": 5698, "\u2581wyborach": 5699, "\u2581klucz": 5700, "px": 5701, "powie": 5702, "\u2581IS": 5703, "ale": 5704, "\u2581jedynym": 5705, "\u2581plu": 5706, "\u2581dot\u0105d": 5707, "\u2581ulega": 5708, "\u2581biu": 5709, "\u2581rozmowie": 5710, "\u2581propozycja": 5711, "Co": 5712, "\u2581at": 5713, "\u2581komp": 5714, "OC": 5715, "wi\u0119": 5716, "\u2581mi\u0119": 5717, "\u2581odczy": 5718, "\u2581akumu": 5719, "\u2581u\u015bmiech": 5720, "33": 5721, "ta\u0107": 5722, "\u2581kolejnym": 5723, "\u2581powrotem": 5724, "\u2581infek": 5725, "\u2581duch": 5726, "rony": 5727, "\u2581Chyba": 5728, "\u2581Najcz\u0119\u015bciej": 5729, "\u2581niedawno": 5730, "\u258175": 5731, "le\u0144": 5732, "pa\u0107": 5733, "\u2581S\u0142u": 5734, "\u2581Gi": 5735, "\u2581leczeniu": 5736, "ist": 5737, "erw": 5738, "ranych": 5739, "\u2581wilgot": 5740, "\u2581wyj\u015bcia": 5741, "\u2581gatunk\u00f3w": 5742, "\u2581walce": 5743, "\u2581Wiem": 5744, "li\u015bcie": 5745, "rza\u0142": 5746, "nos": 5747, "\u2581rado\u015bci": 5748, "rzona": 5749, "\u2581kwestie": 5750, "\u2581barw": 5751, "conych": 5752, "rzymy": 5753, "mentem": 5754, "\u2581miastach": 5755, "\u2581ludno\u015bci": 5756, "\u2581has\u0142a": 5757, "\u2581Policji": 5758, "\u2581niesamowi": 5759, "\u258115.": 5760, "ow\u0119": 5761, "\u2581tysi\u0105ce": 5762, "\u2581uroczysto\u015bci": 5763, "\u2581przychodzi": 5764, "\u2581zdoby": 5765, "fikacja": 5766, "\u2581dach": 5767, "\u2581polska": 5768, "\u2581tur": 5769, "\u2581kam": 5770, "\u2581poinform": 5771, "\u2581rozli": 5772, "\u2581kursu": 5773, "jami": 5774, "\u2581Urz\u0105d": 5775, "si\u0107": 5776, "moc": 5777, "\u2581Spe": 5778, "wny": 5779, "\u2581uzasadniony": 5780, "pin": 5781, "dziel": 5782, "mat": 5783, "\u2581zako": 5784, "\u2581kan": 5785, "\u2581biegu": 5786, "\u2581Wszelkie": 5787, "\u2581Wydaje": 5788, "\u2581czuje": 5789, "\u2581rado\u015b\u0107": 5790, "\u2581Rada": 5791, "\u2581Stowarzyszenia": 5792, "{": 5793, "\u2581opiera": 5794, "\u2581bli\u017cej": 5795, "\u2581wytrzym": 5796, "\u2581lokalizacji": 5797, "\u2581o\u015bwiet": 5798, "sel": 5799, "\u2581ps\u00f3w": 5800, "\u2581szpitala": 5801, "bio": 5802, "zer": 5803, "UN": 5804, "\u2581przyczyn\u0105": 5805, "\u2581Wiki": 5806, "mis": 5807, "niom": 5808, "\u2581stworzenie": 5809, "\u2581kierowcy": 5810, "\u2581premiera": 5811, "\u2581niewielkie": 5812, "\u2581obs\u0142uga": 5813, "85": 5814, "\u2581umowa": 5815, "\u2581trasy": 5816, "\u2581nosi": 5817, "\u2581poda\u0107": 5818, "\u2581\u015bwiadczy": 5819, "\u2581technologia": 5820, "xi": 5821, "\u2581poinformowa\u0142": 5822, "\u2581spotkaniu": 5823, "\u2581perspektywy": 5824, "\u2581denty": 5825, "\u2581kilometr\u00f3w": 5826, "\u2581zainteresowanie": 5827, "\u2581naturalnego": 5828, "\u2581kroku": 5829, "\u2581wywo": 5830, "\u2581da\u0142": 5831, "\u2581przyspie": 5832, "The": 5833, "lizacj\u0119": 5834, "atyczny": 5835, "onych": 5836, "\u2581bia\u0142": 5837, "\u258113.": 5838, "\u2581Tru": 5839, "\u2581d\u0142oni": 5840, "ros": 5841, "!\"": 5842, "bienia": 5843, "\u2581Ol": 5844, "rzy\u0142": 5845, "\u2581izo": 5846, "\u2581ogr\u00f3d": 5847, "\u2581ocenie": 5848, "\u2581zwraca": 5849, "\u2581codzien": 5850, "\u2581organizacyjnych": 5851, "\u2581umy": 5852, "\u2581lewej": 5853, "\u2581kla": 5854, "\u2581zu\u017cy": 5855, "\u2581poszczeg\u00f3lne": 5856, "\u2581koncer": 5857, "ts": 5858, "\u2581poru": 5859, "\u2581szanse": 5860, "\u2581prawach": 5861, "\u2581regionie": 5862, "\u2581podkre\u015bli\u0107": 5863, "\u2581wro": 5864, "niania": 5865, "\u2581sportowych": 5866, "\u2581klimat": 5867, "\u2581prezentuje": 5868, "\u2581\u017cyciem": 5869, "\u2581najwi\u0119kszym": 5870, "\u2581ram": 5871, "\u2581waka": 5872, "\u2581data": 5873, "towanie": 5874, "\u2581miesi\u0105cu": 5875, "\u2581Trudno": 5876, "\u2581sk\u0142adzie": 5877, "\u2581zrobi\u0142": 5878, "\u2581lokalu": 5879, "\u2581kr\u0119": 5880, "\u2581narze": 5881, "cza\u0142": 5882, "\u2581ograni": 5883, "\u2581zaanga\u017c": 5884, "\u2581finansowej": 5885, "ni\u0142a": 5886, "\u2581aktywno\u015b\u0107": 5887, "\u2581sezonu": 5888, "\u2581is": 5889, "\u2581warsztaty": 5890, "\u2581rzu": 5891, "Pa": 5892, "\u2581Her": 5893, "\u2581wyp\u0142a": 5894, "\u2581infor": 5895, "\u2581pot": 5896, "\u2581{": 5897, "\u2581jasno": 5898, "\u2581kier": 5899, "wk\u0119": 5900, "kier": 5901, "\u2581ran": 5902, "\u2581zdaje": 5903, "\u2581seksu": 5904, "\u2581zapewnienie": 5905, "\u2581wykonywane": 5906, "\u2581graczy": 5907, "st\u0119p": 5908, "\u017ani": 5909, "\u2581seg": 5910, "\u2581tworzy\u0107": 5911, "\u2581symboli": 5912, "\u2581dow\u00f3d": 5913, "tanie": 5914, "\u2581Mer": 5915, "\u2581napis": 5916, "ker": 5917, "\u2581wykorzystu": 5918, "wnej": 5919, "\u2581mleka": 5920, "rych": 5921, "\u2581niebezpie": 5922, "\u2581po\u0142\u0105": 5923, "ci\u0142": 5924, "\u2581pomagaj\u0105": 5925, "leniem": 5926, "atora": 5927, "\u2581konstruk": 5928, "\u2581prawdy": 5929, "\u2581ka\u017cdemu": 5930, "\u2581powodzeniem": 5931, "jnie": 5932, "\u2581ZA": 5933, "rki": 5934, "\u00f3wka": 5935, "\u2581poda": 5936, "\u2581og\u00f3lno": 5937, "\u2581europejskich": 5938, "\u2581przycze": 5939, "\u2581zdarza": 5940, "dzaj\u0105c": 5941, "cane": 5942, "\u2581odpowiednim": 5943, "\u2581poprawia": 5944, "\u2581nau": 5945, "\u2581biuro": 5946, "\u2581gospodarcz\u0105": 5947, "stej": 5948, "\u2581s\u0142o\u0144ca": 5949, "\u2581najwy\u017cszym": 5950, "wicz": 5951, "\u017ceni": 5952, "domo\u015bci": 5953, "\u2581kol": 5954, "\u2581szczy": 5955, "\u2581bla": 5956, "\u2581przyrody": 5957, "\u2581syna": 5958, "\u2581kary": 5959, "stycznie": 5960, "}": 5961, "wi\u0142": 5962, "\u2581robi\u0105": 5963, "\u2581wojnie": 5964, "\u2581ge": 5965, "\u2581siedzi": 5966, "\u2581mini": 5967, "\u2581Sp\u00f3\u0142ka": 5968, "\u2581skontaktowa\u0107": 5969, "\u2581Samo": 5970, "\u2581Szko": 5971, "\u2581wyd\u0142u": 5972, "\u2581wn\u0119trze": 5973, "\u2581ubrania": 5974, "\u2581rzek\u0142": 5975, "\u2581zabieg\u00f3w": 5976, "\u2581przewiduje": 5977, "teria": 5978, "\u2581obro": 5979, "\u2581Ministr\u00f3w": 5980, "\u2581Tow": 5981, "\u2581brzmi": 5982, "\u2581Uni": 5983, "\u2581otrzym": 5984, "SK": 5985, "\u2581POL": 5986, "\u2581wykorzysty": 5987, "\u2581Bro": 5988, "\u2581kwiaty": 5989, "\u2581powierzchni\u0119": 5990, "\u2581Promo": 5991, "\u2581spor": 5992, "\u2581prawna": 5993, "\u2581maj\u0105ce": 5994, "bami": 5995, "\u2581wagi": 5996, "\u2581gazu": 5997, "\u015bwiadczenie": 5998, "\u2581Dzia\u0142a": 5999, "\u2581nast\u0105pi": 6000, "tw\u00f3r": 6001, "\u2581absolutnie": 6002, "aks": 6003, "fie": 6004, "\u2581mediach": 6005, "\u2581180": 6006, "\u2581fla": 6007, "\u2581marek": 6008, "\u2581zawodowe": 6009, "\u2581klimaty": 6010, "\u2581stworzenia": 6011, "\u2581en": 6012, "\u2581komplet": 6013, "lnia": 6014, "\u2581jednak\u017ce": 6015, "\u2581--": 6016, "\u2581gotowe": 6017, "\u2581zdoby\u0107": 6018, "\u2581Ile": 6019, "\u2581szybki": 6020, "\u2581przedmioty": 6021, "\u2581Sk\u0142ad": 6022, "\u2581tempera": 6023, "cjona": 6024, "\u2581kwia": 6025, "\u2581stal": 6026, "\u2581Tom": 6027, "g\u0142": 6028, "\u2581jasne": 6029, "logi\u0119": 6030, "\u2581\u015bci\u015ble": 6031, "\u2581przyzna\u0107": 6032, "wa\u0142em": 6033, "\u2581elektro": 6034, "\u2581plany": 6035, "\u2581ekspert\u00f3w": 6036, "owu": 6037, "\u2581tera": 6038, "\u2581Czasami": 6039, "TR": 6040, "\u2581tr\u00f3j": 6041, "\u2581kobie": 6042, "\u2581ek": 6043, "ela": 6044, "\u2581sektora": 6045, "\u2581upo": 6046, "\u2581powstanie": 6047, "\u2581wrzu": 6048, "\u2581wymiar": 6049, "\u2581stanowisku": 6050, "\u2581Para": 6051, "\u2581wsp\u00f3lne": 6052, "tes": 6053, "\u2581koja": 6054, "\u2581szk": 6055, "\u0144czy": 6056, "g\u00f3\u0142y": 6057, "\u2581rozpocz\u0105\u0142": 6058, "\u2581wyraz": 6059, "\u2581zam\u00f3w": 6060, "JE": 6061, "\u2581g\u0142\u0119boko": 6062, "tk\u0119": 6063, "\u2581Bio": 6064, "\u2581Marka": 6065, "\u2581za\u0142\u0105": 6066, "\u2581rozdziel": 6067, "lim": 6068, "atycznego": 6069, "\u2581ochrona": 6070, "\u2581wczoraj": 6071, "-15": 6072, "bud": 6073, "\u00f3wi\u0107": 6074, "\u2581w\u0142a\u015bcicieli": 6075, "\u2581wykaz": 6076, "\u2581ucie": 6077, "\u2581con": 6078, "a\u0142o\u015b\u0107": 6079, "\u2581zaofer": 6080, "\u2581podzie": 6081, "\u2581odbioru": 6082, "ko\u015b\u0107": 6083, "\u2581domowych": 6084, "\u2581na\u0142o": 6085, "65": 6086, "\u2581wymagaj\u0105cych": 6087, "\u2581otwarte": 6088, "ord": 6089, "zujemy": 6090, "6)": 6091, "\u2581kru": 6092, "\u2581pojawi\u0142y": 6093, "\u017con\u0105": 6094, "\u2581do\u015bwiadcze\u0144": 6095, "grafii": 6096, "\u2581wykonaniu": 6097, "\u2581przekona\u0107": 6098, "\u2581komu": 6099, "\u2581wy\u015bwietla": 6100, "ciela": 6101, "\u2581kr\u00f3la": 6102, "\u2581przesu": 6103, "\u2581stymu": 6104, "\u2581\u015bwiadczonych": 6105, "\u2581Jaki": 6106, "\u2581praktyczne": 6107, "\u2581umys\u0142": 6108, "\u2581pami\u0119\u0107": 6109, "\u2581bok": 6110, "stego": 6111, "\u2581wyposa\u017cony": 6112, "\u2581two": 6113, "iz": 6114, "\u2581chcieli": 6115, "\u2581\u015awi\u0119tego": 6116, "\u2581doktor": 6117, "Pro": 6118, "ci\u0105g": 6119, "sc": 6120, "\u2581osobami": 6121, "\u2581powsta": 6122, "78": 6123, "rzonych": 6124, "dz\u0105ce": 6125, "\u2581kszta\u0142cenia": 6126, "rz\u0105d": 6127, "\u2581s\u0142ab": 6128, "\u2581dwoma": 6129, "\u2581ko\u0142a": 6130, "\u2581powstaje": 6131, "\u2581ostatniego": 6132, "pety": 6133, "lka": 6134, "\u2581pos\u0142u": 6135, "\u2581ogrod": 6136, "\u2581konkurencji": 6137, "\u2581konkretnych": 6138, "\u2581glu": 6139, "\u2581J\u00f3zef": 6140, "\u2581zdecydowa\u0107": 6141, "\u2581Bal": 6142, "\u2581rozbud": 6143, "\u2581Qu": 6144, "ni\u0119ty": 6145, "blo": 6146, "\u2581zaprezent": 6147, "\u2581zarz\u0105du": 6148, "bez": 6149, "\u015bmie": 6150, "\u2581wy\u0142o": 6151, "\u2581technologie": 6152, "\u2581b\u0142\u0119d\u00f3w": 6153, "tch": 6154, "\u2581zwierz\u0119ta": 6155, "\u2581wzrok": 6156, "jna": 6157, "nie\u0144": 6158, "\u2019": 6159, "\u2581At": 6160, "\u2581\u015bcian": 6161, "\u2581nada": 6162, "\u2581podlegaj\u0105": 6163, "kujemy": 6164, "\u2581zaczynaj\u0105": 6165, "\u2581\u0142ad": 6166, "\u2581motory": 6167, "\u2581pozwoli\u0107": 6168, "/10": 6169, "\u2581wyrazi": 6170, "skami": 6171, "\u258165": 6172, "\u2581dostarczenia": 6173, "ari": 6174, "\u2581Prezydent": 6175, "\u2581bry": 6176, "\u2581wewn\u0119trzne": 6177, "\u2581chrze\u015bcija": 6178, "\u2581ods\u0142o": 6179, "\u2581utra": 6180, "\u2581scho": 6181, "\u2581oku": 6182, "\u2581wewn\u0119trznych": 6183, "\u2581ko\u0144c\u00f3w": 6184, "\u2581Polsk\u0119": 6185, "\u2581korzystaj\u0105c": 6186, "nowo": 6187, "\u2581szcz\u0119\u015bcia": 6188, "\u2581wszystkimi": 6189, "logiczny": 6190, "DR": 6191, "\u2581obecnej": 6192, "sto\u015b\u0107": 6193, "\u2581atu": 6194, "\u2581Ste": 6195, "uj\u0105cych": 6196, "\u2581r\u0119k\u0105": 6197, "\u2581w\u0142a\u015bciwe": 6198, "\u2581Wydzia\u0142": 6199, "\u2581najbli\u017cszych": 6200, "\u2581parku": 6201, "\u2581roboty": 6202, "\u2581Miejsce": 6203, "\u2581ko\u015bci\u00f3\u0142": 6204, "strze": 6205, "\u2581oszcz\u0119dno\u015bci": 6206, "\u2581komi": 6207, "\u0106": 6208, "\u2581szczo": 6209, "\u2581pracodawcy": 6210, "\u2581cukrzy": 6211, "\u2581ca": 6212, "\u2581wspomina": 6213, "\u2581has\u0142o": 6214, "\u2581dalsze": 6215, "\u2581czyni": 6216, "\u2581wierzy": 6217, "\u2581zgodne": 6218, "\u017ca\u0107": 6219, "\u2581tworz\u0105c": 6220, "\u2581metoda": 6221, "\u2581Gda\u0144sk": 6222, "\u2581klub": 6223, "\u2581zamierza": 6224, "\u2581odpowiedzie\u0107": 6225, "\u2581t\u0142uma": 6226, "\u2581chcia\u0142a": 6227, "\u2581wr\u00f3ci\u0107": 6228, "LI": 6229, "nen": 6230, "\u2581wykonywa\u0107": 6231, ".000": 6232, "vel": 6233, "illa": 6234, "\u2581licznych": 6235, "\u2581opera": 6236, "\u2581cud": 6237, "\u2581odporno\u015bci": 6238, "\u2581rozpocz\u0105\u0107": 6239, "\u2581\u0142atwy": 6240, "\u2581gi": 6241, "z\u00f3w": 6242, "\u2581wyposa\u017cenie": 6243, "\u2581Materia\u0142": 6244, "\u258114.": 6245, "rab": 6246, "\u2581okaz": 6247, "\u2581tani": 6248, "\u2581OP": 6249, "\u2581Sty": 6250, "\u2581wprowadzi\u0107": 6251, "sion": 6252, "\u2581stopie\u0144": 6253, "\u2581z\u0142ota": 6254, "\u2581turysty": 6255, "odpor": 6256, "\u2581muzyka": 6257, "EJ": 6258, "\u2581Najbardziej": 6259, "\u2581korzystaj\u0105": 6260, "\u2581Pe\u0142": 6261, "\u2581samorz\u0105du": 6262, "\u2581otacza": 6263, "\u2581organ\u00f3w": 6264, "\u2581Ter": 6265, "\u015bnia": 6266, "\u2581nazw\u0105": 6267, "\u2581mie\u015bci": 6268, "\u2581bro": 6269, "\u258147": 6270, "\u2581Hy": 6271, "\u2581Jedno": 6272, "\u2581przebieg": 6273, "\u2581nieprze": 6274, "\u2581dzieli": 6275, "dujemy": 6276, "\u2581opi": 6277, "kt\u00f3w": 6278, "nion\u0105": 6279, "\u2581fry": 6280, "czycy": 6281, "\u2581Stre": 6282, "pi\u0105": 6283, "\u2581Mark": 6284, "mit": 6285, "\u2581treningu": 6286, "\u2581wymaga\u0144": 6287, "\u2581eduka": 6288, "\u2581ses": 6289, "\u2581wyku": 6290, "\u2581obr\u00f3b": 6291, "\u2581Jerzy": 6292, "ham": 6293, "\u2581wybran": 6294, "-12": 6295, "\u2581neuro": 6296, "\u2581nauczyciel": 6297, "\u2581swe": 6298, "ner\u00f3w": 6299, "asi": 6300, "\u2581powr\u00f3t": 6301, "\u2581zaka": 6302, "\u2581\u0107wi": 6303, "czniki": 6304, "\u2581narz\u0119dzie": 6305, "\u2581znajomych": 6306, "\u2581rzeki": 6307, "da\u017cy": 6308, "cel": 6309, "\u2581wymienionych": 6310, "\u2581s\u0142": 6311, "nictwo": 6312, "\u2581roboczych": 6313, "\u2581proponuje": 6314, "\u2581po\u0142owy": 6315, "owia": 6316, "\u2581Krajowego": 6317, "\u2581budowa": 6318, "\u2581ostro": 6319, "\u0142oby": 6320, "\u2581twierdzi": 6321, "\u2581minima": 6322, "\u2581pi\u0119kny": 6323, "\u2581grup\u0119": 6324, "\u2581przeczyta\u0107": 6325, "\u2581ogranicza": 6326, "\u2581uczucie": 6327, "\u2581Man": 6328, "\u2581kontrol\u0119": 6329, "ryz": 6330, "\u2581okolicach": 6331, "\u2581spo\u0142ecznego": 6332, "\u2581wydatki": 6333, "\u2581Loka": 6334, "\u2581najm\u0142odszych": 6335, "\u2581odby\u0142a": 6336, "\u2581zdania": 6337, "\u2581ogrze": 6338, "98": 6339, "\u2581Nor": 6340, "rej": 6341, "\u2581Am": 6342, "\u2581uwa\u017cam": 6343, "\u2581g\u0142\u00f3wny": 6344, "\u2581tegoro": 6345, "OWA": 6346, "\u2581\u017cadnym": 6347, "\u2581pochodz\u0105": 6348, "\u2581,,": 6349, "\u2581dyrektora": 6350, "\u2581funkcjonowanie": 6351, "lizmu": 6352, "\u2581indywidualnie": 6353, "\u2581z\u0119by": 6354, "\u2581Zwi\u0105zku": 6355, "\u2581lubi\u0119": 6356, "\u2581straty": 6357, "\u2581skontak": 6358, "\u2581brutto": 6359, "\u2581obr\u0119bie": 6360, "tt": 6361, "\u2581prawid\u0142owego": 6362, "\u2581Tor": 6363, "\u2581zamy": 6364, "\u2581z\u0142o\u017cone": 6365, "\u2581pe\u0142en": 6366, "\u2581konsument\u00f3w": 6367, "\u2581zau": 6368, "\u2581przyj\u0105\u0107": 6369, "\u2581posiadanie": 6370, "\u2581kompetencji": 6371, "\u2581stara\u0144": 6372, "::": 6373, "\u2581przech": 6374, "\u258143": 6375, "\u2581najszybciej": 6376, "\u2581zaprze": 6377, "gl\u0105d": 6378, "\u2581pe\u0142na": 6379, "\u2581\u017cadne": 6380, "\u2581fotograf": 6381, "\u2581samochody": 6382, "\u2581niemo\u017cliwe": 6383, "\u2581prawdopodob": 6384, "\u2581reakcji": 6385, "\u2581s\u0142u\u017cb": 6386, "\u2581naby": 6387, "\u2581motywa": 6388, "cego": 6389, "\u2581toksy": 6390, "\u2581tematu": 6391, "\u2581wieloma": 6392, "trze": 6393, "\u2581czasy": 6394, "Prze": 6395, "st\u0105pieniu": 6396, "\u2581raka": 6397, "\u2581niekt\u00f3rzy": 6398, "\u2581us\u0142ug\u0119": 6399, "\u2581druk": 6400, "\u2581Ocena": 6401, "\u2581maj\u0105cych": 6402, "\u2581prowadzonych": 6403, "\u2581nazwie": 6404, "\u2581sukcesu": 6405, "\u2581Problem": 6406, "\u2581nauk": 6407, "owne": 6408, "\u2581zast\u0119p": 6409, "\u2581bra": 6410, ":4": 6411, "stawi": 6412, "\u2581Szko\u0142a": 6413, "\u2581gmin": 6414, "dzieli": 6415, "ation": 6416, "\u2581zastosowa\u0107": 6417, "\u2581ulep": 6418, "\u2581kole": 6419, "\u2581zobowi\u0105za\u0144": 6420, "rzeniu": 6421, "\u2581szyb": 6422, "\u2581licen": 6423, "\u2581infrastruktury": 6424, "\u2581profi": 6425, "\u2581uzale\u017c": 6426, "\u2581niniejszej": 6427, "\u2581czu\u0107": 6428, "\u2581pok": 6429, "\u2581zapozna": 6430, "\u2581nur": 6431, "\u2581zak\u0142ada": 6432, "\u2581Prac": 6433, "rywa": 6434, "\u2581tygodnia": 6435, "\u2581radio": 6436, "\u2581porz\u0105d": 6437, "\u258144": 6438, "\u2581wirtual": 6439, "\u2581Koszt": 6440, "anami": 6441, "\u2581ma\u0142ym": 6442, "\u2581wymag": 6443, "\u2581dobro": 6444, "\u2581roman": 6445, "\u2581mi\u0119sa": 6446, "\u2581glob": 6447, "\u2581zna\u0107": 6448, "\u2581efek": 6449, "\u2581wa\u017cnym": 6450, "\u2581terapeu": 6451, "gura": 6452, "\u2581wyj\u015b\u0107": 6453, "\u2581jedzenia": 6454, "\u2581pisem": 6455, "\u2581Tur": 6456, "\u2581spr\u00f3bowa\u0107": 6457, "\u2581John": 6458, "\u2581kapita\u0142": 6459, "wan": 6460, "\u2581ow": 6461, "liwe": 6462, "\u2581w\u0142a\u015bciwy": 6463, "rzeniem": 6464, "\u2581Informacja": 6465, "dzia\u0142": 6466, "UL": 6467, "\u2581\u015bwietle": 6468, "\u2581trzecim": 6469, "\u2581ocena": 6470, "ted": 6471, "ell": 6472, "eno": 6473, "szaj\u0105c": 6474, "\u2581stosowany": 6475, "\u2581regulamin": 6476, "\u2581z\u0142e": 6477, "\u2581bli": 6478, "\u2581Kontak": 6479, "\u2581Zna": 6480, "\u2581sypialni": 6481, "\u2581pracownik": 6482, "\u2581ole": 6483, "\u2581synte": 6484, "\u2581hipote": 6485, "\u2581wolne": 6486, "\u2581Bor": 6487, "\u2581Chcia\u0142bym": 6488, "tale": 6489, "\u2581zap\u0142aci\u0107": 6490, "\u2581procesy": 6491, "tywa": 6492, "\u2581naszymi": 6493, "zem": 6494, "\u2581Gor": 6495, "\u2581finansowania": 6496, "BA": 6497, "\u2581cenach": 6498, "\u2581przyci\u0105ga": 6499, "int": 6500, "\u2581sp\u00f3\u0142ka": 6501, "\u2581informacjami": 6502, "\u2581morza": 6503, "\u2581Pomimo": 6504, "\u2581TV": 6505, "\u2581rad": 6506, "gre": 6507, "\u2581Niekt\u00f3rzy": 6508, "\u2581powa\u017cnie": 6509, "\u2581Czasem": 6510, "\u2581zbli\u017ca": 6511, "\u2581trzecich": 6512, "\u2581hy": 6513, "bro": 6514, "\u2581spe": 6515, "\u2581Zmiany": 6516, "\u2581wytwarz": 6517, "\u2581Fundacji": 6518, "dawc\u00f3w": 6519, "er\u00f3w": 6520, "\u2581woj": 6521, "syjne": 6522, "\u2581przyjemno\u015b\u0107": 6523, "\u2581Matki": 6524, "\u2581t\u0142o": 6525, "pe\u0142": 6526, "pienie": 6527, "\u2581mono": 6528, "\u2581odno\u015bnie": 6529, "tymi": 6530, "\u2581okre\u015blenie": 6531, "\u2581choroba": 6532, "logicznego": 6533, "\u2581my\u015blenia": 6534, "\u2581uczestnicy": 6535, "\u2581artykule": 6536, "\u2581szczeg\u00f3ln\u0105": 6537, "\u2581nauczy\u0107": 6538, "\u2581zlecenie": 6539, "iach": 6540, "to\u015bci": 6541, "\u2581Narodowej": 6542, "\u2581dalszej": 6543, "\u2581przynosi": 6544, "cyjno": 6545, "\u2581dobie": 6546, "\u2581ton": 6547, "\u2581podany": 6548, "trzy": 6549, "\u2581zanieczy": 6550, "licz": 6551, "\u2581kluczowe": 6552, "\u2581Ti": 6553, "\u2581nowotwo": 6554, "\u2581wi\u0119kszym": 6555, "miar": 6556, "\u2581paliwa": 6557, "\u2581Ke": 6558, "tacj\u0119": 6559, "\u2581wodo": 6560, "\u2581cer": 6561, "\u2581przykry": 6562, "\u2581okre\u015blonym": 6563, "(": 6564, "\u2581budowlane": 6565, "\u2581przerwy": 6566, "\u2581kr\u00f3tki": 6567, "\u2581wielkiego": 6568, "\u2581zarz\u0105dzanie": 6569, "\u2581zako\u0144czenie": 6570, "\u2581buk": 6571, "\u2581Rejestru": 6572, "\u2581trzyma": 6573, "\u2581dewe": 6574, "\u017c\u0119": 6575, "\u2581wydanie": 6576, "\u2581poprawnie": 6577, "\u2581charakteryzuje": 6578, "\u2581prawej": 6579, "\u2581ubezpie": 6580, "\u201d,": 6581, "lany": 6582, "\u2581\u017beby": 6583, "\u2581rozbi": 6584, "\u2581czyta": 6585, "\u2581akt": 6586, "Mo": 6587, "\u25811999": 6588, "\u2581MA": 6589, "\u2581prawd\u0119": 6590, "\u2581zacznie": 6591, "\u2581tre": 6592, "\u258142": 6593, "\u2581niniejszym": 6594, "\u2581wypadek": 6595, "\u2581kr\u00f3tkim": 6596, "ila": 6597, "stawa": 6598, "pen": 6599, "\u2581pras": 6600, "\u2581Grzegorz": 6601, "\u2581Zarz\u0105d": 6602, "Tu": 6603, "\u258119.": 6604, "\u2581wycof": 6605, "\u2581efekcie": 6606, "kra": 6607, "\u2581spod": 6608, "\u2581Po\u017cy": 6609, "\u2581podat": 6610, "\u2581zapro": 6611, "48": 6612, "\u2581hu": 6613, "\u2581Coraz": 6614, "\u2581zako\u0144czenia": 6615, "\u2581wra\u017cli": 6616, "\u2581miesi\u0105cach": 6617, "\u2581inicjatywy": 6618, "\u2581zapami\u0119": 6619, "ta\u017c": 6620, "dzonym": 6621, "\u2581Ana": 6622, "\u2581Spos\u00f3b": 6623, "\u2581Szko\u0142y": 6624, "\u2581angielskiego": 6625, "\u2581nak\u0142ad": 6626, "imedia": 6627, "\u2581kom\u00f3rki": 6628, "\u2581\u015bredniej": 6629, "Li": 6630, "\u2581Czyli": 6631, "liwo\u015bci": 6632, "\u2581trzecie": 6633, "\u2581stresu": 6634, "\u2581pr\u0119dko\u015bci": 6635, "\u2581parafii": 6636, "\u2581siedem": 6637, "Ka": 6638, "\u2581Wojciech": 6639, "sce": 6640, "\u017caj\u0105": 6641, "ies": 6642, "\u2581zapewni": 6643, "\u2581udziela": 6644, "\u2581zamawia": 6645, "szeniem": 6646, "\u2581zg\u0142o": 6647, "\u2581znalaz\u0142a": 6648, "\u2581Najpierw": 6649, "8)": 6650, "\u2581og\u00f3lne": 6651, "\u2581zakaz": 6652, "\u2581rozpocz\u0119cia": 6653, "jazd": 6654, "\u2581ko\u0144": 6655, "\u2581skry": 6656, "lus": 6657, "\u2581kolejn\u0105": 6658, "\u2581poprawi\u0107": 6659, "\u2581polityka": 6660, "\u2581Far": 6661, "\u2581kolorach": 6662, "\u2581przedstawi\u0107": 6663, "\u2581bezpie": 6664, "pami": 6665, "\u2581aktor": 6666, "\u2581sensu": 6667, "\u2581Marsza\u0142ku": 6668, "\u2581Zarz\u0105du": 6669, "\u0142o\u015b\u0107": 6670, "\u2581Akademii": 6671, "\u2581remont": 6672, "\u2581dzie\u0142o": 6673, "\u2581zmniejszenie": 6674, "wien": 6675, "\u2581wojew\u00f3dztwie": 6676, "\u2581czer": 6677, "\u2581p\u0142yt": 6678, "\u2581Kata": 6679, "\u2581zbi\u00f3r": 6680, "cent": 6681, "\u2581trzeci": 6682, "\u2581rozwija\u0107": 6683, "\u015bla": 6684, "osob": 6685, "\u2581wych": 6686, "\u2581otrzymy": 6687, "\u2581wycieczki": 6688, "\u2581mult": 6689, "4)": 6690, "\u2581przygotowane": 6691, "bili": 6692, "kacje": 6693, "pas": 6694, "\u2581kilkunastu": 6695, "\u2581sportu": 6696, "\u2581owo": 6697, "szonych": 6698, "plan": 6699, "\u2581m\u00f3wi\u0119": 6700, "\u2581wielkiej": 6701, "ime": 6702, "\u2581zagro\u017cenie": 6703, "\u2581b\u0119d\u0105c": 6704, "\u2581strategii": 6705, "\u2581zastosowaniu": 6706, "\u2581zio": 6707, "\u2581przyjmuje": 6708, "\u2581ogromny": 6709, "\u2581zatwier": 6710, "ni\u0119te": 6711, "\u2581Badania": 6712, "\u2581do\u015bwiadczeniem": 6713, "\u2581Wsp\u00f3\u0142": 6714, "szania": 6715, "MI": 6716, "sun": 6717, "czuk": 6718, "\u2581normy": 6719, "\u2581ogl\u0105da\u0107": 6720, "\u2581kolejna": 6721, "\u2581dotycz\u0105cym": 6722, "\u2581paznok": 6723, "\u2581Dru": 6724, "twa": 6725, "\u2581deszcz": 6726, "\u2581organizmie": 6727, "\u2581wychodzi": 6728, "IG": 6729, "\u2581Senatu": 6730, "\u2581obowi\u0105zuje": 6731, "\u2581kierowc\u00f3w": 6732, "\u2581si\u0119ga": 6733, "\u2581ochron": 6734, "\u2581integra": 6735, "deo": 6736, "star": 6737, "ld": 6738, "\u2581wycofa\u0107": 6739, "czy\u0142y": 6740, "\u2581podstaw\u0119": 6741, "\u2581przemys\u0142u": 6742, "\u2581\u015bwie\u017co": 6743, "\u2581uwielbia": 6744, "\u2581dra": 6745, "\u2581dodatki": 6746, "\u2581dostarcza": 6747, "\u2581przemys\u0142": 6748, "\u2581ner": 6749, "\u2581wi\u0105z": 6750, "\u2581ocie": 6751, "\u2581ciesz\u0105": 6752, "\u2581Inter": 6753, "\u2581Sport": 6754, "7)": 6755, "\u2581wielko": 6756, "\u2581naru": 6757, "\u2581by\u0142by": 6758, "\u2581parking": 6759, "ciach": 6760, "\u2581\u015bli": 6761, "\u2581tw\u00f3j": 6762, "\u2581wysokich": 6763, "\u2581gen": 6764, "\u2581podmiot": 6765, "\u2581doskona\u0142e": 6766, "nieniu": 6767, "\u2581poinformowa\u0107": 6768, "\u2581warzyw": 6769, "\u2581kosztuje": 6770, "\u2581sw\u0105": 6771, "\u2581pak": 6772, "\u2581wyjazd": 6773, "\u2581bra\u0107": 6774, "dniej": 6775, "\u2581rozumiem": 6776, "\u00e4": 6777, "\u2581bior\u0105c": 6778, "ank\u0119": 6779, "\u2581strefy": 6780, "\u2581kierowa\u0107": 6781, "muj\u0105": 6782, "\u2581monitor": 6783, "\u2581musia\u0142a": 6784, "\u2581zawodnik\u00f3w": 6785, "\u2581interak": 6786, "\u2581znana": 6787, "\u2581s\u0142one": 6788, "\u2581medycyny": 6789, "\u2581Krakowa": 6790, "\u2581aktualne": 6791, "lla": 6792, "\u2581szczeg\u00f3\u0142\u00f3w": 6793, "rgi": 6794, "fon": 6795, "wiony": 6796, "\u2581og\u00f3lnie": 6797, "\u2581okre\u015blenia": 6798, "\u2581praktyki": 6799, "\u2581kosz": 6800, "sjona": 6801, "\u2581zachowa\u0144": 6802, "\u2581telekomunika": 6803, "\u2581prowadz\u0105": 6804, "\u2581budowie": 6805, "\u2581rz\u0119": 6806, "\u2581alternatyw": 6807, "dzeni": 6808, "\u2581temperatura": 6809, "\u2581ch\u0119\u0107": 6810, "\u2581r\u00f3\u017cnymi": 6811, "\u2581SZ": 6812, "\u2581klo": 6813, "\u2581planuje": 6814, "\u258139": 6815, "\u2581racji": 6816, "\u2581M\u00f3j": 6817, "cz\u0105cy": 6818, "\u2581porusza": 6819, "\u2581Jas": 6820, "stry": 6821, "\u2581cywilnego": 6822, "\u2581punkcie": 6823, "reg": 6824, "\u2581News": 6825, "\u2581dokona": 6826, "\u2581wiatr": 6827, "\u2581wysi\u0142ku": 6828, "\u2581\u015bpie": 6829, "terapii": 6830, "\u2581elasty": 6831, "73": 6832, "9)": 6833, "dowym": 6834, "\u2581ogl\u0105da": 6835, "\u2581Hiszpanii": 6836, "\u2581obrotu": 6837, "\u2581jedzenie": 6838, "bla": 6839, "\u2581zapyta\u0142": 6840, "\u2581cz\u0119\u015bciowo": 6841, "zach": 6842, "wanym": 6843, "\u2581kwiat\u00f3w": 6844, "O\u015aCI": 6845, "\u2581weekend": 6846, "\u2581napisa\u0107": 6847, "\u2581sztuk": 6848, "\u2581placu": 6849, "\u2581spok\u00f3j": 6850, "uj\u0105cy": 6851, "\u2581podstawowej": 6852, "\u2581zawo": 6853, "\u2581podzieli\u0107": 6854, "\u2581Najlepiej": 6855, "\u2581aktu": 6856, "\u2581W\u0142o": 6857, "\u2581zysku": 6858, "\u2581zapisu": 6859, "\u2581odnaj": 6860, "szcz\u0119": 6861, "dera": 6862, "ret": 6863, ":2": 6864, "34": 6865, "bionych": 6866, "\u2581plac\u00f3wki": 6867, "\u2581bia\u0142e": 6868, "mami": 6869, "\u2581Jaros\u0142aw": 6870, "\u2581Ma\u0142gorzata": 6871, "\u2581wyle": 6872, "\u2581Do\u0142\u0105": 6873, "\u2581nauk\u0119": 6874, "\u2581cz\u0142onkowie": 6875, "\u2581walczy\u0107": 6876, "\u2581Prezes": 6877, "pow": 6878, "\u2581Specjali": 6879, "\u2581efektyw": 6880, "\u2581wia": 6881, "\u2581krzy\u017c": 6882, "de\u0142": 6883, "owice": 6884, "\u2581rocznie": 6885, "tuj\u0119": 6886, "ciami": 6887, "\u2581uwadze": 6888, "\u2581wa\u017cn\u0105": 6889, "\u2581czynniki": 6890, "\u2581polsko": 6891, "\u2581zabud": 6892, "\u2581spad": 6893, "\u2581wielka": 6894, "\u2581powa\u017cne": 6895, "\u2581chwil\u0105": 6896, "styki": 6897, "\u2581ziemi\u0119": 6898, "\u2581obrazy": 6899, "\u2581zwi\u0119kszy\u0107": 6900, "36": 6901, "\u2581inwestycje": 6902, "\u2581wymieni\u0107": 6903, "lon\u0105": 6904, "\u2581CO": 6905, "wymi": 6906, "\u2581wiedza": 6907, "bal": 6908, "\u017cy\u0142a": 6909, "rop": 6910, "\u2581dru\u017cyny": 6911, "d\u0142a": 6912, "laj\u0105": 6913, "\u2581Ca\u0142y": 6914, "bka": 6915, "\u2581najwi\u0119kszy": 6916, "\u2581eksploatacji": 6917, "niak": 6918, "lono": 6919, "kolwiek": 6920, "\u2581spra": 6921, "44": 6922, "\u2581zawodowej": 6923, "\u2581konkursie": 6924, "\u2581bezpiecznie": 6925, "\u2581organ": 6926, "kanie": 6927, "\u2581m\u0105\u017c": 6928, "\u2581wydawa\u0107": 6929, "\u2581czysto\u015bci": 6930, "\u2581pies": 6931, "\u2581podra\u017c": 6932, "\u2581szk\u0142a": 6933, "\u2581Szczeg\u00f3\u0142owe": 6934, "\u2581Zatem": 6935, "\u258118.": 6936, "wnych": 6937, "\u0142ej": 6938, "\u2581walu": 6939, "\u2581Kie": 6940, "\u2581tkanki": 6941, "dzisz": 6942, "niamy": 6943, "\u2581Moja": 6944, "\u2581stwierdzi\u0107": 6945, "\u2581port": 6946, "\u25816,": 6947, "cko": 6948, "\u2581By\u0142y": 6949, "bra\u0107": 6950, "\u2581medycznych": 6951, "rie": 6952, "\u2581m\u0119\u017ca": 6953, "\u2581przys": 6954, "a\u0142u": 6955, "\u2581poprzednich": 6956, "\u2581dokonano": 6957, "\u2581Jedn\u0105": 6958, "\u2581bohater\u00f3w": 6959, "\u2581nawy": 6960, "\u2581jaka\u015b": 6961, "\u2581PS": 6962, "\u2581cierpi": 6963, "\u2581b\u0119d\u0105cych": 6964, "wczych": 6965, "jki": 6966, "\u2581Stos": 6967, "\u2581uczucia": 6968, "\u2581Ani": 6969, "\u2581kontra": 6970, "\u2581mama": 6971, "64": 6972, "\u2581uzasad": 6973, "\u2581pr\u0105d": 6974, "obi": 6975, "\u2581u\u0142o": 6976, "\u2581Tri": 6977, "\u2581Tak\u017ce": 6978, "log\u00f3w": 6979, "\u2581zbior": 6980, "\u2581\u017cona": 6981, "\u2581temperaturze": 6982, "\u2581er": 6983, "\u2581otwiera": 6984, "arnych": 6985, "\u2581odzie\u017c": 6986, "\u2581identyfika": 6987, "wiaj\u0105cy": 6988, "-8": 6989, "\u2581nagro": 6990, "\u2581przes\u0142": 6991, "-18": 6992, "mii": 6993, "ryn": 6994, "\u2581wygl\u0105du": 6995, "\u2581zabiegi": 6996, "ceniu": 6997, "\u2581obiekt": 6998, "\u2581pobu": 6999, "\u2581sytuacje": 7000, "\u2581St\u0105d": 7001, "\u2581posiadamy": 7002, "\u2581lubi\u0105": 7003, "\u2581obecnych": 7004, "\u2581status": 7005, "\u2581elektrycznej": 7006, "\u2581Kas": 7007, "\u2581odnale\u017a\u0107": 7008, "puszcz": 7009, "\u2581szko\u0142a": 7010, "nuj\u0105": 7011, "\u2581g\u0142\u00f3wnego": 7012, "\u2581objaw\u00f3w": 7013, "\u2581P\u00f3\u017aniej": 7014, "niono": 7015, "piony": 7016, "lonego": 7017, "trz": 7018, "\u2581dziewczyny": 7019, "\u2581Bel": 7020, "\u2581realiz": 7021, "\u2581kr\u00f3": 7022, "\u2581udzielenie": 7023, "\u2581Moje": 7024, "\u2581wszelkiego": 7025, "\u2581Profe": 7026, "\u2581fotografii": 7027, "\u2581higie": 7028, "\u2581przedsi\u0119biorcy": 7029, "gla": 7030, "ment\u00f3w": 7031, "\u2581600": 7032, "\u2581fragment": 7033, "ra\u0142": 7034, "5)": 7035, "\u2581One": 7036, "logu": 7037, "\u2581Gospodar": 7038, "\u2581wynikaj\u0105ce": 7039, "ni\u0119ta": 7040, "\u2581swobodnego": 7041, "\u2581wykonywanie": 7042, "\u2581wyra\u017cenia": 7043, "uch": 7044, "iem": 7045, "\u2581Can": 7046, "\u2581pracowni": 7047, "\u2581usuni\u0119cie": 7048, "\u2581uprze": 7049, "\u017conym": 7050, "\u2581Techno": 7051, "\u2581szkole\u0144": 7052, "\u2581komputerze": 7053, "\u2581wolna": 7054, "\u2581interesuje": 7055, "\u2581opieku": 7056, "\u2581zauwa\u017c": 7057, "\u2581bia\u0142y": 7058, "\u2581Obie": 7059, "raca": 7060, "\u2581salonu": 7061, "\u2581zawartej": 7062, "\u2581rachunku": 7063, "\u2581politycznych": 7064, "\u2581przeprowadz": 7065, "las": 7066, "\u0144c\u00f3w": 7067, "\u2581miesi\u0119": 7068, "ci\u0142a": 7069, "\u2581lamp": 7070, "\u2581wskazuj\u0105": 7071, "\u2581by\u0142am": 7072, "\u2581sygna": 7073, "\u017conego": 7074, "tania": 7075, "\u2581szam": 7076, "\u2581przystos": 7077, "\u2581raj": 7078, "\u2581wysu": 7079, "\u2581okaza\u0142": 7080, "e\u0142": 7081, "\u2581filmie": 7082, "\u2581potrzebuj\u0105": 7083, "\u2581Rozdzia\u0142": 7084, "\u2581wype\u0142nia": 7085, "\u2581pe\u0142": 7086, "\u2581przewi": 7087, "\u2581obszaru": 7088, "\u2581maj\u0105tku": 7089, "bki": 7090, "\u2581przeprowadzenia": 7091, "\u2581Wyniki": 7092, "graf": 7093, "\u2581konstrukcja": 7094, "\u2581netto": 7095, "arne": 7096, "\u2581uzupe\u0142nia": 7097, "con": 7098, "\u2581\u015awi": 7099, "WI": 7100, "\u2581profilak": 7101, "\u2581Ksi\u0105\u017cka": 7102, "\u2581wybrane": 7103, "\u2581wyrob\u00f3w": 7104, "\u0105cej": 7105, "\u2581zwi\u0105zk\u00f3w": 7106, "lom": 7107, "steczka": 7108, "\u2581kr\u00f3l": 7109, "\u2581oprac": 7110, "dzono": 7111, "szczanie": 7112, "nium": 7113, "cznika": 7114, "\u2581mo\u017cliwo\u015bci\u0105": 7115, "gru": 7116, "\u2581wier": 7117, "\u2581Air": 7118, "atorzy": 7119, "\u2581zda": 7120, "\u2581nauczania": 7121, "n\u0119\u0142o": 7122, "nieniem": 7123, "\u2581jesie": 7124, "/20": 7125, "\u2581zapalenia": 7126, "\u2581obowi\u0105zuj\u0105cych": 7127, "\u2581th": 7128, "\u2581podatkowych": 7129, "\u2581otoczenia": 7130, "\u2581pisa\u0107": 7131, "\u2581czytania": 7132, "\u2581Mary": 7133, "\u2581traci": 7134, "\u2581silnika": 7135, "\u2581przygotowy": 7136, "eli": 7137, "\u2581Bezpie": 7138, "szeni": 7139, "\u2581Cu": 7140, "\u2581wchodz\u0105": 7141, "\u2581Szyb": 7142, "\u2581opat": 7143, "\u2581ciasto": 7144, "b\u0105": 7145, "pres": 7146, "\u2581oprogramowanie": 7147, "nictwa": 7148, "tuj\u0105c": 7149, "r\u00f3\u017c": 7150, "owskie": 7151, "gamy": 7152, "que": 7153, "\u2581potrzebna": 7154, "da\u0142": 7155, "\u2581zaleca": 7156, "ralnych": 7157, "\u2581Stowarzyszenie": 7158, "\u2581dziewczyna": 7159, "ls": 7160, "\u2581spodziewa\u0107": 7161, "\u2581swym": 7162, "\u2581porze": 7163, "\u2581polityk\u0119": 7164, "\u2581prac\u0105": 7165, "\u2581Ksi\u0119": 7166, "niejszego": 7167, "\u2581codziennego": 7168, "\u2581przewodni": 7169, "\u2581Maj\u0105": 7170, "\u2581elektronicznych": 7171, "\u258146": 7172, "ping": 7173, "razy": 7174, "\u2581m\u0119skie": 7175, "\u2581gatunku": 7176, "\u00f3l": 7177, "\u2581szko\u0142ach": 7178, "\u2581Wyb\u00f3r": 7179, "zj": 7180, "dowo": 7181, "\u2581dopuszcza": 7182, "kaz": 7183, "z\u0105": 7184, "\u2581tanie": 7185, "\u2581samochodem": 7186, "Sz": 7187, "gania": 7188, "\u25811994": 7189, "\u2581bia\u0142ka": 7190, "\u2581piekar": 7191, "\u2581posiadania": 7192, "\u2581organizacja": 7193, "\u25812,5": 7194, "\u2581zastanowi\u0107": 7195, "\u2581po\u0142o": 7196, "atach": 7197, "duj\u0105": 7198, "\u2581podatek": 7199, "\u2581kara": 7200, "\u2581zamek": 7201, "dowego": 7202, "\u2581porozumienia": 7203, "\u2581Hotel": 7204, "\u2581przysz\u0142o": 7205, "\u2581wygl\u0105daj\u0105": 7206, "\u2581zalety": 7207, "tam": 7208, "\u2581kandydat": 7209, "\u2581prezentacji": 7210, "],": 7211, "gl": 7212, "\u2581skar": 7213, "\u2581dokonuje": 7214, "\u2581znacz\u0105co": 7215, "\u2581pewna": 7216, "\u2581przytu": 7217, "Te": 7218, "\u258117.": 7219, "\u2581nadaj\u0105": 7220, "\u2581nauka": 7221, "\u2581podkre\u015bli\u0142": 7222, "\u2581Niezale\u017cnie": 7223, "\u2581Dyrektor": 7224, "\u2581Wraz": 7225, "\u2581jedyny": 7226, "\u2581\u0142at": 7227, "mawi": 7228, "OWIE": 7229, "\u2581zauf": 7230, "\u2581Mas": 7231, "\u2581czekola": 7232, "\u2581je\u015b\u0107": 7233, "\u2581sk\u0142adni": 7234, "\u2581ulubio": 7235, "\u2581ekranu": 7236, "\u2581rat": 7237, "\u2581Gry": 7238, "shi": 7239, "\u2581blu": 7240, "dzaj\u0105cych": 7241, "\u2581stopniowo": 7242, "\u2581Sze": 7243, "m\u0105": 7244, "berg": 7245, "rzysta": 7246, "\u2581b\u0142\u0119dy": 7247, "ator\u00f3w": 7248, "dzonej": 7249, "\u2581najpi\u0119k": 7250, "\u2581fascy": 7251, "\u2581przekaz": 7252, "\u015ble": 7253, "\u2581zro": 7254, "\u0144stwa": 7255, "100": 7256, "\u2581sal": 7257, "\u2581przekazywane": 7258, "\u2581uzna\u0107": 7259, "\u2581gli": 7260, "ght": 7261, "\u2581potwierdzenie": 7262, "byt": 7263, "\u2581starannie": 7264, "rez": 7265, "\u2581jednostkach": 7266, "\u2581wyborem": 7267, "\u2581Programu": 7268, "\u2581ukry": 7269, "\u2581silnik": 7270, "lera": 7271, "IV": 7272, "\u2581Tobie": 7273, "\u2581magi": 7274, "\u2581wydru": 7275, "\u2581Tob": 7276, "mi\u0105": 7277, "mieni": 7278, "\u2581Zapo": 7279, "\u2581\u015awiata": 7280, "\u2581\u017c\u0105danie": 7281, "\u2581rozumie": 7282, "\u2581pomys\u0142y": 7283, "\u2581Prosimy": 7284, "\u2581powiecie": 7285, "\u2581zdrowe": 7286, "\u2581czarny": 7287, "\u2581pi\u0105t": 7288, "\u2581kwas": 7289, "\u2581Cha": 7290, "\u2581opowie\u015bci": 7291, "\u2581pop": 7292, "\u2581nazywa": 7293, "\u2581Ukrainy": 7294, "\u2581realizowany": 7295, "\u2581obci\u0105": 7296, "\u2581s\u0119dzi\u00f3w": 7297, "\u2581mieszkaniu": 7298, "\u2581prywatne": 7299, "\u2581~": 7300, "I\u0118": 7301, "\u2581przepisach": 7302, "\u2581wersj\u0119": 7303, "\u2581zain": 7304, "\u2581przebiegu": 7305, "gowy": 7306, "\u2581jakiej\u015b": 7307, "test": 7308, "\u2581paczki": 7309, "sprze": 7310, "\u2581poradni": 7311, "\u2581kal": 7312, "\u2581przemie": 7313, "\u2581st\u0119": 7314, "\u2581czos": 7315, "lit": 7316, "\u2581komentarz": 7317, "\u2581konkretne": 7318, "\u2581zagadnienia": 7319, "\u2581fizjo": 7320, "\u2581dostosowa\u0107": 7321, "\u2581Katarzyna": 7322, "\u2581poka": 7323, "\u2581Nasi": 7324, "\u2581Inte": 7325, "\u2581Najwa\u017c": 7326, "\u2581trybu": 7327, "\u2581drewniane": 7328, "\u2581sk\u00f3r": 7329, "\u2581zauwa\u017cy\u0142": 7330, "\u2581zdr": 7331, "\u2581sercu": 7332, "\u2581boku": 7333, "\u2581t\u0142umaczy": 7334, "\u2581niezb\u0119dny": 7335, "\u2581wybrany": 7336, "letnie": 7337, "\u2581jakiekolwiek": 7338, "bl": 7339, "\u2581Lam": 7340, "\u2581krzy": 7341, "\u2581op\u0142aca": 7342, "\u2581zabi": 7343, "\u2581W\u00f3wczas": 7344, "\u2581spotyka": 7345, "\u2581obs\u0142u": 7346, "\u2581k\u0105pieli": 7347, "\u2581przedmiot": 7348, "\u2581energe": 7349, "\u043e": 7350, "\u0105c\u0105": 7351, "rego": 7352, "\u2581uzyskanie": 7353, "\u2581niekiedy": 7354, "\u2581nadzoru": 7355, "\u2581uwzgl\u0119dnieniem": 7356, "\u2581dziwnego": 7357, "\u2581oskar": 7358, "\u2581\u015bmieci": 7359, "\u2581pocho": 7360, "eu": 7361, "\u2581odpowiedzia\u0142": 7362, "\u2581ana": 7363, "\u2581prawnego": 7364, "\u2581dzisiejszych": 7365, "\u2581deko": 7366, "\u2581zawodowego": 7367, "sch": 7368, "\u2581reali": 7369, "\u2581wynikiem": 7370, "parat": 7371, "\u2581gum": 7372, "\u2581Pomoc": 7373, "\u2581starych": 7374, "\u2581przekro": 7375, "\u015blij": 7376, "\u2581sekund": 7377, "daje": 7378, "\u2581gastro": 7379, "wione": 7380, "\u2581emisji": 7381, "\u2581ubezpieczenie": 7382, "\u2581opty": 7383, "wie\u0144": 7384, "\u2581doj\u015b\u0107": 7385, "\u2581potrzebujesz": 7386, "\u2581szansa": 7387, "pan": 7388, "\u2581naprawy": 7389, "\u2581wycofania": 7390, "\u2581pozostaj\u0105": 7391, "\u2581Model": 7392, "\u2581przetwo": 7393, "miana": 7394, "\u2581s\u0142u\u017c\u0105": 7395, "nt": 7396, "\u2581koncie": 7397, "\u2581cuk": 7398, "tujesz": 7399, "\u2581przedszko": 7400, "\u2581szklan": 7401, "\u2581szkoleni": 7402, "By": 7403, "pisu": 7404, "dzin": 7405, "rany": 7406, "\u2581der": 7407, "\u2581szt": 7408, "dali": 7409, "\u2581trudnych": 7410, "\u2581instytucje": 7411, "\u2581zwi\u0105zana": 7412, "\u2581Jeste\u015b": 7413, "\u2581m\u00f3wimy": 7414, "nin": 7415, "ade": 7416, "czesne": 7417, "\u2581spali": 7418, "\u2581fan\u00f3w": 7419, "mian": 7420, "\u2581G\u0142\u00f3wnym": 7421, "\u2581Chro": 7422, "\u2581mecz": 7423, "IR": 7424, "\u2581W\u0142a\u015bci": 7425, "\u2581zajmuj\u0105": 7426, "97": 7427, "\u2581nast\u0119pnego": 7428, "\u2581skutk\u00f3w": 7429, "\u2581s\u0142o\u0144ce": 7430, "\u2581Natu": 7431, "\u2581Klub": 7432, "\u2581przeg": 7433, "\u2581sprowa": 7434, "\u2581przyk\u0142adem": 7435, "\u2581uwzgl\u0119dnia": 7436, "\u2581silne": 7437, "nianych": 7438, "\u2581nietyp": 7439, "HP": 7440, "\u2581szkolenie": 7441, "low": 7442, "\u2581ma\u0142ego": 7443, "metra": 7444, "\u2581lista": 7445, "\u2581m\u00f3wi\u0142a": 7446, "\u2581Dwa": 7447, "96": 7448, "syw": 7449, "\u2581bro\u0144": 7450, "\u2581najlepsz\u0105": 7451, "\u2581informa": 7452, "kowskiego": 7453, "\u2581za\u0142o\u017cy\u0107": 7454, "\u015bl": 7455, "\u2581g\u0142o\u015b": 7456, "plo": 7457, "tywne": 7458, "don": 7459, "\u2581zawod\u00f3w": 7460, "\u2581Nowym": 7461, "DA": 7462, "\u2581beton": 7463, "\u2581spowodowa\u0107": 7464, "\u2581wraca": 7465, "\u2581stare": 7466, "ware": 7467, "\u2581Zdaniem": 7468, "\u2581\u0142\u00f3\u017cka": 7469, "\u2581ducha": 7470, "\u2581p\u00f3\u017an": 7471, "wier": 7472, "\u2581kr\u0105": 7473, "\u2581pomys\u0142\u00f3w": 7474, "\u2581kolejnego": 7475, "\u0144ca": 7476, "\u2581kredyt\u00f3w": 7477, "\u2581W\u0119": 7478, "\u2581wsp\u00f3\u0142prac": 7479, "\u2581posiedzeniu": 7480, "\u2581my\u015ble\u0107": 7481, "\u2581ubieg\u0142ym": 7482, "\u2581laser": 7483, "\u2581wolon": 7484, "\u2581dedyk": 7485, "\u2581wielko\u015b\u0107": 7486, "\u2581luksus": 7487, "\u2581projektem": 7488, "\u2581parametry": 7489, "xy": 7490, "\u2581Os": 7491, "\u2581nieba": 7492, "gl\u0105da": 7493, "\u2581sprawi": 7494, "\u2581wi\u0119kszego": 7495, "\u2581pokro": 7496, "\u2581powsta\u0142y": 7497, "\u2581\u0142y\u017cki": 7498, "\u2581ilu": 7499, "\u2581tr\u0105": 7500, "\u2581ekspres": 7501, "\u2581Finans\u00f3w": 7502, "maga": 7503, "\u2581\u015awiat": 7504, "94": 7505, "\u2581sensie": 7506, "\u2581m\u0119\u017cczy\u017ani": 7507, "rali": 7508, "\u2581wp\u0142a": 7509, "\u2581interes\u00f3w": 7510, "\u2581postawi\u0107": 7511, "\u2581trafia": 7512, "\u2581Trzy": 7513, "\u2581sprzeciw": 7514, "rol": 7515, "\u0438": 7516, "\u2581dzia\u0142aniu": 7517, "\u2581kolejnej": 7518, "\u2581powy\u017cszym": 7519, "\u2581lasu": 7520, "\u2581zarz\u0105": 7521, "\u2581zacz\u0119\u0142y": 7522, "\u2581kat": 7523, ",00": 7524, "ciele": 7525, "ida": 7526, "szczeniu": 7527, "lowe": 7528, "wet": 7529, "\u2581dachu": 7530, "ENIE": 7531, "rum": 7532, "\u2581dochodzenia": 7533, "\u2581duszy": 7534, "\u00f3rka": 7535, "38": 7536, "\u2581okiem": 7537, "\u2581Eu": 7538, "\u2581przeze": 7539, "wskiego": 7540, "\u2581przepi\u0119k": 7541, "\u2581znalaz\u0142y": 7542, "\u2581pocie": 7543, "\u2581wolnego": 7544, "pek": 7545, "\u2581Zamiast": 7546, "\u2581dod": 7547, "\u2581efekt\u00f3w": 7548, "\u2581zak\u0142ad\u00f3w": 7549, "\u2581jad": 7550, "stanie": 7551, "\u2581pomog\u0105": 7552, "\u2581odpowiedzialny": 7553, "dki": 7554, "\u2581stre": 7555, "\u2581pozwol\u0105": 7556, "\u2581potencja\u0142": 7557, "KO": 7558, "j\u0119zy": 7559, "\u2581KR": 7560, "\u2581Ur": 7561, "dost\u0119p": 7562, "\u2581budzi": 7563, "\u2581licencji": 7564, "II": 7565, "\u2581popularno\u015bci\u0105": 7566, "KS": 7567, "\u2581(18": 7568, "\u2581kszta\u0142": 7569, "\u2581zacz\u0119\u0142o": 7570, "\u2581osiem": 7571, "\u2581regular": 7572, "\u2581d\u0142u\u017cszy": 7573, "\u2581dodatkiem": 7574, "\u2581SE": 7575, "\u2581kryzys": 7576, "\u2581AR": 7577, "\u2581og\u00f3lnego": 7578, "\u2581odby\u0142": 7579, "\u2581Skoro": 7580, "\u2581\u017byd\u00f3w": 7581, "\u2581konkretnego": 7582, "\u2581wsp\u00f3\u0142praca": 7583, "\u2581skuteczno\u015b\u0107": 7584, "\u2581Polityki": 7585, "\u2581Jedna": 7586, "\u2581Stan\u00f3w": 7587, "tui": 7588, "\u2581lampy": 7589, "\u2581zasadami": 7590, "\u2581stole": 7591, "\u00f3\u0142": 7592, "ati": 7593, "\u2581Maciej": 7594, "\u2581mi\u0119so": 7595, "\u2581Katowicach": 7596, "\u2581dotk": 7597, "\u2581bud\u017cet": 7598, "\u2581k\u00f3\u0142": 7599, "dziny": 7600, "\u2581powierzch": 7601, "\u2581gmina": 7602, "\u2581pojawi\u0142a": 7603, "Pan": 7604, "\u2581Anglii": 7605, "\u2581pog": 7606, "bus": 7607, "gni": 7608, "\u2581nale": 7609, "^": 7610, "\u2581odku": 7611, "cz\u0105c": 7612, "\u2581ostrze": 7613, "\u2581potrzebny": 7614, "dawc\u0105": 7615, "\u2581warstwy": 7616, "\u2581alkohol": 7617, "loga": 7618, "\u2581polityczne": 7619, "\u2581zawodu": 7620, "\u2581to\u017csamo\u015bci": 7621, "\u2581uroczy": 7622, "\u2581uni": 7623, "\u2581\u0142azienki": 7624, "\u2581ta\u0144": 7625, "ownia": 7626, "\u2581Rozporz\u0105dzenie": 7627, "\u2581obejrze\u0107": 7628, "towo": 7629, "\u2581pracuj\u0105": 7630, "stom": 7631, "ralnej": 7632, "wsze": 7633, "\u2581obszar\u00f3w": 7634, "owujemy": 7635, "\u2581auk": 7636, "\u2581Instytutu": 7637, "\u2581okno": 7638, "gin": 7639, "\u2581zakon": 7640, "\u00fc": 7641, "\u2581Kro": 7642, "\u2581l\u0119": 7643, "\u2581Bo\u017cej": 7644, "\u2581pozytywne": 7645, "\u2581oszu": 7646, "\u2581przemy": 7647, "metry": 7648, "\u2581odbie": 7649, "lio": 7650, "\u2581lepszy": 7651, "\u2581wychowaw": 7652, "\u2581kli": 7653, "\u2581Pi\u0119k": 7654, "lizowanych": 7655, "\u2581zapytania": 7656, "\u2581wolno\u015b\u0107": 7657, "\u2581Ali": 7658, "\u2581pami\u0119tam": 7659, "\u2581papie": 7660, "\u2581Og\u0142o": 7661, "\u2581wydarzenie": 7662, "\u2581danymi": 7663, "\u2581poku": 7664, "\u2581spadek": 7665, ".01": 7666, "\u2581mili": 7667, "\u2581powo": 7668, "\u2581Win": 7669, "szczone": 7670, "\u2581Piotra": 7671, "\u2581Las": 7672, "czam": 7673, "68": 7674, "\u2581ma\u0142\u0105": 7675, "\u2581przek\u0105": 7676, "dz\u0105c": 7677, "42": 7678, "\u2581scenie": 7679, "rani": 7680, "\u2581CD": 7681, "ja\u0107": 7682, "\u2581raport": 7683, "\u2581kalendarz": 7684, "\u2581----": 7685, "\u2581kr\u00f3tkie": 7686, "\u2581wybory": 7687, "wiad": 7688, "ia\u0142": 7689, "\u2581wiecz\u00f3r": 7690, "\u2581gotowy": 7691, "\u2581Tro": 7692, "\u2581dochod\u00f3w": 7693, "\u2581Chcemy": 7694, "\u2581odbywaj\u0105": 7695, "CE": 7696, "\u2581Mi\u0119dzy": 7697, "\u2581znak\u00f3w": 7698, "\u2581z\u0142ego": 7699, "\u25814)": 7700, "cili": 7701, "towa\u0142": 7702, "\u2581zaskaku": 7703, "wieniem": 7704, "\u2581kilkadziesi\u0105t": 7705, "\u2581komentarze": 7706, "kiet": 7707, "dle": 7708, "\u2581platformy": 7709, "\u2581Numer": 7710, "gov": 7711, "\u2581okre\u015blonej": 7712, "\u0142om": 7713, "\u2581setki": 7714, "\u0144stwem": 7715, "\u2581ero": 7716, "\u2581Ek": 7717, "\u2581Ewa": 7718, "\u2581HD": 7719, "\u2581Mil": 7720, "\u2581wys\u0142a\u0107": 7721, "\u0142ych": 7722, "Le": 7723, "\u2581\u015bredni": 7724, "\u2581podkre": 7725, "aktyw": 7726, "\u2581umo\u017cliwiaj\u0105": 7727, "pier": 7728, "\u2581utraty": 7729, "\u25811998": 7730, "\u2581\u0141ukasz": 7731, "\u2581Opi": 7732, "\u2581popularnych": 7733, "\u2581dob\u0119": 7734, "\u2581Zale": 7735, "ding": 7736, "\u2581otwarcie": 7737, "gam": 7738, "\u2581widzia\u0142": 7739, "anach": 7740, "\u2581Paw": 7741, "\u2581warzywa": 7742, "\u2581tekst\u00f3w": 7743, "\u2581t\u0142uszczu": 7744, "\u2581zmienia\u0107": 7745, "\u2581bram": 7746, "\u2581Specjal": 7747, "mowa": 7748, "\u2581gra\u0107": 7749, "\u2581spokoju": 7750, "\u2581Wiadomo\u015b\u0107": 7751, "\u2581powoduj\u0105": 7752, "dztwo": 7753, "\u2581m\u0119\u017cczyzny": 7754, "pry": 7755, "\u2581ciele": 7756, "\u25815-": 7757, "\u2581cu": 7758, "\u2581poniedzia\u0142": 7759, "\u2581wpisy": 7760, "\u2581Albo": 7761, "\u2581but\u00f3w": 7762, "\u2581pozby\u0107": 7763, "\u2581zapomina": 7764, "\u2581Mateusz": 7765, "iera": 7766, "\u2581rozpocz\u0119\u0142a": 7767, "\u2581wiel": 7768, "\u2581ewentualnie": 7769, "xt": 7770, "\u2581odprowa": 7771, "\u2581wp\u0142ywaj\u0105": 7772, "tos": 7773, "\u2581Tem": 7774, "rana": 7775, "\u2581CH": 7776, "\u2581mi\u0119dzynarodowej": 7777, "\u2581podej": 7778, "\u2581polityk\u0105": 7779, "\u2581Gre": 7780, "towany": 7781, "\u2581muzeum": 7782, "\u2581wyj\u0105tkowe": 7783, "Mi": 7784, "\u2581dos\u0142ownie": 7785, "\u2581produkcja": 7786, "\u2581kamer": 7787, "\u2581mianowicie": 7788, "red": 7789, "\u2581jed": 7790, "\u2581zaopat": 7791, "\u2581proce": 7792, "kul": 7793, "\u2581sia": 7794, "\u2581poro": 7795, "\u2581odcinku": 7796, "\u2581m\u0142ody": 7797, "\u2581Plus": 7798, "\u2581gminie": 7799, "\u2581auten": 7800, "\u2581konsumen": 7801, "\u2581katalog": 7802, "\"?": 7803, "\u2581R\u00f3\u017c": 7804, "\u2581poszukiwania": 7805, "ank\u0105": 7806, "\u2581Musimy": 7807, "\u2581du\u017cego": 7808, "\u2581zr\u00f3\u017cnic": 7809, "\u2581kwalifikacji": 7810, "\u2581ekstra": 7811, "\u2581medy": 7812, "\u2581z\u0142\u0105": 7813, "\u2581Banku": 7814, "-200": 7815, "\u2581Spo\u0142ecznej": 7816, "\u2581(3": 7817, "\u25811990": 7818, "\u00f3wek": 7819, "\u2581wyj\u0105tkowy": 7820, "\u2581gram": 7821, "\u2581osobiste": 7822, "\u2581kierunek": 7823, "\u2581prawid\u0142": 7824, "\u2581ograniczy\u0107": 7825, "set": 7826, "\u2581g\u0142\u00f3wn\u0105": 7827, "\u2581realizacja": 7828, "\u2581rozporz\u0105dzenie": 7829, "\u2581drobne": 7830, "\u2581u\u017cywania": 7831, "\u2581zasi\u0119gu": 7832, "ds": 7833, "\u2581podaw": 7834, "\u2581Biura": 7835, "\u2581wyproduk": 7836, "\u2581pi\u0119": 7837, "lok": 7838, "\u2581zaoszcz\u0119": 7839, "\u2581prak": 7840, "\u2581zabezpiecza": 7841, "\u2581Kre": 7842, "czkami": 7843, "\u2581u\u017cyciem": 7844, "cuje": 7845, "bywa": 7846, "\u2581tragi": 7847, "\u2581g\u0142ad": 7848, "\u2581zaufania": 7849, "dob": 7850, "\u2581komin": 7851, "\u2581Zasady": 7852, "\u2581atrakcyjne": 7853, "\u2581plan\u00f3w": 7854, "\u2581osa": 7855, "\u2581zaprasza": 7856, "d\u0142": 7857, "\u2581szefa": 7858, "\u2581wyj": 7859, "fr": 7860, "\u2581przeciwie\u0144stwie": 7861, "\u2581rozmawia\u0107": 7862, "93": 7863, "\u2581podda": 7864, "\u017cono": 7865, "som": 7866, "\u2581Informacji": 7867, "\u2581fer": 7868, "32": 7869, "\u2581Jakub": 7870, "\u2581zobowi\u0105zania": 7871, "\u2581Stanis\u0142awa": 7872, "\u2581Wydawnictwo": 7873, "\u2581doskona\u0142y": 7874, "\u2581wzi\u0105\u0142": 7875, "\u2581zablok": 7876, "\u2581naczy\u0144": 7877, "n\u0119\u0142y": 7878, "\u2581zdj\u0119ciu": 7879, "\u2581wybranego": 7880, "92": 7881, "\u2581Agnieszka": 7882, "\u2581hydro": 7883, "\u2581skr\u0119": 7884, "\u2581sil": 7885, "\u2581krwa": 7886, "\u2581wydzie": 7887, "\u2581pakie": 7888, "owskim": 7889, "\u2581analiza": 7890, "ag": 7891, "\u2581rachunek": 7892, "\u2581narodowej": 7893, "\u2581ryn": 7894, "\u2581popraw\u0119": 7895, "\u2581ekranie": 7896, "\u2581teorii": 7897, "\u2581skorzyst": 7898, "towane": 7899, "\u2581kocha": 7900, "\u2581Wymia": 7901, "loka": 7902, "\u2581fu": 7903, "\u2581tradycyjnych": 7904, "\u2581pogody": 7905, "\u017cne": 7906, "\u2581stosowanych": 7907, "\u2581sprzedaw": 7908, "\u2581towarzyszy": 7909, "\u2581uszcze": 7910, "\u2581Stra": 7911, "lizowane": 7912, "\u2581niskie": 7913, "\u2581m\u0142odzi": 7914, "\u2581(5": 7915, "onem": 7916, "\u2581Dro": 7917, "\u2581wieczor": 7918, "\u2581Ul": 7919, "\u2581wesel": 7920, "tz": 7921, "\u2581kie": 7922, "\u2581pokoje": 7923, "\u2581sp\u00f3j": 7924, "tur\u0119": 7925, "ora": 7926, "\u2581odnosi": 7927, "\u2581oddzie": 7928, "\u2581dba\u0107": 7929, "\u2581substan": 7930, "\u2581umiej\u0119tno\u015b\u0107": 7931, "\u2581drewno": 7932, "\u2581us": 7933, "\u2581wdro": 7934, "zio": 7935, "\u2581Ustawa": 7936, "\u2581bezpieczny": 7937, "\u2581widzimy": 7938, "\u2581Ok": 7939, "CA": 7940, "\u2581zg\u0142osi\u0107": 7941, "\u2581pla\u017cy": 7942, "\u2581Edy": 7943, "\u2581metra": 7944, "\u2581zabawki": 7945, "\u2581konsultacji": 7946, "\u2581dotrze\u0107": 7947, "\u2581wra\u017cenia": 7948, "\u2581Maj": 7949, "\u2581wa\u017c": 7950, "\u2581przemocy": 7951, "Pod": 7952, "\u2581zba": 7953, "\u2581wytwo": 7954, "\u2581staty": 7955, "rzy\u0142a": 7956, "\u2581miejscowo\u015b\u0107": 7957, "\u2581w\u0105troby": 7958, "\u2581zg": 7959, "\u2581apte": 7960, "\u2581okazja": 7961, "\u2581r\u00f3\u017cnice": 7962, "\u2581kolej": 7963, "\u2581przedstawiciela": 7964, "\u2581bater": 7965, "\u2581przed\u0142u": 7966, "\u2581t\u0119tni": 7967, "\u2581kata": 7968, "czkach": 7969, "\u2581zastanawia": 7970, "dzane": 7971, "\u2581wynaj": 7972, "\u2581man": 7973, "\u2581nazwiska": 7974, "\u2581Standar": 7975, "\u2581c\u00f3\u017c": 7976, "\u2581pokazuj\u0105": 7977, "\u2581zaj\u0105\u0107": 7978, "\u2581niew\u0105tpliwie": 7979, "\u2581sklepy": 7980, "cina": 7981, "\u2581pier": 7982, "\u2581OS": 7983, "\u2581zbli": 7984, "\u2581pasuje": 7985, "\u2581Ros": 7986, "\u2581pojawi\u0107": 7987, "\u2581Cer": 7988, "cieli": 7989, "\u2581Bud": 7990, "\u2581ciep": 7991, "\u2581Instytut": 7992, "\u2581umo\u017cliwiaj\u0105ce": 7993, "\u2581form\u0105": 7994, "\u2581przyci": 7995, "\u2581Dzi": 7996, "\u2581elektry": 7997, "\u2581pi\u015bmie": 7998, "\u2581niezbyt": 7999, "\u2581wbrew": 8000, "\u2581oczeki": 8001, "\u2581perfek": 8002, "\u2581szerokie": 8003, "\u2581bank\u00f3w": 8004, "\u2581cz\u0142onkiem": 8005, "\u2581pewn\u0105": 8006, "\u2581Fu": 8007, "\u2581pocz\u0105tkowo": 8008, "\u2581oryginalne": 8009, "nera": 8010, "\u2581chroni\u0107": 8011, "anna": 8012, "\u2581substancje": 8013, "\u2581Sk\u0105d": 8014, "\u2581szczeg\u00f3\u0142owe": 8015, "\u2581artyst\u00f3w": 8016, "wor": 8017, "\u2581agencji": 8018, "tai": 8019, "\u2581podstawa": 8020, "\u2581powiem": 8021, "\u2581opiek\u0119": 8022, "\u2581anonim": 8023, "\u2581obrz\u0119": 8024, "\u2581znajduj\u0105cych": 8025, "\u2581pracowa\u0142": 8026, "\u2581pr\u00f3buje": 8027, "\u2581trasie": 8028, "\u2581osi": 8029, "\u2581wyci": 8030, "\u2581P\u0142y": 8031, "\u2581mog": 8032, "\u2581transak": 8033, "\u2581wp": 8034, "\u2581sk\u0142ada\u0107": 8035, "\u2581produkcj\u0119": 8036, "spi": 8037, "\u2581potwierdzenia": 8038, "\u2581mowy": 8039, "\u2581uda\u0107": 8040, "\u2581Zu": 8041, "cielem": 8042, "\u2581ciekawy": 8043, "publi": 8044, "\u2581zdrowotnej": 8045, "\u2581wspomnie\u0107": 8046, "\u2581Ben": 8047, "\u2581Zar\u00f3wno": 8048, "\u2581pr\u0119": 8049, "\u2581teren\u00f3w": 8050, "\u2581wskazany": 8051, "\u2581przyst\u0119p": 8052, "\u2581oczami": 8053, "\u2581stary": 8054, "\u2581j\u0119zykiem": 8055, "\u2581por\u00f3wny": 8056, "\u2581ju": 8057, "\u2581wyst\u0119p": 8058, "\u2581wybiera\u0107": 8059, "\u2581ustali\u0107": 8060, "\u2581Net": 8061, "\u2581numeru": 8062, "66": 8063, "\u2581przechodzi": 8064, "\u2581naturalnie": 8065, "\u2581Pozwala": 8066, "\u2581mo\u017cliwy": 8067, "tyku": 8068, "\u2581gran": 8069, "\u2581uchylenia": 8070, "\u2581rehabili": 8071, "PA": 8072, "\u2581uli": 8073, "\u2581jutro": 8074, "\u2581wyli": 8075, "\u2581dalszych": 8076, "\u2581przezna": 8077, "\u2581\u015bcianie": 8078, "\u017cd": 8079, "\u2581zas": 8080, "oka": 8081, "chodzimy": 8082, "\u2581zwi\u0119kszenia": 8083, "\u2581sk\u0142adek": 8084, "\u2581pojemno\u015bci": 8085, "\u2581zysk": 8086, "\u2581posa": 8087, "\u2581wojska": 8088, "alni": 8089, "\u258110,": 8090, "\u2581usuwania": 8091, "kali": 8092, "cisk": 8093, "\u2581wyroku": 8094, "\u2581si\u0142\u0105": 8095, "\u2581napi\u0119cia": 8096, "\u2581Andrzeja": 8097, "car": 8098, "\u2581Zdj\u0119cia": 8099, "\u2581szybkiego": 8100, "\u2581postanowi\u0142": 8101, "\u2581prostych": 8102, "\u2581przeprowadzi\u0107": 8103, "\u2581Sm": 8104, "\u2581Wymag": 8105, "\u2581zabie": 8106, "czami": 8107, "zj\u0119": 8108, "\u2581Ma\u0142o": 8109, "\u2581Mag": 8110, "\u2581skarb": 8111, "da\u0142a": 8112, "\u2581ilo\u015bci\u0105": 8113, "\u2581fisk": 8114, "\u2581wynagrodzenie": 8115, "\u2581rozpowszechni": 8116, "\u2581spodzie": 8117, "zali": 8118, "\u2581podobny": 8119, "lip": 8120, "\u2581obcho": 8121, "\u2581trwa\u0142y": 8122, "\u2581pani\u0105": 8123, "\u2581czekaj\u0105": 8124, "\u2581przydatne": 8125, "lonym": 8126, "\u2581\u2192": 8127, "\u2581aut": 8128, "terii": 8129, "\u2581wyd": 8130, "\u2581Max": 8131, "\u2581zdecyd": 8132, "\u2581kart\u0119": 8133, "cz\u0105cych": 8134, "\u2581r\u0119kach": 8135, "\u2581kroki": 8136, "rona": 8137, "\u2581uczy\u0107": 8138, "\u2581obiad": 8139, "\u2581odby\u0142o": 8140, "\u2581Pora": 8141, "panie": 8142, "NIK": 8143, "\u2581ziem": 8144, "szonej": 8145, "\u2581grozi": 8146, "\u2581rodzin\u0119": 8147, "polskie": 8148, "\u2581tre\u015bci\u0105": 8149, "\u2581mas\u0119": 8150, "\u2581aktual": 8151, "kowska": 8152, "\u2581Sejmie": 8153, "\":": 8154, "rea": 8155, "Od": 8156, "\u2581Szanowny": 8157, "\u2581ch\u0119ci": 8158, "\u2581Prezesa": 8159, "\u2581ankie": 8160, "\u2581zestawu": 8161, "\u2581mle": 8162, "\u2581Mac": 8163, "\u2581krze": 8164, "amie": 8165, "\u2581Joanna": 8166, "\u2581kursy": 8167, "\u2581autor\u00f3w": 8168, "\u2581katalogu": 8169, "chni": 8170, "genera": 8171, "\u2581mistrz": 8172, "\u2581zas\u0142u": 8173, "\u2581prawdziwy": 8174, "\u2581skorzysta": 8175, "\u2581s\u0142od": 8176, "dane": 8177, "nny": 8178, "\u2581wykon": 8179, "\u2581nagr\u00f3d": 8180, "bek": 8181, "\u2581Fundacja": 8182, "szne": 8183, "\u2581ryby": 8184, "\u2581w\u0105tpienia": 8185, "\u2581odpowie": 8186, "\u2581wie\u015b": 8187, "\u2581urlop": 8188, "\u2581utworu": 8189, "\u2581osobowo\u015bci": 8190, "\u2581po\u015bredni": 8191, "\u2581ub": 8192, "\u2581tacy": 8193, "para": 8194, "\u2581ogrodzie": 8195, "\u2581trafi\u0142": 8196, "\u2581zdoby\u0142": 8197, "\u2581znajomo\u015b\u0107": 8198, "\u2581zapyta\u0107": 8199, "\u2581przyj\u0105\u0142": 8200, "\u2581budow": 8201, "\u2581ocen\u0119": 8202, "\u2581narusza": 8203, "zacje": 8204, "\u2581otwarcia": 8205, "\u2581kota": 8206, "\u2581szeroko\u015bci": 8207, "\u2581powy\u017cszych": 8208, "\u2581zaznaczy\u0107": 8209, "sam": 8210, "dzam": 8211, "\u2581technik": 8212, "koj": 8213, "\u2581wydajno\u015b\u0107": 8214, "\u2581inspira": 8215, "\u2581doprowa": 8216, "BI": 8217, "\u2581opowie\u015b\u0107": 8218, "jenie": 8219, "\u2581kieszeni": 8220, "\u2581fizyczne": 8221, "\u2581o\u015bwietlenie": 8222, "terapia": 8223, "\u2581faktury": 8224, "\u2581G\u0142o": 8225, "godnie": 8226, "\u2581Black": 8227, "UK": 8228, "\u2581czarne": 8229, "\u2581zabezpieczenie": 8230, "\u2581przedsi\u0119wzi\u0119cia": 8231, "d\u0142o": 8232, "na\u0107": 8233, "\u2581ogrodu": 8234, "\u2581oznak": 8235, "\u2581Ele": 8236, "\u2581zje": 8237, "\u2581jakimi": 8238, "\u2581Ost": 8239, "dzili\u015bmy": 8240, "?!": 8241, "TU": 8242, "\u2581ochot\u0119": 8243, "\u2581Stanach": 8244, "mark": 8245, "\u2581zagra": 8246, "gowa": 8247, "owna": 8248, "\u2581najlepszej": 8249, "chami": 8250, "mena": 8251, "s\u0105": 8252, "\u2581wyg\u0142a": 8253, "\u2581seks": 8254, "\u2581Okres": 8255, "\u2581Kredy": 8256, "\u2581znaki": 8257, "\u2581przygotowany": 8258, "\u2581pud": 8259, "gat": 8260, "pania": 8261, "\u2581najwy\u017csz\u0105": 8262, "\u2581wiru": 8263, "\u2581Ve": 8264, "wan\u0105": 8265, "Fi": 8266, "\u2581dzia\u0142ki": 8267, "fikacji": 8268, "\u2581staran": 8269, "\u2581czyta\u0107": 8270, "\u2581propozycj\u0119": 8271, "\u258121.": 8272, "\u2581niepo\u017c\u0105d": 8273, "\u2581najnowsze": 8274, "\u2581literatury": 8275, "p\u0105": 8276, "\u2581dolegliwo\u015bci": 8277, "\u2581rywali": 8278, "\u2581nowoczesny": 8279, "\u2581b\u0119dziecie": 8280, "\u2581opowie": 8281, "\u2581Trybuna\u0142u": 8282, "\u2581parametr\u00f3w": 8283, "\u2581termi": 8284, "skop": 8285, "fli": 8286, "\u2581Kan": 8287, "\u2581skal\u0119": 8288, "\u2581szpitalu": 8289, "\u2581podzia\u0142": 8290, "\u2581mechanizm": 8291, "\u2581you": 8292, "\u2581Mo\u017cliwo\u015b\u0107": 8293, "\u2581niemow": 8294, "\u2581Krajowej": 8295, "\u2581wzory": 8296, "O\u015a\u0106": 8297, "\u258185": 8298, "\u2581walk\u0119": 8299, "\u2581herbaty": 8300, "\u2581dalszym": 8301, "\u2581Pozy": 8302, "\u017cyli\u015bmy": 8303, "\u2581trwa\u0142e": 8304, "\u2581dop\u00f3ki": 8305, "\u2581Fak": 8306, "\u2581organy": 8307, "\u2581dziesi\u0105": 8308, "\u2581aktywne": 8309, "\u2581Ab": 8310, "\u2581pl": 8311, "\u2581Lublinie": 8312, "\u2581plak": 8313, "\u2581AG": 8314, "\u2581rob\u00f3t": 8315, "\u2581zgroma": 8316, "\u2581skr\u00f3": 8317, "ownych": 8318, "cs": 8319, "\u2581przychod\u00f3w": 8320, "SM": 8321, "minu": 8322, "\u2581dofinansowanie": 8323, "\u2581zato": 8324, "kuj": 8325, "\u2581sceny": 8326, "\u2581warsztat\u00f3w": 8327, "\u2581maka": 8328, "\u2581wbud": 8329, "\u2581wrze\u015bniu": 8330, "\u2581Zaku": 8331, "\u2581zani": 8332, "\u2581powierzchnia": 8333, "\u00f3rki": 8334, "bet": 8335, "\u2581J\u00f3zefa": 8336, "\u2581marzenia": 8337, "\u2581przedszkola": 8338, "\u2581wp\u0142y": 8339, "ga\u0107": 8340, "\u2581Bli": 8341, "\u2581wyrazi\u0107": 8342, "\u2581obecny": 8343, "\u2581trener": 8344, "\u2581religii": 8345, "\u2581odzie\u017cy": 8346, "\u2581kandydata": 8347, "\u2581pow\u00f3d": 8348, "\u2581Rz\u0105d": 8349, "\u2581praktyk": 8350, "\u2581C\u00f3\u017c": 8351, "kaj\u0105": 8352, "\u2581smu": 8353, "\u2581papieru": 8354, "\u2581nastolat": 8355, "\u2581przyjdzie": 8356, "onki": 8357, "\u2581od\u015bwie": 8358, "\u2581stworzony": 8359, "\u2581obj\u0119": 8360, "\u2581mleko": 8361, "\u2581punktem": 8362, "\u2581wykona": 8363, "\u2581kieru": 8364, "\u2581Zosta\u0142": 8365, "\u2581kas": 8366, "\u2581800": 8367, "\u2581czele": 8368, "\u2581wzmoc": 8369, "\u2581telefon\u00f3w": 8370, "wieniu": 8371, "#": 8372, "\u2581prowadzonej": 8373, "\u25811:": 8374, "\u2581konsekwencje": 8375, "ema": 8376, "\u2581wej\u015bcie": 8377, "all": 8378, "\u00f6": 8379, "\u2581sze\u015bciu": 8380, "\u2581otoczeniu": 8381, "\u2581SS": 8382, "\u2581sukie": 8383, "\u2581wyja": 8384, "ves": 8385, "kania": 8386, "wn\u0105": 8387, "\u2581prom": 8388, "\u2581swobodnie": 8389, "\u2581obfi": 8390, "\u2581dodatk\u00f3w": 8391, "\u2581szeroko\u015b\u0107": 8392, "ktor": 8393, "\u25817,": 8394, "\u2581szczeg\u00f3\u0142owo": 8395, "\u2581naturalnym": 8396, "\u2581u\u017cywanie": 8397, "\u2581profesor": 8398, "\u2581Ca\u0142o\u015b\u0107": 8399, "szonym": 8400, "\u017cach": 8401, "\u2581organizacje": 8402, "dan": 8403, "\u2581racj\u0119": 8404, "29": 8405, "\u258158": 8406, "\u2581Wcze\u015bniej": 8407, "\u2581ograniczenie": 8408, "\u2581Zg\u0142o": 8409, "dzon\u0105": 8410, "ga\u0142": 8411, "\u2581WW": 8412, "\u2581pr\u0105du": 8413, "\u2581li\u015bci": 8414, "xa": 8415, "\u2581up\u0142ywie": 8416, "\u2581przeznaczona": 8417, "wo\u015bci": 8418, "\u2581nowi": 8419, "\u2581zapas": 8420, "\u2581linie": 8421, "\u2581zu": 8422, "pel": 8423, "\u2581indek": 8424, "\u2581oczekiwa\u0144": 8425, "\u2581rodzin\u0105": 8426, "\u2581wag\u0119": 8427, "\u2581funduszy": 8428, "\u2581osobistego": 8429, "\u2581przedstawiciel": 8430, "ksu": 8431, "\u2581wzoru": 8432, "gii": 8433, "kuj\u0105c": 8434, "\u2581uz": 8435, "\u2581wymiary": 8436, "\u2581tamtej": 8437, "\u2581elekt": 8438, "\u2581Pia": 8439, "tle": 8440, "\u2581granicach": 8441, "atycznej": 8442, "\u2581rozpocz\u0119ciem": 8443, "\u2581ws": 8444, "list\u00f3w": 8445, "\u2581oka\u017ce": 8446, "bata": 8447, "\u2581sprawnie": 8448, "\u2581prawid\u0142owo\u015bci": 8449, "\u2581Stan": 8450, "\u2581Serdecznie": 8451, "daj\u0105c": 8452, "\u2581misji": 8453, "\u2581kontrol": 8454, "\u2581m\u0105": 8455, "UP": 8456, "\u2581wybi": 8457, "\u2581fizyczna": 8458, "\u2581trzym": 8459, "\u2581Dr": 8460, "czy\u0142o": 8461, "\u2581przyda": 8462, "\u2581Lecz": 8463, "\u2581domach": 8464, "\u2581doskona\u0142\u0105": 8465, "\u2581Mieszk": 8466, "dl": 8467, "\u2581pewnej": 8468, "\u2581r\u00f3\u017cnica": 8469, "\u2581najta\u0144": 8470, "!)": 8471, "\u2581przebiega": 8472, "\u2581chcia\u0142by": 8473, "\u2581w\u0142adz\u0119": 8474, "\u2581politycznej": 8475, "\u2581napraw": 8476, "\u2581nosi\u0107": 8477, "\u2581drogach": 8478, "\u2581dyplom": 8479, "\u2581Mia\u0142": 8480, "\u2581apli": 8481, "iny": 8482, "tonu": 8483, "\u2581utrudnia": 8484, "\u2581odda\u0107": 8485, "\u2581pou": 8486, "chro": 8487, "\u2581by\u0142aby": 8488, "jaj\u0105": 8489, "\u2581emo": 8490, "\u2581sposobie": 8491, "\u2581wyst\u0105pi\u0107": 8492, "wicy": 8493, "cial": 8494, "\u25812-3": 8495, "czyni": 8496, "74": 8497, "\u2581wojna": 8498, "\u2581kontakt\u00f3w": 8499, "\u2581tkaniny": 8500, "\u2581siedzibie": 8501, "\u2581detali": 8502, "\u2581XVI": 8503, "\u2581liczbie": 8504, "\u2581Zreszt\u0105": 8505, "\u2581powodowa\u0107": 8506, "\u2581klasie": 8507, "\u2581pomiar": 8508, "ruj\u0105": 8509, "\u2581przekszta\u0142": 8510, "\u2581zabawa": 8511, "\u017csze": 8512, "\u2581specy": 8513, "\u2581odszkodowania": 8514, "\u2581mil": 8515, "\u2581pokolenia": 8516, "\u2581mode": 8517, "canie": 8518, "\u2581zlecenia": 8519, "\u2581domowe": 8520, "\u2581VII": 8521, "\u2581minuty": 8522, "owniku": 8523, "\u2581bizne": 8524, "\u2581unik": 8525, "\u2581g\u0142osem": 8526, "\u2581psychologi": 8527, "\u2581niby": 8528, "ciera": 8529, "\u2581wymiana": 8530, "\u2581dzia\u0142alno\u015bci\u0105": 8531, "\u2581u\u0142atwi\u0107": 8532, "\u2581wzrasta": 8533, "\u2581m\u0142odego": 8534, "Czy": 8535, "\u2581rzeczywisto\u015b\u0107": 8536, "\u2581s\u00f3l": 8537, "\u2581Druga": 8538, "\u2581odbi": 8539, "\u2581tury": 8540, "\u2581\u017bycie": 8541, "\u258122.": 8542, "\u2581Przyj": 8543, "\u2581czci": 8544, "\u2581pami\u0119taj": 8545, "\u2581pobyt": 8546, "\u2581odpar\u0142": 8547, "\u2581dziedzi": 8548, "\u2581Sym": 8549, "aniom": 8550, "\u2581patrio": 8551, "mana": 8552, "owskich": 8553, "\u2581zespo": 8554, "\u2581istotnych": 8555, "\u25811939": 8556, "\u2581wype\u0142ni": 8557, "\u2581wino": 8558, "\u2581odst\u0105pi\u0107": 8559, "Pi": 8560, "\u2581Lista": 8561, "\u2581po\u0142": 8562, "lonej": 8563, "\u2581przyszed\u0142": 8564, "\u2581akcja": 8565, "\u2581inteligent": 8566, "\u2581armii": 8567, "\u2581kariery": 8568, "\u2581gimna": 8569, "\u2581wolnych": 8570, "\u2581dzien": 8571, "rabi": 8572, "szar": 8573, "kre": 8574, "\u2581polsk\u0105": 8575, "MS": 8576, "\u2581wy\u017cszej": 8577, "mowy": 8578, "\u2581cz\u0142onek": 8579, "\u2581zwr\u00f3ci\u0142": 8580, "\u2581elektryczne": 8581, "\u2581doj": 8582, "stuje": 8583, "\u2581pe\u0142nego": 8584, "\u2581przybli": 8585, "\u2581prakty": 8586, "\u2581zwyci\u0119": 8587, "\u2581farmaceu": 8588, ".....": 8589, "\u2581nieustannie": 8590, "\u2581elektrycznych": 8591, "\u2581w\u0142a\u015bciwym": 8592, "zuj\u0105c": 8593, "\u2581grubo\u015bci": 8594, "\u2581wykorzystaniu": 8595, "\u2581funkcjonuje": 8596, "\u2581As": 8597, "\u2581zapowiada": 8598, "tter": 8599, "\u2581zdarze\u0144": 8600, "\u2581Kontroli": 8601, "\u2581ko\u015bciele": 8602, "\u2581wzor\u00f3w": 8603, "dnio": 8604, "\u2581Stro": 8605, "\u2581przeznaczonych": 8606, "\u2581znam": 8607, "\u2581Spi": 8608, "kor": 8609, "\u2581elewa": 8610, "\u2581Ona": 8611, "\u2581pliku": 8612, "\u2581sztuka": 8613, "\u2581oparte": 8614, "\u2581bycia": 8615, "\u2581stawki": 8616, "\u2581obraz\u00f3w": 8617, "liza": 8618, "\u2581chemi": 8619, "\u2581Fil": 8620, "\u2581fas": 8621, "\u2581Wielka": 8622, "2018": 8623, "\u2581rodzinne": 8624, "li\u0142": 8625, "\u2581informacj\u0105": 8626, "\u2581\u017cony": 8627, "niec": 8628, "\u2581zatrudnia": 8629, "\u2581pil": 8630, "rz\u0105dzenie": 8631, "blem": 8632, "anow": 8633, "\u2581\u017cyczenia": 8634, "\u2581samolotu": 8635, "\u2581dotycz\u0105cej": 8636, "\u2581wor": 8637, "\u2581zapisane": 8638, "\u2581u\u017cycie": 8639, "\u2581przy\u0142\u0105": 8640, "\u2581rozk\u0142ad": 8641, "robi": 8642, "\u2581dziesi\u0119\u0107": 8643, "\u2581architektoni": 8644, "\u2581zamku": 8645, "czk\u00f3w": 8646, "\u2581Chrystus": 8647, "jnik": 8648, "\u2581niebo": 8649, "\u2581wy\u017cszych": 8650, "gaj\u0105": 8651, "\u2581Ojciec": 8652, "\u2581Kru": 8653, "\u258152": 8654, "liwo\u015bci\u0105": 8655, "\u2581Andro": 8656, "\u2581socze": 8657, "\u2581kola": 8658, "\u2581nauczyciela": 8659, "\u2581pedagogi": 8660, "mp": 8661, "\u2581kr": 8662, "\u2581Bru": 8663, "czaka": 8664, "\u2581dodaw": 8665, "\u2581granic": 8666, "dzi\u0142em": 8667, "\u2581problemami": 8668, "\u2581aktualizacji": 8669, "sta\u0142": 8670, "dent": 8671, "\u2581zawieraj\u0105ce": 8672, "\u2581zwi\u0105zki": 8673, "\u2581prze\u0142o": 8674, "\u2581obszarach": 8675, "\u2581przysz\u0142ych": 8676, "\u2581out": 8677, "\u2581zgod\u0105": 8678, "\u2581mate": 8679, "\u2581prez": 8680, "\u2581potrzebujemy": 8681, "\u2581zam\u00f3wie": 8682, "\u2581Mini": 8683, "\u2581udaje": 8684, "\u2581trwa\u0142": 8685, "\u2581uznania": 8686, "\u2581Domu": 8687, "\u2581kierowca": 8688, "\u2581Cre": 8689, "\u2581potrzeb\u0119": 8690, "\u2581oddzia\u0142u": 8691, "\u2581spory": 8692, "\u2581gre": 8693, "\u2581przej\u015bcie": 8694, "\u2581s\u0105d\u00f3w": 8695, "feren": 8696, "nowy": 8697, "\u2581Zarz\u0105": 8698, "\u2581roz\u0142o": 8699, "niesz": 8700, "UB": 8701, "\u2581czo\u0142": 8702, "\u2581Czer": 8703, "dno": 8704, "\u2581organizacj\u0119": 8705, "\u2581nale\u017cno\u015bci": 8706, "\u2581zakupie": 8707, "\u2581dzielnicy": 8708, "cle": 8709, "ryt": 8710, "\u2581wyobrazi\u0107": 8711, "\u2581kapita\u0142u": 8712, "\u2581najnowszych": 8713, "prowa": 8714, "\u2581Okazuje": 8715, "\u2581nawi\u0105z": 8716, "\u2581naczynia": 8717, "\u2581licz\u0105c": 8718, "\u2581ogranicze\u0144": 8719, "\u2581Pomocy": 8720, "czyk\u00f3w": 8721, "\u2581Zaba": 8722, "\u2581mo\u017cliwa": 8723, "\u2581dome": 8724, "\u2581fabry": 8725, "cono": 8726, "\u2581zintegr": 8727, "\u2581kalku": 8728, "\u2581wizyt\u00f3w": 8729, "\u2581rozmiar\u00f3w": 8730, "\u2581\u015bnie": 8731, "\u2581wymienia": 8732, "\u2581zach\u0119ca": 8733, "\u2581staw\u00f3w": 8734, "83": 8735, "\u2581szans": 8736, "\u25818,": 8737, "\u2581Ver": 8738, "\u2581niebezpieczne": 8739, "\u2581planie": 8740, "\u2581wskazanej": 8741, "\u2581\u017cadna": 8742, "obo": 8743, "\u2581Trans": 8744, "\u2581pion": 8745, "\u2581niepod": 8746, "\u017cnych": 8747, "\u2581ci\u015bnienia": 8748, "\u2581r\u00f3wnocze\u015bnie": 8749, "\u2581autorstwa": 8750, "\u2581zjawiska": 8751, "tku": 8752, "\u2581b\u0142\u0119": 8753, "\u2581dotacji": 8754, "\u2581Ameryki": 8755, "\u2581regul": 8756, "\u2581b\u0119d\u0105ce": 8757, "\u2581potencjalnych": 8758, "\u2581wr\u0119": 8759, "\u2581Zak": 8760, "\u2581trzeciej": 8761, "\u2581zamian": 8762, "\u2581oceni\u0107": 8763, "ture": 8764, "\u2581trudniej": 8765, "\u2581Miej": 8766, "\u2581wypada": 8767, "\u2581klini": 8768, "\u2581figu": 8769, "\u2581ludzkiego": 8770, "\u2581ogni": 8771, "\u2581podejmuje": 8772, "\u2581jakiejkolwiek": 8773, "\u2581podpis": 8774, "\u2581S\u0142owa": 8775, "\u2581encyklope": 8776, "\u2581niesie": 8777, "\u2581opozycji": 8778, "\u2581Tat": 8779, "\u2581sze": 8780, "\u2581sprawi\u0107": 8781, "prawdopodobniej": 8782, "\u2581wybra": 8783, "\u015bciu": 8784, "89": 8785, "zia": 8786, "ryj": 8787, "\u2581uwie": 8788, "\u2581przebywa": 8789, "\u2581Sama": 8790, "\u2581pa\u0144": 8791, "wscho": 8792, "\u2581doty": 8793, "\u2581ustaw\u0119": 8794, "\u2581nacisk": 8795, "logicznym": 8796, "\u2581siedziby": 8797, "\u2581pokazy": 8798, "\u2581wytrzyma\u0142": 8799, "jona": 8800, "jm": 8801, "chanie": 8802, "\u2581postanowie\u0144": 8803, "rama": 8804, "\u2581psychi": 8805, "\u2581spr\u0119\u017cy": 8806, "\u2581kina": 8807, "\u2581g\u0142o\u015bno": 8808, "\u2581Agencja": 8809, "letni\u0105": 8810, "\u2581obj\u0119te": 8811, "\u2581wyk\u0142ad": 8812, "kimi": 8813, "\u2581Przeczy": 8814, "\u2581Drugi": 8815, "\u2581Uwa\u017cam": 8816, "\u2581fazie": 8817, "\u2581Zapraszam": 8818, "\u2581o\u017cy": 8819, "\u2581com": 8820, "\u2581Skarbu": 8821, "\u2581z\u0119": 8822, "miesi\u0119": 8823, "\u2581po\u0142\u0105czone": 8824, "\u2581osobistych": 8825, "\u2581jedyne": 8826, "\u2581pojazd": 8827, "vent": 8828, "\u2581Zach": 8829, "\u2581Radio": 8830, "\u2581odrzu": 8831, "\u2581akcje": 8832, "gry": 8833, "\u2581zrezygnowa\u0107": 8834, "\u2581rozumie\u0107": 8835, "\u2581Proces": 8836, "\u2581Zakres": 8837, "ower": 8838, "rza\u0107": 8839, "kuj\u0105cych": 8840, "gia": 8841, "\u2581zaj\u0119ciach": 8842, "\u2581najcieka": 8843, "lij": 8844, "\u2581docel": 8845, "mi\u0119": 8846, "\u2581wzbu": 8847, "\u2581poradzi\u0107": 8848, "\u2581po\u0142owa": 8849, "\u2581uspraw": 8850, "zny": 8851, "\u2581Moc": 8852, "\u2581zak\u0142adu": 8853, "l\u0105t": 8854, "\u2581egzaminu": 8855, "\u2581p\u00f3\u0142nocy": 8856, "\u2581tw\u00f3rc\u00f3w": 8857, "\u2581odwiedzi\u0107": 8858, "\u2581wyzwanie": 8859, "\u2581powstaj\u0105": 8860, "\u2581post\u0119p": 8861, "cri": 8862, "\u2581Organi": 8863, "\u2581mniejszych": 8864, "77": 8865, "\u2581przypadek": 8866, "\u2581tematem": 8867, "\u2581wymu": 8868, "twarz": 8869, "\u2581\u015brednich": 8870, "\u2581produ": 8871, "\u2581p\u0142atni": 8872, "\u2581zim\u0105": 8873, "\u2581tr": 8874, "by\u015b": 8875, "\u2581kraje": 8876, "\u2581Dodatk": 8877, "kol": 8878, "\u2581nawo": 8879, "\u2581o\u015bwietlenia": 8880, "\u2581Brze": 8881, "\u2581zabudowy": 8882, "\u2581CZ": 8883, "\u2581wyspy": 8884, "sis": 8885, "\u2581silnie": 8886, "a\u0142oby": 8887, "\u2581wyda\u0142": 8888, "\u2581walka": 8889, "\u2581posiedzenia": 8890, "\u2581w\u0142a\u015bcicielom": 8891, "\u2581czuj\u0119": 8892, "\u2581licz": 8893, "km": 8894, "\u2581ter": 8895, "\u2581koncentra": 8896, "\u2581przywo": 8897, "\u2581Polsk\u0105": 8898, "\u2581utrzymuje": 8899, "dz\u0105cy": 8900, "ky": 8901, "t\u0142u": 8902, "rzami": 8903, "\u2581obrad": 8904, "\u2581koncepcji": 8905, "\u2581narzu": 8906, "\u2581standard": 8907, "\u2581specjalnego": 8908, "\u2581intui": 8909, "\u2581po\u0142ow\u0119": 8910, "\u2581Zastosowanie": 8911, "\u2581Wska": 8912, "\u2581fabu": 8913, "cym": 8914, "\u2581wyczu": 8915, "\u2581wykorzystywa\u0107": 8916, "\u2581finansowego": 8917, "\u2581Psych": 8918, "\u2581wskaza\u0107": 8919, "r\u00f3b": 8920, "\u2581zaburze\u0144": 8921, "sport": 8922, "\u2581Mazowie": 8923, "\u2581\u0141\u00f3d\u017a": 8924, "\u2581wykorzystywanie": 8925, "wi\u0142a": 8926, "tus": 8927, "\u2581latem": 8928, "\u2581znaczeniu": 8929, "\u2581lekarzem": 8930, "\u2581leg": 8931, "\u2581tereny": 8932, "\u2581pato": 8933, "\u2581przysz\u0142ym": 8934, "cyj": 8935, "\u2581kadencji": 8936, "\u2581zmar\u0142": 8937, "Jak": 8938, "mery": 8939, "\u2581umowie": 8940, "\u2581dole": 8941, "ralny": 8942, "kl": 8943, "\u2581wskaz": 8944, "zowa\u0107": 8945, "\u2581Wyj\u0105": 8946, "\u2581specjalny": 8947, "\u2581wyrok": 8948, "\u2581Redak": 8949, "\u2581testy": 8950, "\u2581podleg\u0142ych": 8951, "\u2581O\u015brodek": 8952, "\u2581dotyku": 8953, "\u2581wewn\u0119trznej": 8954, "\u2581konferen": 8955, "\u2581granic\u0119": 8956, "\u2581wyst\u0105pi": 8957, "mierz": 8958, "\u2581\u00f3w": 8959, "ther": 8960, "\u2581og\u00f3\u0142": 8961, "Ro": 8962, "\u2581dodat": 8963, "\u2581Doskona": 8964, "\u2581obecne": 8965, "\u2581podmiotu": 8966, "\u2581zacz\u0119li": 8967, "\u25811989": 8968, "\u2581fal": 8969, "\u2581stron\u0105": 8970, "\u2581Woj": 8971, "\u2581leas": 8972, "pione": 8973, "ca\u0142": 8974, "\u2581obcych": 8975, "\u2581wspania\u0142e": 8976, "kacja": 8977, "\u2581letni": 8978, "\u2581Sku": 8979, "n\u0119li": 8980, "\u2581mia": 8981, "\u2581unika\u0107": 8982, "\u2581doskona\u0142ym": 8983, "\u2581metal": 8984, "\u2581u\u017cywany": 8985, "\u2581Niemniej": 8986, "Wi": 8987, "\u2581efektem": 8988, "\u2581d\u0142ugotrwa\u0142": 8989, "cania": 8990, "erwer": 8991, "\u2581w\u0142a\u015bcicielem": 8992, "\u2581kultur": 8993, "\u2581dowodu": 8994, "\u2581przypomnie\u0107": 8995, "wit": 8996, "\u2581rozwi\u0105za\u0107": 8997, "ys": 8998, "\u2581zjawisko": 8999, "\u2581wn\u0119trzu": 9000, "sja": 9001, "\u2581kiedykolwiek": 9002, "\u2581pobiera": 9003, "\u2581Ponad": 9004, "\u2581wykony": 9005, "\u2581mog\u0142oby": 9006, "ory": 9007, "dka": 9008, "\u2581szczerze": 9009, "\u2581sprze": 9010, "\u2581nadmier": 9011, "\u2581weeken": 9012, "\u2581samemu": 9013, "\u2581plac": 9014, "\u2581spowodowane": 9015, "\u2581dat\u0119": 9016, "\u2581umie\u015bci\u0107": 9017, "\u00ed": 9018, "\u2581wspomnienia": 9019, "\u2581zorganiz": 9020, "\u2581st\u00f3\u0142": 9021, "72": 9022, "\u2581rzecz\u0105": 9023, "owemu": 9024, "polska": 9025, "nanie": 9026, "\u2581wzgl\u0119d\u00f3w": 9027, "\u2581pozostanie": 9028, "\u2581obserw": 9029, "\u2581Bre": 9030, "\u2581zw": 9031, "lko": 9032, "\u2581krok\u00f3w": 9033, "\u2581Nu": 9034, "\u2581poni\u017c": 9035, "\u2581Kolejne": 9036, "\u2581pomieszczeniu": 9037, "\u2581gospodarczych": 9038, "\u2581ogro": 9039, "\u2581Zmiana": 9040, "\u2581KON": 9041, "-7": 9042, "\u2581kopii": 9043, "\u2581Parku": 9044, "latora": 9045, "\u2581szklanki": 9046, "\u2581with": 9047, "37": 9048, "\u2581Bezpiecze\u0144stwa": 9049, "\u2581przepisu": 9050, "\u2581znajomo\u015bci": 9051, "\u2581g\u0142\u0119bi": 9052, "czymi": 9053, "\u2581partnera": 9054, "\u2581zabaw\u0119": 9055, "szk": 9056, "\u258154": 9057, "\u2581wyzwania": 9058, "ery": 9059, "\u2581maju": 9060, "\u2581sta\u0142ych": 9061, "lski": 9062, "niz": 9063, "g\u00f3r": 9064, "\u2581brat": 9065, "\u2581temperatur\u0119": 9066, "\u25811945": 9067, "\u0161": 9068, "\u2581zespo\u0142em": 9069, "\u2581przeciwnie": 9070, "anii": 9071, "\u2581zdrowy": 9072, "\u2581ofiary": 9073, "letnia": 9074, "\u2581edycja": 9075, "\u2581uszy": 9076, "\u2581zapomnie\u0107": 9077, "\u2581Us\u0142ug": 9078, "\u2581gorzej": 9079, "\u2581dostawcy": 9080, "\u2581twojej": 9081, "\u2581\u017c\u00f3\u0142": 9082, "ake": 9083, "logicznie": 9084, "niemy": 9085, "mentami": 9086, "\u2581niemieckiego": 9087, "\u2581roze": 9088, "\u2581podzia\u0142u": 9089, "\u2581archi": 9090, "bezpie": 9091, "\u2581integracji": 9092, "\u2581kszta\u0142tu": 9093, "tycznymi": 9094, "\u2581p\u0142uc": 9095, "\u2581gwiazdy": 9096, "\u2581Edukacji": 9097, "\u2581komenta": 9098, "\u2581TR": 9099, "\u2581temacie": 9100, "\u2581spotka": 9101, "\u2581Dodatkowe": 9102, "\u2581zaanga\u017cowanie": 9103, "\u2581Przyk\u0142ad": 9104, "\u2581kolorowe": 9105, "\u2581Zad": 9106, "\u2581rys": 9107, "\u2581uprzejmie": 9108, "\u2581udzielenia": 9109, "\u2581Drogi": 9110, "rowo": 9111, "\u2581samorz\u0105d": 9112, "\u2581stosunek": 9113, "\u2581istotny": 9114, "\u2581za\u0142o": 9115, "\u2581w\u00f3d": 9116, "czy\u0142em": 9117, "\u2581Por\u00f3w": 9118, "\u2581zainwest": 9119, "\u2581Skon": 9120, "\u2581Tadeusz": 9121, "\u2581plac\u00f3wek": 9122, "\u2581po\u0142udniu": 9123, "\u2581likwidacji": 9124, "\u2581kawa\u0142ek": 9125, "gowej": 9126, "\u25811991": 9127, "\u2581d\u017awi\u0119ku": 9128, "\u2581wym": 9129, "\u2581ludzkiej": 9130, "\u2581niedost\u0119p": 9131, "\u2581album": 9132, "\u2581bliskich": 9133, "\u2581publika": 9134, "wani": 9135, "tzw": 9136, "\u2581realizowa\u0107": 9137, "\u2581zostaj\u0105": 9138, "\u2581Staro": 9139, "\u2581si\u0142a": 9140, "\u2581oz": 9141, "cznik\u00f3w": 9142, "\u2581mor": 9143, "owiska": 9144, "\u2581powtarz": 9145, "i\u0142": 9146, "\u2581oddzia\u0142": 9147, "\u017cowe": 9148, "\u2581wi\u0119zienia": 9149, "\u2581Mak": 9150, "\u2581gie\u0142": 9151, "wiaj\u0105ce": 9152, "\u2581Przepisy": 9153, "\u2581ameryka\u0144skich": 9154, "\u2581przyzna\u0142": 9155, "owod": 9156, "cz\u0105ce": 9157, "\u2581zatrzyma\u0107": 9158, "\u2581Gene": 9159, "\u2581naukowe": 9160, "\u2581krajobraz": 9161, "\u2581wypoczynku": 9162, "\u2581znalezienie": 9163, "\u2581brzegu": 9164, "\u2581mapie": 9165, "\u2581wsta": 9166, "macja": 9167, "\u2581popularno\u015b\u0107": 9168, "logiczna": 9169, "\u2581przys\u0142uguj\u0105cych": 9170, "\u2581banki": 9171, "laty": 9172, "\u2581spe\u0142nienia": 9173, "\u2581kontro": 9174, "\u2581cent": 9175, "\u2581tradycyjne": 9176, "\u2581nikomu": 9177, "\u2581pi\u0119k": 9178, "\u2581\u015bwietny": 9179, "ctwie": 9180, "ye": 9181, "\u2581koron": 9182, "\u2581dor\u0119": 9183, "cha\u0107": 9184, "\u2581Za\u0142": 9185, "OJ": 9186, "\u2581ko\u0142": 9187, "\u0105t": 9188, "\u2581rucho": 9189, "\u2581przyja": 9190, "\u2581nawie": 9191, "\u2581przyjemno\u015bci\u0105": 9192, "\u2581rozmow\u0119": 9193, "lowa": 9194, "\u2581\u0141u": 9195, "terapeu": 9196, "\u2581ira": 9197, "asu": 9198, "\u2581efektu": 9199, "\u0435": 9200, "laz": 9201, "\u2581deter": 9202, "IZ": 9203, "\u2581po\u017c\u0105d": 9204, "\u2581pro\u015bb\u0105": 9205, "\u2581r\u00f3\u017cnym": 9206, "\u2581napo": 9207, "\u2581czytelnik\u00f3w": 9208, "\u2581lekcji": 9209, "\u2581startu": 9210, "czo\u015b\u0107": 9211, "\u2581Najwa\u017cniejsze": 9212, "\u2581dalszego": 9213, "\u2581wystarczaj\u0105co": 9214, "\u2581ewidencji": 9215, "zar": 9216, "\u2581pomys\u0142em": 9217, "\u2581toku": 9218, "\u2581Han": 9219, "\u2581wypoczy": 9220, "\u0142owi": 9221, "\u2581uraz": 9222, "\u2581Polskich": 9223, "zw": 9224, "\u2581obawy": 9225, "letnim": 9226, "Ja": 9227, "\u2581nast\u0105pi\u0107": 9228, "\u2581przekazu": 9229, "\u2581owa": 9230, "\u2581chwile": 9231, "logicznej": 9232, "\u2581Gmin": 9233, "\u2581wymienione": 9234, "b\u00f3w": 9235, "\u2581aby\u015bmy": 9236, "alno\u015b\u0107": 9237, "\u2581lekar": 9238, "\u2581cykl": 9239, "rena": 9240, "rob": 9241, "\u2581tw\u00f3rcy": 9242, "\u2581dem": 9243, "\u2581zbierania": 9244, "\u2581szerok\u0105": 9245, "\u2581Gospodarki": 9246, "\u2581pragnie": 9247, "dyka": 9248, "\u2581test\u00f3w": 9249, "\u2581modlitwy": 9250, "\u2581zabytk\u00f3w": 9251, "\u2581Temat": 9252, "\u2581sp\u0142aty": 9253, "\u2581wskutek": 9254, "\u2581wydaniu": 9255, "\u2581zatrzym": 9256, "\u2581r\u00f3\u017cni\u0105": 9257, "\u2581nud": 9258, "\u2581Ot": 9259, "\u2581Zazwyczaj": 9260, "-16": 9261, "\u2581\u015brodowisk": 9262, "\u2581Ca\u0142a": 9263, "\u2581\u015awi\u0119ta": 9264, "\u2581czar": 9265, "\u2581PKP": 9266, "\u2581oczywiste": 9267, "\u2581atmosfer\u0119": 9268, "\u2581poczu": 9269, "\u2581sto\u0142u": 9270, "\u2581Kali": 9271, "\u2581przypadki": 9272, "\u2581przest\u0119pstwa": 9273, "\u2581chorob\u0105": 9274, "Przy": 9275, "\u2581raportu": 9276, "kasz": 9277, "tnymi": 9278, "\u2581zespo\u0142\u00f3w": 9279, "\u2581hamul": 9280, "\u2581miastem": 9281, "\u2581kwi": 9282, "\u2581dania": 9283, "letniej": 9284, "ney": 9285, "\u2581baterii": 9286, "\u2581tzn": 9287, "\u2581analiz\u0119": 9288, "\u2581salonie": 9289, "\u2581zareje": 9290, "\u2581NIK": 9291, "\u2581k\u0105": 9292, "\u2581kluczowych": 9293, "luzy": 9294, "\u2581ma\u0142\u017ce\u0144stwa": 9295, "\u017cszy": 9296, "TER": 9297, "RU": 9298, "\u2581\u015awia": 9299, "mie\u0144": 9300, "\u2581eli": 9301, "\u2581intelektu": 9302, "\u2581imienia": 9303, "\u2581doce": 9304, "\u2581trzeci\u0105": 9305, "\u2581waha": 9306, "\u2581ludzkie": 9307, "\u017car": 9308, "\u2581bre": 9309, "\u2581go\u015bcie": 9310, "boli": 9311, "\u2581realizowanych": 9312, "\u2581ameryka\u0144ski": 9313, "\u0430": 9314, "\u2581elementami": 9315, "\u2581\u0142adnie": 9316, "\u2581powy\u017csze": 9317, "spon": 9318, "\u2581robimy": 9319, "\u2581Play": 9320, "\u2581wsp\u00f3lnoty": 9321, "UD": 9322, "\u2581pr\u0119dko\u015b\u0107": 9323, "\u2581drogowego": 9324, "\u2581pakiet": 9325, "\u2581gardero": 9326, "\u2581j\u0119zyk\u00f3w": 9327, "\u2581komu\u015b": 9328, "\u2581Formu": 9329, "\u2581chc\u0105c": 9330, "\u2581inwestor\u00f3w": 9331, "\u2581korek": 9332, "\u2581rachunk": 9333, "\u2581\u0141o": 9334, "\u2581dzia\u0142aniem": 9335, "\u2581rejonie": 9336, "\u2581von": 9337, "k\u0142ady": 9338, "\u2581salon": 9339, "\u2581Plik": 9340, "\u2581paliw": 9341, "\u2581okr\u0105": 9342, "\u2581odbiera": 9343, "2017": 9344, "\u2581idei": 9345, "\u2581Ostatnio": 9346, "\u2581Medy": 9347, "\u2581ut": 9348, "\u2581pi\u0142ki": 9349, "\u2581dogo": 9350, "\u2581rzecznik": 9351, "\u2581Pozosta\u0142e": 9352, "szczeniem": 9353, "stach": 9354, "\u2581tek": 9355, "\u2581byli\u015bmy": 9356, "\u2581warsza": 9357, "\u2581aktuali": 9358, "SKA": 9359, "\u2581sp\u0119dzi\u0107": 9360, "\u2581emocjona": 9361, "\u2581p\u00f3\u017ano": 9362, "\u2581sterowania": 9363, "\u2581wskazanych": 9364, "\u2581\u015arodowiska": 9365, "\u2581ch\u0119": 9366, "\u2581koncert": 9367, "\u2581nadziei": 9368, "\u2581\u015bwi": 9369, "tyfika": 9370, "turze": 9371, "\u2581otwo": 9372, "wskiej": 9373, "\u2581po\u017car": 9374, "\u2581bezp\u0142atne": 9375, "\u2581Katowice": 9376, "\u2581Wydzia\u0142u": 9377, "\u2581EUR": 9378, "zmem": 9379, "\u2581AK": 9380, "gal": 9381, "\u2581rokiem": 9382, "rin": 9383, "\u2581mo\u017cliwie": 9384, "\u2581wsp\u00f3\u0142czesnych": 9385, "asia": 9386, "\u2581przyczy": 9387, "\u2581skupi": 9388, "niejszej": 9389, "\u2581porad": 9390, "\u2581krymina": 9391, "\u2581otwar": 9392, "\u2581wiod": 9393, "\u2581twoim": 9394, "84": 9395, "\u2581jednostka": 9396, "\u2581wsp\u00f3lnej": 9397, "\u2581ogrzewania": 9398, "\u2581egzo": 9399, "\u2581wst\u0119p": 9400, "\u2581Azji": 9401, "88": 9402, "\u2581wydajno\u015bci": 9403, "\u2581serialu": 9404, "\u2581ognia": 9405, "\u2581jako\u015bci\u0105": 9406, "\u2581grudniu": 9407, "\u2581plik": 9408, "wala": 9409, "\u2581zwane": 9410, "\u2581posi\u0142k\u00f3w": 9411, "ree": 9412, "\u2581naruszenia": 9413, "letniego": 9414, "\u2581koch": 9415, "\u2581narodu": 9416, "\u2581pasy": 9417, "woj": 9418, "\u2581tez": 9419, "\u25810,5": 9420, "\u2581nos": 9421, "\u2581mi\u0119\u015bnie": 9422, "sten": 9423, "\u2581przer": 9424, "\u2581piosenki": 9425, "\u2581Eko": 9426, "\u2581Cz\u0142owiek": 9427, "\u2581aktywnie": 9428, "\u2581klimatu": 9429, "zdra": 9430, "\u2581aparat": 9431, "na\u0142": 9432, "\u2581pisma": 9433, "s\u0142ania": 9434, "tnik": 9435, "\u2581znakomi": 9436, "atego": 9437, "\u2581przypada": 9438, "\u2581bloku": 9439, "hen": 9440, "oli": 9441, "\u0142ym": 9442, "\u2581matematy": 9443, "\u2581AC": 9444, "\u2581metalu": 9445,
[...]
