{"<s>": 0, "<pad>": 1, "</s>": 2, "<unk>": 3, ",": 4, ".": 5, "\u2581w": 6, "\u2581i": 7, "\u2581si\u0119": 8, "\u2581na": 9, "\u2581z": 10, "\u2581": 11, "\u2581nie": 12, "\u2581do": 13, "\u2581-": 14, "\u2581\u017ce": 15, "\u2581to": 16, "\u2581o": 17, "\u2581jest": 18, "i": 19, "a": 20, "-": 21, "?": 22, "\u2581\u2013": 23, "\u2581(": 24, "e": 25, "\u2581W": 26, "\u2581a": 27, "o": 28, ":": 29, "z": 30, "\u2581\u2014": 31, "\u2581przez": 32, "\u2581od": 33, "n": 34, "\u2581*": 35, "s": 36, "\u2581za": 37, "\u2581jak": 38, "\u2581\"": 39, "\u2581po": 40, "\u2581tym": 41, "w": 42, "t": 43, "c": 44, "r": 45, "\u2581co": 46, "k": 47, "!": 48, "d": 49, "\u2581Nie": 50, "\"": 51, "y": 52, "\u2581tego": 53, ")": 54, "m": 55, "\u2581tak": 56, "\u2581ale": 57, "p": 58, "\u2581dla": 59, "\u2581r": 60, "\u2581s\u0105": 61, "\u2581\u201e": 62, "...": 63, "\u2581kt\u00f3re": 64, "u": 65, "j": 66, "\u2581jego": 67, "\u2581ju\u017c": 68, "\u2581czy": 69, "\u2581roku": 70, "\u2581A": 71, "\u2581jej": 72, "\u2581ma": 73, "\u2581tylko": 74, "\u2581oraz": 75, "l": 76, "\u2581ze": 77, "\u2581go": 78, "\u2581tej": 79, ";": 80, "\u2581by\u0142o": 81, "\u2581bardzo": 82, "\u2581I": 83, "\u2581przy": 84, "\u2581pod": 85, "\u2581by\u0142": 86, "b": 87, "\u2581ich": 88, "\u2581mo\u017ce": 89, "\u2581kt\u00f3ry": 90, "\u2581To": 91, "g": 92, "\u2581mi": 93, "\u2581b\u0119dzie": 94, "\u2581pan": 95, "\u2581ten": 96, "\u2581Z": 97, "ka": 98, "\u2581jeszcze": 99, "\u2581by\u0107": 100, "\u2581mnie": 101, "\u2581jako": 102, "\u2581Na": 103, "\u2581lub": 104, "na": 105, "\u2581Po": 106, "\u2581sobie": 107, "\u25811": 108, "\u2581mu": 109, "\u2581ustawy": 110, "li": 111, "\u2581te\u017c": 112, "\u2581by": 113, "\u2581tych": 114, "\u2581nad": 115, "\u2581Czy": 116, "\u2581jednak": 117, "\u2581bo": 118, "ki": 119, "\u2581te": 120, "\u2581tak\u017ce": 121, "h": 122, "\u2581przed": 123, "\u2581by\u0142a": 124, "nie": 125, "\u2581r\u00f3wnie\u017c": 126, "ny": 127, "mi": 128, "cie": 129, ").": 130, "ta": 131, "\u2581u": 132, "B": 133, "\u2581\u017ceby": 134, "ty": 135, "ne": 136, "\u2581tu": 137, "\u2581O": 138, "),": 139, "\u2581bez": 140, "\u2581aby": 141, "\u25812": 142, "\u2581art": 143, "\u2581wi\u0119c": 144, "ch": 145, "\u2581gdy": 146, "\u0142a": 147, "\u2581Ale": 148, "\u2581j\u0105": 149, "|": 150, "\u2581dnia": 151, "\u2581kiedy": 152, "\u2581kt\u00f3ra": 153, "sz": 154, "\u2581nawet": 155, "owi": 156, "ni": 157, "ce": 158, "\u2581lat": 159, "owe": 160, "\u2581zosta\u0142": 161, "\u2581nr": 162, "\u2581pana": 163, "\u2581m": 164, "le": 165, "\u2581mo\u017cna": 166, "\u25813": 167, "\u2581ja": 168, "la": 169, "\u2581U": 170, "\u2581pani": 171, "\u2581tam": 172, "\u2581spos\u00f3b": 173, "owych": 174, "\u2581kt\u00f3rych": 175, "\u2581Dzi\u0119kuj\u0119": 176, "\u2581je": 177, "\u2581by\u0142y": 178, "\u2581S": 179, "my": 180, "\u2581ni\u017c": 181, "\u2581pracy": 182, "ra": 183, "\u2581ta": 184, "\u2581Tak": 185, "\".": 186, "by": 187, "\u2581on": 188, "\u201d": 189, "\u2581gdzie": 190, "owy": 191, "'": 192, "in": 193, "\u2581nim": 194, "n\u0105": 195, "A": 196, "\u25814": 197, "\u2581pa\u0144stwa": 198, "da": 199, "\u2581Do": 200, "\",": 201, "\u25815": 202, "\u2581Co": 203, "\u2581Panie": 204, "\u2581teraz": 205, "owej": 206, "\u0142y": 207, "owa": 208, "\u2581nas": 209, "j\u0105": 210, "\u00f3w": 211, "\u0105": 212, "\u2581nich": 213, "dy": 214, "owego": 215, "\u2581sprawie": 216, "S": 217, "\u2581mia\u0142": 218, "f": 219, "\u2581Za": 220, "ski": 221, "\u0142o": 222, "ci": 223, "\u0107": 224, "\u2581co\u015b": 225, "em": 226, "\u2581we": 227, "2": 228, "ro": 229, "wa": 230, "\u2581wszystko": 231, "\u2581miejsce": 232, "\u25816": 233, "\u2581Od": 234, "owa\u0142": 235, "owa\u0107": 236, "\u2581je\u015bli": 237, "\u2581ci": 238, "te": 239, "ku": 240, "\u2581os\u00f3b": 241, "\u2581niego": 242, "\u2581s": 243, "\u2581K": 244, "\u2581innych": 245, "ca": 246, "\u2581i\u017c": 247, "\u2581wy": 248, "\u2581kt\u00f3rzy": 249, "\u0142": 250, "\u2581z\u0142": 251, "\u2581Komisji": 252, ".,": 253, "1": 254, "\u2581powiedzia\u0142": 255, "/": 256, "nych": 257, "\u2581kt\u00f3rym": 258, "ry": 259, "\u00f3": 260, "P": 261, "\u2581\u030b": 262, "\u2581wszystkich": 263, "\u258110": 264, "an": 265, "\u2581pose\u0142": 266, "\u2581latach": 267, "to": 268, "\u2581Jest": 269, "no": 270, "ko": 271, "\u2581kt\u00f3rej": 272, "\u25817": 273, "\u2581Prosz\u0119": 274, "\u2581nic": 275, "\u2581w\u0142a\u015bnie": 276, "\u2581im": 277, "3": 278, "\u2581E": 279, "\u2581prze": 280, "\u2581ust": 281, "anie": 282, "\u2581chwili": 283, "owania": 284, "\u2581chodzi": 285, "sa": 286, "\u2581ani": 287, "ma": 288, "\u2581raz": 289, "\u2581mi\u0119dzy": 290, "\u25818": 291, "\u2581t\u0119": 292, "\u2581B": 293, "\u2581P": 294, "[": 295, "D": 296, "\u2581Jak": 297, "\u2581lecz": 298, "\u2581siebie": 299, "nym": 300, "W": 301, "\u2581zwi\u0105zku": 302, "\u2581M": 303, "rze": 304, "tu": 305, "\u2581b\u0119d\u0105": 306, "M": 307, "re": 308, "cy": 309, "\u2581prosz\u0119": 310, "ur": 311, "\u015b": 312, "ga": 313, "\u2581Ja": 314, "owym": 315, "owanie": 316, "nej": 317, "ana": 318, "nego": 319, "\u2581takie": 320, "\u2581Wy": 321, "\u25810": 322, "je": 323, "ska": 324, "ow\u0105": 325, "\u2581zosta\u0142a": 326, "\u2581zakresie": 327, "\u2581de": 328, "\u2581C": 329, "\u2581albo": 330, "C": 331, "\u258115": 332, "\u2581wi\u0119cej": 333, "\u2581nam": 334, "Ba": 335, "\u2581niej": 336, "\u2581T": 337, "j\u0105c": 338, "\u2581bardziej": 339, "\u2581ludzi": 340, "\u25819": 341, "do": 342, "st": 343, "\u2581**": 344, "k\u0119": 345, "cz": 346, "\u258116": 347, "owane": 348, "owany": 349, "\u2581maj\u0105": 350, "\u2581wiele": 351, "\u2581D": 352, "\u258117": 353, "si": 354, "\u2581czasu": 355, "\u2581wszystkie": 356, "\u2581nale\u017cy": 357, "\u2581czym": 358, "czy": 359, "ane": 360, "\u2581G": 361, "K": 362, "4": 363, "\u2581Je\u015bli": 364, "\u258112": 365, "\u2581potem": 366, "ek": 367, "j\u0105cych": 368, "O": 369, "\u2581pytanie": 370, "\u2581Polsce": 371, "\u2581czasie": 372, "8": 373, "ia": 374, "\u2581kt\u00f3rego": 375, "T": 376, "ania": 377, "\u2581roz": 378, "\u2581sam": 379, "\u2581powiedzie\u0107": 380, "\u2581prawa": 381, "\u2581dobrze": 382, "nia": 383, "\u2581ona": 384, "ja": 385, "cja": 386, "go": 387, "j\u0105cy": 388, "\u2581czas": 389, "dzie": 390, "lo": 391, "wi": 392, "kiem": 393, "9": 394, "li\u015bmy": 395, "lu": 396, "\u2581ku": 397, "\u2581strony": 398, "skiego": 399, "k\u00f3w": 400, "j\u0105ce": 401, "\u2581No": 402, "\u258111": 403, "\u2581Pan": 404, "\u0119": 405, "\u0142am": 406, "ego": 407, "de": 408, "wy": 409, "\u2581dwa": 410, "7": 411, "\u2581mam": 412, "\u2581cz\u0119\u015bci": 413, "6": 414, "\u2581uwag\u0119": 415, "\u258114": 416, "\u2581zawsze": 417, "k\u0105": 418, "\u2581\u015brodk\u00f3w": 419, "\u2581wszystkim": 420, "\u2581Kto": 421, "\u2581panie": 422, "\u2581Polski": 423, "\u2581\u017cycia": 424, "\u2581F": 425, "\u2581tutaj": 426, "\u2581spraw": 427, "\u2581jeden": 428, "t\u00f3w": 429, "\u2581#": 430, "za": 431, "\u017c": 432, "\u2581trzeba": 433, "\u258118": 434, "\u2581kilka": 435, "\u2581ty": 436, "po": 437, "\u0142em": 438, "any": 439, "\u2581wtedy": 440, "\u2581R": 441, "\u258120": 442, "gi": 443, "\u2581Bo": 444, "ano": 445, "\u2581domu": 446, "\u2581podczas": 447, "\u2581mamy": 448, "5": 449, "\u2581zosta\u0142y": 450, "\u258113": 451, "\u2581mog\u0105": 452, "\u2581poniewa\u017c": 453, "\u0144": 454, "\u2581dzieci": 455, "\u2581m\u00f3g\u0142": 456, "\u2581II": 457, "\u2581je\u017celi": 458, "\u2581a\u017c": 459, "\u2581jakie": 460, "\u2581Przy": 461, "wa\u0142": 462, "\u2581\u017cycie": 463, "owa\u0142a": 464, "\u2581jakby": 465, "tem": 466, "\u2581dotycz\u0105ce": 467, "mu": 468, "\u2581p": 469, "\u2581sytuacji": 470, "\u2581celu": 471, ".)": 472, "\u2581kt\u00f3r\u0105": 473, "L": 474, "sta": 475, "\u2581minister": 476, "\u2581czyli": 477, "\u2581Je\u017celi": 478, "ar": 479, "\u2581stanie": 480, "szy": 481, "\u2581L": 482, "\u2581p\u00f3\u017aniej": 483, "G": 484, "\u201d.": 485, "\u2581J": 486, "\u2581wielu": 487, "ba": 488, "\u2581nigdy": 489, "N": 490, "\u2581ni\u0105": 491, "\u2581projektu": 492, "\u2581swoje": 493, "\u2581oczy": 494, "\u2581kraju": 495, "\u2581za\u015b": 496, "I": 497, "\u2581przypadku": 498, "owana": 499, "\u2581Ma": 500, "Z": 501, "\u2581Kiedy": 502, "cze": 503, "E": 504, "\u2581inne": 505, "R": 506, "\u2581dzia\u0142ania": 507, "\u2581pos\u0142a": 508, "\u2581ministra": 509, "skiej": 510, "\u2581mia\u0142a": 511, "v": 512, "bi": 513, "\u2581musi": 514, "sze": 515, "pi": 516, "\u2581temat": 517, "ie": 518, "\u2581wobec": 519, "\u2581dw\u00f3ch": 520, "a\u0142": 521, "\u2581kto\u015b": 522, "sza": 523, "du": 524, "en": 525, "er": 526, "mo": 527, "owo": 528, "owanych": 529, "\u258130": 530, "\u2581g\u0142os": 531, "\u2581taki": 532, "\u2581Prze": 533, "kami": 534, "\u2581ci\u0119": 535, "rzy": 536, "J": 537, "\u2581tys": 538, "cj\u0119": 539, "\u2581razem": 540, "on": 541, "\u2581k": 542, "\u2581stycznia": 543, "a\u0142y": 544, "\u00ad": 545, "\u2581jestem": 546, "\u2581wiem": 547, "\u2581wie": 548, "pa": 549, "\u2581pa\u0144stwo": 550, "\u2581H": 551, "sy": 552, "\u2581rzecz": 553, "\u2581wieku": 554, "U": 555, "\u2581dlatego": 556, "\u2581projekt": 557, "\u25811.": 558, "\u2581zmiany": 559, "\u2581natomiast": 560, "j\u0105cego": 561, "\u2581one": 562, "Bo": 563, "\u2581trzy": 564, "cza": 565, "czne": 566, "\u2581Ko": 567, "\u2581temu": 568, "\u2581ramach": 569, "skie": 570, "\u2581poza": 571, "\u2581pos\u0142\u00f3w": 572, "sk": 573, "x": 574, "\u2581sob\u0105": 575, "\u2581osoby": 576, "\u2581takich": 577, "wie": 578, "\u2581cz\u0119\u015b\u0107": 579, "\u2581Mo\u017ce": 580, "\u2581gdyby": 581, "\u2581dalej": 582, "owie": 583, "\u2581pierwszy": 584, "\u2581wrze\u015bnia": 585, "\u2581prawo": 586, "\u2581e": 587, "\u2581sprawy": 588, "\u2581kto": 589, "0": 590, "su": 591, "dzi": 592, "ow": 593, "\u2581Bardzo": 594, "\u2581uwagi": 595, "F": 596, "\u2581N": 597, "\u2581poprawki": 598, "rz": 599, "skich": 600, "\u2581.": 601, "\u2581przeciw": 602, "\u2581grudnia": 603, "sie": 604, "\u2581samo": 605, "\u2581rzeczy": 606, "cji": 607, "\u2581m\u00f3wi": 608, "\u2581Pani": 609, "\u2581przecie\u017c": 610, "\u2581innym": 611, "\u2581my": 612, "\u2581ko": 613, "\u2581prostu": 614, "cki": 615, "\u2581mo\u017cliwo\u015bci": 616, "\u2581marca": 617, "aniu": 618, "\u2581bowiem": 619, "\u2581Rady": 620, "is": 621, "\u2581jedynie": 622, "wa\u0142a": 623, "\u2581wszyscy": 624, "at": 625, "ej": 626, "\u2581d": 627, "\u2581t": 628, "\u2581podstawie": 629, "kach": 630, "ru": 631, "\u2581gdy\u017c": 632, "\u2581informacji": 633, "bo": 634, "\u2581ponad": 635, "or": 636, "\u2581V": 637, "skim": 638, "\u2581mie\u0107": 639, "\u015bci": 640, "gu": 641, "\u2581cz\u0119sto": 642, "j\u0105cym": 643, "\u2581chyba": 644, "no\u015b\u0107": 645, "\u25812.": 646, "\u2581tyle": 647, "ani": 648, "\u2581Ta": 649, "\u2581s\u0142owa": 650, "\u017ce": 651, "\u2581Le": 652, "\u258125": 653, "me": 654, "\u2581pa\u017adziernika": 655, "\u2581km": 656, "\u2581swoich": 657, "H": 658, "nik": 659, "czny": 660, "\u2581nieruchomo\u015bci": 661, "\u2581rok": 662, "\u2581pytania": 663, "\u2581miejscu": 664, "\u2581samym": 665, "owali": 666, "\")": 667, "\u2581pomocy": 668, "\u2581maja": 669, "\u2581Krakowie": 670, "wa\u0107": 671, "\u2581lipca": 672, "\u2581naprawd\u0119": 673, "j\u0119": 674, "\u2581cho\u0107": 675, "zy": 676, "\u2019": 677, "\u2581dni": 678, "\u2581prawie": 679, "\u2581drzwi": 680, "\u2581panu": 681, "\u2581czerwca": 682, "\u2581chwil\u0119": 683, "\u2581stanu": 684, "\u2581zgodnie": 685, "\u2581\u015bwiata": 686, "sty": 687, "\u2581ca\u0142y": 688, "\u2581Pod": 689, "\u2581Komisja": 690, "\u2581jednym": 691, "\u2581lata": 692, "j\u0105c\u0105": 693, "\u258122": 694, "\u2581dzisiaj": 695, "ri": 696, "\u2581ludzie": 697, "\u2581razie": 698, "\u2581zbyt": 699, "owano": 700, "\u2581wy\u017cej": 701, "\u2581no": 702, "\u2581jaki": 703, "\u2581czego": 704, "\u2581wniosek": 705, "\u2581rz\u0105d": 706, "rem": 707, "\u2581By\u0142": 708, "j\u0105ca": 709, "\u2581Mi": 710, "\u258124": 711, "\u2581re": 712, "\u2581takiego": 713, "\u2581my\u015bli": 714, "\u2581miasta": 715, "cznych": 716, "\u2581ko\u0144cu": 717, "\u2581b": 718, "\u2581swoj\u0105": 719, "\u2581Jego": 720, "\u2581of": 721, "\u2581Mam": 722, "\u2581troch\u0119": 723, "\u2581lutego": 724, "se": 725, "cha": 726, "\u2581byli": 727, "\u2581(\"": 728, "ak": 729, "\u201d,": 730, "co": 731, "cj\u0105": 732, "ge": 733, "\u2581Warszawa": 734, "\u2581sierpnia": 735, "\u2581kwietnia": 736, "V": 737, "\u2581g\u0142ow\u0105": 738, "j\u0105cej": 739, "\u2581in": 740, "nymi": 741, "\u2581przede": 742, "\u2581sprawa": 743, "\u2581jakie\u015b": 744, "\u2581Marsza\u0142ku": 745, "\u2581listopada": 746, "ym": 747, "\u2581drugiej": 748, "\u2581Re": 749, "\u2581zosta\u0142o": 750, "\u2581wraz": 751, "\u2581odpowiedzi": 752, "a\u0142em": 753, "anych": 754, "\u2581kilku": 755, "\u2581Gdy": 756, "\u2581Pa": 757, "\u2581Ro": 758, "we": 759, "cje": 760, "\u2581ile": 761, "wo": 762, "am": 763, "\u2581wcze\u015bniej": 764, "\u017cy": 765, "cia": 766, "\u2581oczywi\u015bcie": 767, "\u2581bud\u017cetu": 768, "\u2581dopiero": 769, "us": 770, "\u2581np": 771, "\u2581jaki\u015b": 772, "\u2581poz": 773, "\u2581mln": 774, "\u2581naj": 775, "\u258123": 776, "mie": 777, "\u2581cz\u0142owieka": 778, "\u258119": 779, "cznej": 780, "\u2581rz\u0105du": 781, "\u2581Krak\u00f3w": 782, "sko": 783, "\u2581takim": 784, "\u2581mog\u0119": 785, "\u2581g": 786, "\u2581rodzaju": 787, "\u2581zupe\u0142nie": 788, "\u2581swoim": 789, "\u2581ob": 790, "\u2581dzia\u0142alno\u015bci": 791, "(": 792, "px": 793, "\u2581jednego": 794, "\u2581Sejmu": 795, "\u2581pkt": 796, "\u2581szybko": 797, "\u2581oko\u0142o": 798, "ti": 799, "al": 800, "wali": 801, "\u2581komisji": 802, "\u2581wi": 803, "\u2581powodu": 804, "\u2581Mo": 805, "no\u015bci": 806, "ona": 807, "\u2581Li": 808, "ter": 809, "\u2581li": 810, "n\u0119": 811, "\u2581coraz": 812, "so": 813, "i\u0119": 814, "\u2581udzia\u0142": 815, "\u2581w\u015br\u00f3d": 816, "\u2581dwie": 817, "\u25812012": 818, "\u2581:": 819, "\u2581dzie\u0144": 820, "\u2581b\u0119dziemy": 821, "\u2581okresie": 822, "\u2581przyk\u0142ad": 823, "\u2581wysoko\u015bci": 824, "\u0144ski": 825, "\u2581porz\u0105dku": 826, "\u2581Teraz": 827, "\u258127": 828, "\u2581powiedzia\u0142a": 829, "\u2581Europejskiej": 830, "\u015bcie": 831, "\u2581jednej": 832, "\u2581Te": 833, "\u2581miejsca": 834, "\u258126": 835, "\u2581jedno": 836, "\u2581wzgl\u0119du": 837, "\u2581nimi": 838, "pe": 839, "\u2581n": 840, "\u2581zar\u00f3wno": 841, "\u2581ci\u0105gu": 842, "\u25813.": 843, "\u2581Sejm": 844, "\u2581ro": 845, "\u2581nikt": 846, "\u2581obecnie": 847, "\u2581spraw\u0119": 848, "\u2581Unii": 849, "os": 850, "\u2581g\u0142osu": 851, "\u2581zrobi\u0107": 852, "a\u0142o": 853, "\u2581realizacji": 854, "\u2581pocz\u0105tku": 855, "rza": 856, "\u2581\u015brodki": 857, "\u2581mniej": 858, "el": 859, "cka": 860, "\u2581przepis\u00f3w": 861, "\u2581dniu": 862, "\u2581ok": 863, "\u2581r\u00f3\u017cnych": 864, "\u258128": 865, "\u2581chce": 866, "ul": 867, "ckiego": 868, "\u2581mo\u017cliwo\u015b\u0107": 869, ">": 870, "\u2581Dlatego": 871, "\u2581systemu": 872, "\u2581c": 873, "czna": 874, "\u2581dzia\u0142a\u0144": 875, "ck": 876, "\u015b\u0107": 877, "\u2581cz\u0142owiek": 878, "\u2581stron\u0119": 879, "\u2581taka": 880, "\u2581Mar": 881, "\u2581zm": 882, "\u2581post\u0119powanie": 883, "cznego": 884, "tach": 885, "\u2581swojej": 886, "owaniu": 887, "\u2581w\u00f3wczas": 888, "\u2581De": 889, "ha": 890, "\u2581Ten": 891, "\u2581stanowisko": 892, "\u2581prowadzone": 893, "\u2581post\u0119powania": 894, "\u2581swego": 895, "\u2581ziemi": 896, "\u2581problem": 897, "cznym": 898, "\u2581Natomiast": 899, "\u2581pierwsze": 900, "\u258121": 901, "tami": 902, "stwa": 903, "\u2581m\u00f3wi\u0142": 904, "cu": 905, "\u2581dlaczego": 906, "od": 907, "\u2581takiej": 908, "\u2581Wysoka": 909, "\u2581ustawie": 910, "\u2581rozwoju": 911, "\u2581dotyczy": 912, "\u2581p\u00f3\u0142": 913, "\u25812010": 914, "t\u0105": 915, "\u2581Sa": 916, "\u2581do\u015b\u0107": 917, "\u2581prac": 918, "\u2581sw\u00f3j": 919, "\u2581przesz\u0142o\u015bci": 920, "man": 921, "\u2581b\u0119d\u0119": 922, "\u2581m\u00f3j": 923, "\u2581dzi\u015b": 924, "\u2581wojny": 925, "\u2581l": 926, "\u258129": 927, "as": 928, "\u2581najbardziej": 929, "\u2581sta\u0142o": 930, "ste": 931, "\u2581ustawa": 932, "\u2581jedn\u0105": 933, "\u2581ko\u0144ca": 934, "\u2581d\u0142ugo": 935, "\u2581r\u0119k\u0119": 936, "\u2581ka\u017cdy": 937, "\u2581ni": 938, "\u2581Oczywi\u015bcie": 939, "owa\u0142y": 940, "\u2581zatem": 941, "\u2581da": 942, "\u2581pewno": 943, "bu": 944, "\u2581Al": 945, "\u2581og\u00f3le": 946, "\u2581ka\u017cdym": 947, "\u2581f": 948, "owski": 949, "lne": 950, "\u2581mo": 951, "sk\u0105": 952, "\u2581kierunku": 953, "\u2581tak\u0105": 954, "\u2581grupy": 955, "\u2581zacz\u0105\u0142": 956, "bie": 957, "\u2581system": 958, "stwo": 959, "\u2581nagle": 960, "\u2581zmian": 961, "\u2581wed\u0142ug": 962, "pie": 963, "\u2581r\u0119ce": 964, "fi": 965, "om": 966, "lem": 967, "\u2581prokuratury": 968, "\u2581drogi": 969, "\u2581ka": 970, "\u2581moje": 971, "\u2581Jan": 972, "\u2581poprzez": 973, "\u2581mo\u017cemy": 974, "\u0144skiego": 975, "ych": 976, "\u2581rynku": 977, "\u2581chcia\u0142": 978, "\u2581twarz": 979, "\u2581Ra": 980, "aniem": 981, "th": 982, "\u2581pomi\u0119dzy": 983, "\u2581znowu": 984, "\u2581danych": 985, "owymi": 986, "wanie": 987, "\u2581Ba": 988, "\u2581ul": 989, "\u2581ca\u0142\u0105": 990, "\u2581obok": 991, "nem": 992, "\u2581znajduje": 993, "\u2581pro": 994, "c\u0105": 995, "\u2581prawda": 996, "\u25812008": 997, "\u2581powinien": 998, "\u2581mimo": 999, "\u25812009": 1000, "di": 1001, "wia": 1002, "\u2581\u015bmierci": 1003, "\u2581niekt\u00f3rych": 1004, "2,": 1005, "\u2581oni": 1006, "\u2581mieli": 1007, "cz\u0105": 1008, "\u2581Tu": 1009, "\u2581Dlaczego": 1010, "\u2581chc\u0119": 1011, "pu": 1012, "\u2581przewodnicz\u0105cy": 1013, "\u2581wynika": 1014, "cyjnych": 1015, "ton": 1016, "owanego": 1017, "\u2581La": 1018, "\u2581zostanie": 1019, "dzi\u0142": 1020, "\u2581Ka": 1021, "\u2581Przez": 1022, "\u2581g\u0142ow\u0119": 1023, "\u2581stosunku": 1024, "\u2581le": 1025, "\u2581kryteria": 1026, "\u2581naszej": 1027, "\u2581III": 1028, "1,": 1029, "%": 1030, "\u2581trzech": 1031, "\u2581ciebie": 1032, "\u2581pokoju": 1033, "\u2581Pa\u0144stwa": 1034, "\u2581rzek\u0142": 1035, "\u2581pa": 1036, "\u2581decyzji": 1037, "\u2581nast\u0119pnie": 1038, "\u0144skiej": 1039, "\u25812004": 1040, "\u2581mog\u0142a": 1041, "\u2581zw\u0142aszcza": 1042, "\u2581nowe": 1043, "\u00e9": 1044, "ary": 1045, "n\u0105\u0142": 1046, "\u2581wreszcie": 1047, "\u2581terenie": 1048, "\u2581by\u0142oby": 1049, "\u2581chcia\u0142bym": 1050, "py": 1051, "\u2581obu": 1052, "\u2581koniec": 1053, "\u2581wsi": 1054, "\u2581organizacyjnych": 1055, "czn\u0105": 1056, "\u2581poprzednim": 1057, "\u2581Pi": 1058, "\u2581Polskiej": 1059, "\u2581\u017cadnych": 1060, "\u2581typu": 1061, "\u2581zmianie": 1062, "\u2581wniosku": 1063, "\u2581ochrony": 1064, "\u2581nadal": 1065, "wa\u0142y": 1066, "\u2581stanowi": 1067, "\u2581dzi\u0119ki": 1068, "\u2581wydaje": 1069, "an\u0105": 1070, "\u2581t\u0105": 1071, "\u2581innymi": 1072, "\u2581Polska": 1073, "nu": 1074, "\u2581zwi\u0105zane": 1075, "\u2581stronie": 1076, "\u2581naszych": 1077, "\u2581innego": 1078, "\u2581pracownik\u00f3w": 1079, "\u2581lepiej": 1080, "\u25812013": 1081, "\u2581programu": 1082, "\u25812000": 1083, "\u2581sta\u0142": 1084, "\u2581aktualnie": 1085, "um": 1086, "\u2581znaczy": 1087, "\u2581Ministr\u00f3w": 1088, "\u2581ba": 1089, "bym": 1090, "\u2581ru": 1091, "\u2581punktu": 1092, "\u2581du\u017co": 1093, "\u2581Ze": 1094, "\u2581Ch": 1095, "\u2581w\u0105tpliwo\u015bci": 1096, "\u2581the": 1097, "\u2581bu": 1098, "\u2581dotycz\u0105cym": 1099, "\u2581przekazania": 1100, "tor": 1101, "\u2581polski": 1102, "\u25812007": 1103, "\u2581zdrowia": 1104, "\u2581drodze": 1105, "\u2581S\u0105": 1106, "\u2581jednostkach": 1107, "un": 1108, "io": 1109, "zm": 1110, ",5": 1111, "\u25812,": 1112, "\u2581Rzeczy": 1113, "\u2581kontroli": 1114, "wania": 1115, "\u2581moim": 1116, "\u2581Prokuratorowi": 1117, "\u2581sk\u0142ad": 1118, "ler": 1119, "\u2581Regionalnemu": 1120, "\u25812006": 1121, "ve": 1122, "\u2581stan": 1123, "\u2581twarzy": 1124, "\u2581Chcia\u0142bym": 1125, "pospolitej": 1126, "es": 1127, "\u2581zada\u0144": 1128, "\u2581tzw": 1129, "\u258131": 1130, "\u2581Ku": 1131, "\u2581naszego": 1132, "\u2581polskich": 1133, "et": 1134, "3,": 1135, "\u2581rodziny": 1136, "\u2581publicznych": 1137, "\u2581wskazane": 1138, "der": 1139, "owanej": 1140, "\u2581pewne": 1141, "\u25812011": 1142, "\u2581j": 1143, "sto": 1144, "\u2581musia\u0142": 1145, "\u2581rzeczywi\u015bcie": 1146, "\u2581g\u0142osowania": 1147, "\u2581nieco": 1148, "00": 1149, "anego": 1150, "cznie": 1151, "\u2581Roz": 1152, "\u2581wci\u0105\u017c": 1153, "\u2581Lu": 1154, "\u2581zn\u00f3w": 1155, "\u2581ra": 1156, "\u2581Ar": 1157, "\u2581gminy": 1158, "lny": 1159, "\u2581\u015bwiecie": 1160, "\u2581pierwszej": 1161, "\u2581/": 1162, "\u2581szczeg\u00f3lnie": 1163, "\u2581Ministerstwo": 1164, "\u2581Spraw": 1165, "\u2581Ju\u017c": 1166, "im": 1167, "\u2581la": 1168, "\u2581(19": 1169, "dzi\u0107": 1170, "\u2581praw": 1171, "\u2581usta": 1172, "\u2581Sz": 1173, "be": 1174, "lnych": 1175, "\u2581nowych": 1176, "\u2581nasze": 1177, "\u25812001": 1178, "dem": 1179, "\u2581podleg\u0142ych": 1180, "\u2581kwestii": 1181, "\u2581ca\u0142ej": 1182, "il": 1183, "c\u0119": 1184, "t\u0119": 1185, "czka": 1186, "ing": 1187, "\u2581natychmiast": 1188, "rami": 1189, "\u2581drugi": 1190, "d\u0119": 1191, "\u2581prawid\u0142owo\u015bci": 1192, "\u2581pierwszym": 1193, "\u2581Wi": 1194, "\u2581Izbo": 1195, "\u2581Me": 1196, "anej": 1197, "\u2581wyniku": 1198, "\u2581organizacji": 1199, "ckiej": 1200, "\u2581polskiego": 1201, "\u2581podmiotom": 1202, "cho": 1203, "\u2581szko\u0142y": 1204, "\u2581Ty": 1205, "\u2581brak": 1206, "\u2581odpowiedzia": 1207, "\u2581pomoc": 1208, "19": 1209, "\u2581100": 1210, "\u2581samego": 1211, "\u25812005": 1212, "5,": 1213, "\u2581Europy": 1214, "^": 1215, "\u2581mia\u0142y": 1216, "\u2581St": 1217, "\u2581wody": 1218, "\u2581znacznie": 1219, "Y": 1220, "\u2581m\u00f3wi\u0107": 1221, "\u2581Potem": 1222, "\u2581razy": 1223, "\u2581My\u015bl\u0119": 1224, "owaniem": 1225, "\u0142u": 1226, "\u2581\u0142a": 1227, "6,": 1228, "\u2581Ha": 1229, "2.": 1230, "\u2581g\u0142owy": 1231, "\u2581nadziej\u0119": 1232, "\u2581wy\u0142\u0105cznie": 1233, "owa\u0142o": 1234, "\u2581b\u0105d\u017a": 1235, "\u2013": 1236, "\u2581przygotowawcze": 1237, "\u2581podatku": 1238, "\u2581'": 1239, "\u2581Jednak": 1240, "\u2581chocia\u017c": 1241, "c\u00f3w": 1242, "\u25814.": 1243, "20": 1244, "8,": 1245, "\u2581przeciwko": 1246, "\u2581wskazanej": 1247, "ad": 1248, "\u2581sali": 1249, "\u2581jednostki": 1250, "anym": 1251, "\u2581zapytaniu": 1252, "\u2581my\u015bl": 1253, "son": 1254, "\u2581w\u0142a\u015bcicielom": 1255, "\u2581jeste\u015bmy": 1256, "\u2581Go": 1257, "\u2581polityki": 1258, "\u2581jedna": 1259, "nika": 1260, "\u2581mieszka\u0144c\u00f3w": 1261, "\u2581pi": 1262, "ze": 1263, "4,": 1264, "\u2581Je": 1265, "\u2581Sta": 1266, "lin": 1267, "7,": 1268, "ii": 1269, "vi": 1270, "\u2581Gmin\u0119": 1271, "\u2581Miejsk\u0105": 1272, "\u2581jakim": 1273, "10": 1274, "\u2581zadania": 1275, "\u2581zapyta\u0142": 1276, "\u2581raczej": 1277, "czenie": 1278, "\u2581cz\u0142onk\u00f3w": 1279, "\u25812017": 1280, "1.": 1281, "\u25812003": 1282, "ni\u0119": 1283, "\u2581jednocze\u015bnie": 1284, "\u2581We": 1285, "\u2581My": 1286, "\u25812002": 1287, "\u2581dzia\u0142alno\u015b\u0107": 1288, "aty": 1289, "\u2581sto": 1290, "fa": 1291, "\u2581naszym": 1292, "\u2581sama": 1293, "rach": 1294, "\u2581Ministerstwa": 1295, "owanym": 1296, "lno\u015bci": 1297, "\u2581dyskusji": 1298, "\u25812014": 1299, "\u2581warto\u015bci": 1300, "\u2581Pro": 1301, "\u2581wiedzia\u0142": 1302, "cyjne": 1303, "\u2581nocy": 1304, "\u2581zasady": 1305, "\u2581mojej": 1306, "kom": 1307, "\u2581Plik": 1308, "\u2581prac\u0119": 1309, "dni": 1310, "\u2581Ru": 1311, "\u2581+": 1312, "ach": 1313, "-19": 1314, "\u2581Bu": 1315, "\u2581przepisy": 1316, "\u2581gospodarki": 1317, "\u2581swojego": 1318, "\u2581ma\u0142o": 1319, "\u2581imieniu": 1320, "\u2581\u015a": 1321, "By": 1322, "ang": 1323, "\u2581Jeszcze": 1324, "9,": 1325, "\u2581trakcie": 1326, "\u2581\u015bwiat": 1327, "\u2581jak\u0105": 1328, "\u2581Tylko": 1329, "\u2581mn\u0105": 1330, "zie": 1331, "\u017ca": 1332, "\u2581On": 1333, "kie": 1334, "\u2581przynajmniej": 1335, "\u2581odpar\u0142": 1336, "ly": 1337, "\u2581liczby": 1338, "\u2581cel": 1339, "\u2581Warszawie": 1340, "\u2581umowy": 1341, "\u2581Bar": 1342, "\u2581Se": 1343, "\u2581s\u0142u\u017cby": 1344, "\u2581jeste\u015b": 1345, "\u2581RP": 1346, "sem": 1347, "\u2581powinna": 1348, "\u2581\u015bw": 1349, "\u2581;": 1350, "\u0144ska": 1351, "\u2581spe\u0142nia\u0142oby": 1352, "\u2581pieni\u0105dze": 1353, "\u2581In": 1354, "\u2581inaczej": 1355, "lnego": 1356, "\u2581posiedzeniu": 1357, "\u2581uprzejmie": 1358, "\u2581Minister": 1359, "\u2581poszczeg\u00f3lnych": 1360, "\u2581g\u0142\u00f3wnie": 1361, "\u2581mia\u0142o": 1362, "\u2581odpowied\u017a": 1363, "\u2581Kategoria": 1364, "\u2581okres": 1365, "\u2581produkcji": 1366, "\u2581mogli": 1367, "\u2581niemal": 1368, "\u2581The": 1369, "\u2581opinii": 1370, "\u2581polskiej": 1371, "\u2581\u017cyciu": 1372, "=": 1373, "n\u0119\u0142a": 1374, "\u2581dok\u0142adnie": 1375, "\u25812016": 1376, "czki": 1377, "\u2581was": 1378, "\u2581m\u00f3wi\u0105c": 1379, "\u0144skim": 1380, "\u2581Ga": 1381, "\u2581So": 1382, "n\u0105\u0107": 1383, "cyjnego": 1384, "\u258140": 1385, "\u2581momencie": 1386, "ho": 1387, "dz": 1388, "\u2581zna": 1389, "jemy": 1390, "sku": 1391, "\u2581ch": 1392, "\u2581mo\u017cliwe": 1393, "\u2581dotycz\u0105cych": 1394, "\u2581wyra\u017anie": 1395, "\u2581Wed\u0142ug": 1396, "tek": 1397, "\u2581Nr": 1398, "\u2581pewien": 1399, "chy": 1400, "ju": 1401, "\u258150": 1402, "\u2581program": 1403, "owa\u0142em": 1404, "czy\u0142": 1405, "\u2581ruchu": 1406, "niem": 1407, "\u2581rozwi\u0105zania": 1408, "\u2581wo": 1409, "\u2581oznacza": 1410, "\u2581cia\u0142a": 1411, "\u2581By\u0142a": 1412, "czek": 1413, "ner": 1414, "\u2581spo\u0142ecznej": 1415, "uje": 1416, "r\u0119": 1417, "12": 1418, "\u2581postaci": 1419, "Dz": 1420, "wszy": 1421, "\u2581Dla": 1422, "\u2581wok\u00f3\u0142": 1423, "\u2581Jestem": 1424, "niu": 1425, "\u25812015": 1426, "\u2581Prawo": 1427, "\u2581opieki": 1428, "cyjnej": 1429, "ob": 1430, "\u2581zanim": 1431, "l\u0119": 1432, "\u2581fakt": 1433, "lan": 1434, "\u2581informacje": 1435, "\u2581wcale": 1436, "d\u0105": 1437, "\u2581zaraz": 1438, "\u2581Pana": 1439, "w\u0105": 1440, "\u2581wzgl\u0119dem": 1441, "\u2581Ni": 1442, "\u2581r\u00f3\u017cne": 1443, "one": 1444, "ckim": 1445, "\u2581przedsi\u0119bior": 1446, "Oklaski": 1447, "\u2581inny": 1448, "\u2581zosta\u0107": 1449, "\u2581zdaniem": 1450, "\u2581bar": 1451, "\u25811999": 1452, "\u2581bezpiecze\u0144stwa": 1453, "d\u00f3w": 1454, "\u2581ponownie": 1455, "\u2581Pe": 1456, "va": 1457, "ali": 1458, "\u2581Ponadto": 1459, "\u2581Senatu": 1460, "\u2581kar": 1461, "\u2581drugie": 1462, "r\u00f3w": 1463, "\u2581stanowiska": 1464, "\u2581posiada": 1465, "\u2581istnieje": 1466, "hi": 1467, "czy\u0107": 1468, "ckie": 1469, "\u2581ustaw": 1470, "ji": 1471, "\u2581tytu\u0142u": 1472, "\u2581tysi\u0119cy": 1473, "\u2581charakter": 1474, "sz\u0105": 1475, "\u2581po\u015ble": 1476, "\u2581si": 1477, "ciu": 1478, "\u2581swej": 1479, "\u2581Wie": 1480, "\u2581zwi\u0105zanych": 1481, "\u0142e\u015b": 1482, "\u2581,": 1483, "\u2581Da": 1484, "\u2581administracji": 1485, "\u2581Sam": 1486, "\u2581uda\u0142o": 1487, "0,": 1488, "\u2581h": 1489, "\u2581razu": 1490, "owan\u0105": 1491, "\u2581sie": 1492, "\u2581Be": 1493, "\u2581\u015brodowiska": 1494, "\u2581pe\u0142ni": 1495, "2)": 1496, "\u2581powinno": 1497, "\u017a": 1498, "ke": 1499, "\u2581kobiety": 1500, "\u2581masz": 1501, "\u2581poziomie": 1502, "den": 1503, "zi": 1504, "\u2581Lo": 1505, "\u2581ojciec": 1506, "ni\u0142": 1507, "\u2581historii": 1508, "rek": 1509, "\u2581sytuacja": 1510, "\u2581wra\u017cenie": 1511, "\u2581prace": 1512, "lna": 1513, "art": 1514, "\u2581jednostek": 1515, "\u2581\u015bwiadcze\u0144": 1516, "\u2581niczym": 1517, "\u2581zreszt\u0105": 1518, "ier": 1519, "\u2581koszt\u00f3w": 1520, "\u2581administra": 1521, "\u2581widz\u0119": 1522, "owskiego": 1523, "\u2581Stwierdzam": 1524, "\u2581cztery": 1525, "3.": 1526, "\u2581Pose\u0142": 1527, "\u2581[": 1528, "\u2581dziecko": 1529, "\u2581He": 1530, "\u0142e": 1531, "\u2581w\u0142a\u015bciwie": 1532, "\u2581us\u0142ug": 1533, "\u2581widzenia": 1534, "\u2581mowa": 1535, "\u2581ca\u0142e": 1536, "\u2581Su": 1537, "\u2581moja": 1538, "\u2581niech": 1539, "\u2581znale\u017a\u0107": 1540, "\u2581nowego": 1541, "\u2581Nic": 1542, "czony": 1543, "\u2581Zgodnie": 1544, "\u2581pie": 1545, "\u2581wojew\u00f3dztwa": 1546, "1)": 1547, "ber": 1548, "\u2581Si": 1549, "\u2581du": 1550, "\u2581si\u0142y": 1551, "\u2581powinny": 1552, "\u2581ha": 1553, "ni\u0105": 1554, "\u2581su": 1555, "15": 1556, "ckich": 1557, "\u2581sz": 1558, "\u2581Ob": 1559, "\u2581miasto": 1560, "\u2581Ministra": 1561, "\u2581Szanowny": 1562, "czych": 1563, "\u2581Niech": 1564, "\u2581Gdyby": 1565, "\u2581miesi\u0119cy": 1566, "\u2581kiedy\u015b": 1567, "\u2581trudno": 1568, "\u2581\u017cadnego": 1569, "\u2581powie": 1570, "ster": 1571, "\u2581ojca": 1572, "\u2581An": 1573, "\u2581wi\u0119kszo\u015b\u0107": 1574, "\u2581samej": 1575, "\u2581\u2022": 1576, "\u2581...": 1577, "\u2581Nawet": 1578, "nienie": 1579, "\u2581szk\u00f3\u0142": 1580, "les": 1581, "\u258135": 1582, "lnej": 1583, "\u2581zwr\u00f3ci\u0107": 1584, "kowi": 1585, "\u2581projekcie": 1586, "\u2581g\u00f3ry": 1587, "\u2581obraz": 1588, "nienia": 1589, "\u2581mocy": 1590, "\u2581par": 1591, "\u2581Chodzi": 1592, "\u201319": 1593, "\u25815.": 1594, "\u2581ca\u0142ego": 1595, "he": 1596, "\u2581potrzeby": 1597, "\u2581stopniu": 1598, "\u2581?": 1599, "\u2581dom": 1600, "\u2581and": 1601, "\u2581Kar": 1602, "czone": 1603, "\u2014": 1604, "\u2581pani\u0105": 1605, "\u2581rozporz\u0105dzenia": 1606, "sia": 1607, "\u0105c": 1608, "dzenie": 1609, "nek": 1610, "ent": 1611, "\u2581proces": 1612, "ren": 1613, "\u2581dzieje": 1614, "\u2581w\u0142adzy": 1615, "\u2581linii": 1616, "\u2581wymaga": 1617, "lnym": 1618, "ir": 1619, "\u2581Polskiego": 1620, "\u2581X": 1621, "\u2581sprawach": 1622, "\u2581plan": 1623, "\u2581liczba": 1624, "\u2581pieni\u0119dzy": 1625, "\u2581Jej": 1626, "\u2581Skarbu": 1627, "\u2581Tam": 1628, "dach": 1629, "9)": 1630, "czy\u0142a": 1631, "ony": 1632, "\u2581Y": 1633, "\u2581przyj\u0119cie": 1634, "\u2581Przyst\u0119pujemy": 1635, "ron": 1636, "18": 1637, "dzenia": 1638, "zu": 1639, "\u2581musz\u0105": 1640, "tki": 1641, "lenie": 1642, "\u017cenie": 1643, "\u2581Dobrze": 1644, "]": 1645, "tom": 1646, "\u2581samorz\u0105du": 1647, "6)": 1648, "\u2581Du": 1649, "\u2581Wa": 1650, "ley": 1651, "czenia": 1652, "\u2581wiadomo": 1653, "\u2581Finans\u00f3w": 1654, "\u2581ka\u017cdego": 1655, "\u258134": 1656, "\u2581kolei": 1657, "\u2581ca\u0142ym": 1658, "\u2581Chc\u0119": 1659, "\u2581kultury": 1660, "\u2581SA": 1661, "\u2581dziecka": 1662, "\u2581najmniej": 1663, "\u2581czasem": 1664, "\u2581tymi": 1665, "\u2581Ministrze": 1666, "\u2581minut": 1667, "\u2581Przecie\u017c": 1668, "13": 1669, "\u2581pewno\u015bci\u0105": 1670, "\u2581drog\u0119": 1671, "\u2581Francji": 1672, "\u2581pierwszego": 1673, "4.": 1674, "ok": 1675, "\u2581\u00a7": 1676, "\u00e1": 1677, "\u258133": 1678, "\u2581Ne": 1679, "\u2581wolno": 1680, "dza": 1681, "cyjny": 1682, "cyjnym": 1683, "niej": 1684, "tych": 1685, "dzi\u0142a": 1686, "e\u015b": 1687, "\u25811998": 1688, "\u2581pozycji": 1689, "\u2581gra": 1690, "amy": 1691, "\u2581wsp\u00f3\u0142pracy": 1692, "\u2581ca\u0142kowicie": 1693, "czej": 1694, "tne": 1695, "\u2581Ot\u00f3\u017c": 1696, "\u2581daleko": 1697, "tym": 1698, "czego": 1699, "ud": 1700, "\u2581rol\u0119": 1701, "\u2581s\u0142\u00f3w": 1702, "\u2581kobiet": 1703, "\u2581lo": 1704, "ver": 1705, "che": 1706, "aka": 1707, "\u2581inwestycji": 1708, "rz\u0119": 1709, "7)": 1710, "res": 1711, "\u2581ostatnich": 1712, "@": 1713, "len": 1714, "\u2581senator": 1715, "ut": 1716, "\u2581Trzeba": 1717, "\u2581warunk\u00f3w": 1718, "14": 1719, "\u2581rozumiem": 1720, "16": 1721, "tra": 1722, "\u0144skich": 1723, "\u2581Funduszu": 1724, "\u2581nasz": 1725, "\u25813,": 1726, "8)": 1727, "\u2581Ca": 1728, "\u2581znaczenie": 1729, "and": 1730, "\u2581\u017cy": 1731, "\u2581instytucji": 1732, "\u2581kon": 1733, "\u2581sp\u00f3\u0142ki": 1734, "\u2581dzia\u0142a": 1735, "5.": 1736, "nicy": 1737, "\u2581musimy": 1738, "lno\u015b\u0107": 1739, "\u2581ww": 1740, "sen": 1741, "no\u015bci\u0105": 1742, "\u2581Nale\u017cy": 1743, "\u2581wydatk\u00f3w": 1744, "cami": 1745, "\u2581br": 1746, "ant": 1747, "\u258145": 1748, "\u2581swych": 1749, "\u2581par\u0119": 1750, "\u2581st\u0105d": 1751, "dze": 1752, "\u2581pory": 1753, "\u2581kwestia": 1754, "\u2581gmin": 1755, "ata": 1756, "\u25811,": 1757, "\u2581powierzchni": 1758, "\u2581Zdrowia": 1759, "\u2581wzrost": 1760, "*": 1761, "\u2581powiecie": 1762, "\u2581szy": 1763, "The": 1764, "\u2581wiedzie\u0107": 1765, "\u25811997": 1766, "\u2581mocno": 1767, "\u2581spojrza\u0142": 1768, "\u2581robi\u0107": 1769, "\u2581koszty": 1770, "\u0142\u0105": 1771, "\u2581drugim": 1772, "nik\u00f3w": 1773, "\u2581pi\u0119\u0107": 1774, "min": 1775, "czu": 1776, "\u017cenia": 1777, "\u2581spyta\u0142": 1778, "\u2581wida\u0107": 1779, "jpg": 1780, "\u2581sta": 1781, "\u2581Poniewa\u017c": 1782, "\u2581dwu": 1783, "\u2581p\u0142a": 1784, "\u2581musz\u0119": 1785, "5)": 1786, "wany": 1787, "\u2581me": 1788, "\u2581posiedzenia": 1789, "it": 1790, "\u2581Wo": 1791, "\u2581Ry": 1792, "\u0105ce": 1793, "l\u0105": 1794, "\u2581sta\u0142a": 1795, "\u2581znalaz\u0142": 1796, "\u2581sp": 1797, "\u2581dane": 1798, "\u2581si\u0142": 1799, "\u2581drugiego": 1800, "\u2581Wszystko": 1801, "\u2581cen": 1802, "\u2581zasad": 1803, "\u2581posiedzenie": 1804, "ni\u0107": 1805, "st\u00f3w": 1806, "3)": 1807, "\u2581mojego": 1808, "\u2581warunki": 1809, "\u2581~": 1810, "gen": 1811, "\u2581Przed": 1812, "\u2581skoro": 1813, "\u2581wstrzyma\u0142": 1814, "8.": 1815, "cjach": 1816, "\u2581cia\u0142o": 1817, "\u2581publicznej": 1818, "6.": 1819, "_": 1820, "\u2581nast\u0119puj\u0105ce": 1821, "zacji": 1822, "wane": 1823, "\u2581Jana": 1824, "4)": 1825, "\u2581ry": 1826, "fe": 1827, "\u2581poprawk\u0119": 1828, "\u2581czynno\u015bci": 1829, "\u2581braku": 1830, "ci\u0107": 1831, "\u2581dy": 1832, "j\u0105cymi": 1833, "\u2581prowadzi": 1834, "\u0105cy": 1835, "X": 1836, "\u2581ka\u017cdej": 1837, "\u2581ono": 1838, "\u2581wp\u0142yw": 1839, "~": 1840, "17": 1841, "lenia": 1842, "\u015bci\u0105": 1843, "\u2581pomoc\u0105": 1844, "wa\u0142o": 1845, "lar": 1846, "per": 1847, "\u0161": 1848, "\u2581metr\u00f3w": 1849, "\u258136": 1850, "\u2581sa": 1851, "\u2581bada\u0144": 1852, "Be": 1853, "\u2581pu": 1854, "\u2581formie": 1855, "\u2581wa\u017cne": 1856, "\u2581wynosi": 1857, "\u2581Car": 1858, "\u2581gdzie\u015b": 1859, "\u2581wi\u0119kszo\u015bci": 1860, "\u2581\u017co\u0142nierzy": 1861, "s\u00f3w": 1862, "\u2581walki": 1863, "ciem": 1864, "\u2581dobre": 1865, "\u2581akcji": 1866, "\u2581Ho": 1867, "\u2581du\u017ce": 1868, "\u2581prawnych": 1869, "9.": 1870, "d\u017a": 1871, "\u2581wie\u015b": 1872, "\u2581finansowych": 1873, "\u2581podobnie": 1874, "\u2581syn": 1875, "czym": 1876, "\u2581nami": 1877, "\u2581pa\u0144stw": 1878, "lnie": 1879, "\u2581\u017cadnej": 1880, "\u2581zwykle": 1881, "ten": 1882, "\u2581robi": 1883, "\u2581Wi\u0119c": 1884, "\u2581potrzeb": 1885, "\u2581Wszyscy": 1886, "war": 1887, "\u2581(18": 1888, "\u2581m\u0119\u017cczyzn": 1889, "\u2581zacz\u0119\u0142a": 1890, "\u2581niczego": 1891, "\u2581Jakie": 1892, "\u2581przyj\u0119ciem": 1893, "nach": 1894, "\u2581ustaw\u0105": 1895, "\u2581nowy": 1896, "\u2581poprawek": 1897, "\u2581kr\u00f3la": 1898, "st\u0105": 1899, "ya": 1900, "\u2581zakresu": 1901, "r\u0105": 1902, "\u2581wygl\u0105da": 1903, "\u2581Narodowej": 1904, "\u2581El": 1905, "nami": 1906, "\u2581bi": 1907, "ff": 1908, "Nie": 1909, "\u2581mie": 1910, "25": 1911, "\u2581Mo\u017cna": 1912, "lony": 1913, "rom": 1914, "\u2581wa": 1915, "\u25812018": 1916, "\u2581gmina": 1917, "gra": 1918, "\u2581daje": 1919, "7.": 1920, "\u2581Bez": 1921, "tego": 1922, "\u00f3r": 1923, "\u2581sy": 1924, "\u2581zespo\u0142u": 1925, "ez": 1926, "\u2581Pracy": 1927, "\u2581przedmiotem": 1928, "\u2581lu": 1929, "rzu": 1930, "\u2581Mamy": 1931, "\u2581powoli": 1932, "\u2581Obecnie": 1933, "\u2581powa\u017caniem": 1934, "\u2581ludno\u015bci": 1935, "ina": 1936, "\u25811990": 1937, "\u2581Gu": 1938, "\u2581zapis": 1939, "\u2581klasy": 1940, "\u2581nowo": 1941, "dz\u0105": 1942, "niony": 1943, "\u2581my\u015bl\u0119": 1944, "\u2581systemie": 1945, "\u258138": 1946, "anu": 1947, "\u2581Wydaje": 1948, "\u2581wam": 1949, "\u2581Nigdy": 1950, "\u2581odpowiedzia\u0142": 1951, "cza\u0142": 1952, "\u2581finans\u00f3w": 1953, "\u2581kobieta": 1954, "\u2581energii": 1955, "\u2581g\u00f3r\u0119": 1956, "\u2581moich": 1957, "\u2581niepe\u0142nospraw": 1958, "\u2581\u015bmier\u0107": 1959, "ono": 1960, "\u2581moj\u0105": 1961, "dnie": 1962, "stu": 1963, "nione": 1964, "\u258132": 1965, "11": 1966, "\u2581budowy": 1967, "\u2581pan\u00f3w": 1968, "\u2581Boga": 1969, "lon": 1970, "30": 1971, "\u2581sieci": 1972, "\u2581sytuacj\u0119": 1973, "\u2581decyzj\u0119": 1974, "\u2581al": 1975, "\u2581By\u0142o": 1976, "\u2581godziny": 1977, "\u2581Mimo": 1978, "\u2581wielkie": 1979, "\u2581widzia\u0142": 1980, "\u2581wojew\u00f3dztwie": 1981, "lone": 1982, "\u2581zabra\u0107": 1983, "\u2581rozwi\u0105zanie": 1984, "\u2581x": 1985, "ln\u0105": 1986, "\u2581mia\u0142em": 1987, "szcz": 1988, "\u2581Andrzej": 1989, "\u017cy\u0107": 1990, "stra": 1991, "\u2581Jako": 1992, "\u0105cych": 1993, "\u2581Piotr": 1994, "ine": 1995, "\u2581Nad": 1996, "\u2581Tym": 1997, "\u2581otrzyma\u0142": 1998, "\u2581Rozumiem": 1999, "\u017cy\u0142": 2000, "\u2581by\u0142em": 2001, "cach": 2002, "\u2581Ki": 2003, "\u0142\u00f3w": 2004, "prze": 2005, "\u2581Sch": 2006, "\u2581nowej": 2007, "\u2581Wtedy": 2008, "\u2581dzi\u0119kuj\u0119": 2009, "\u2581Ri": 2010, "\u2581kwoty": 2011, "\u2581obywateli": 2012, "\u2581obowi\u0105zek": 2013, "\u2581noc": 2014, "\u2581badania": 2015, "\u2581najpierw": 2016, "\u2581Podczas": 2017, "\u2581imi\u0119": 2018, "iu": 2019, "\u2581rady": 2020, ".:": 2021, "\u2581mog\u0142y": 2022, "owiec": 2023, "\u2581000": 2024, "dz\u0119": 2025, "\u2581Ju": 2026, "ard": 2027, "wu": 2028, "\u2581Mu": 2029, "\u2581tj": 2030, "\u2581Chyba": 2031, "Po": 2032, "\u2581nogi": 2033, "\u2581spo": 2034, "\u2581wypadku": 2035, "\u2581Pu": 2036, "\u2581bezpo\u015brednio": 2037, "\u2581zmiana": 2038, "\u2581czego\u015b": 2039, "\u2581Nikt": 2040, "\u2581Ci": 2041, "\u2581warunkach": 2042, "\u2581ca\u0142o\u015bci": 2043, "\u2581broni": 2044, "\u2581Or": 2045, "zo": 2046, "40": 2047, "\u2581Ber": 2048, "\u2581oto": 2049, "\u2581sami": 2050, "szu": 2051, "chu": 2052, "\u258137": 2053, "\u2581spo\u0142ecznych": 2054, "\u2581nauki": 2055, "\u2581ga": 2056, "\u2581ode": 2057, "\u2581War": 2058, "\u2581oczach": 2059, "\u2581wypowiedzi": 2060, "dami": 2061, "\u25816.": 2062, "\u2581cz": 2063, "lat": 2064, "\u2581=": 2065, "\u2581m\u00f3wi\u0119": 2066, "\u2581pyta\u0144": 2067, "\u2581wniosk\u00f3w": 2068, "kowe": 2069, "\u2581so": 2070, "tni": 2071, "\u2581rozw\u00f3j": 2072, "\u2581Zapytanie": 2073, "\u2581rze": 2074, "\u2581m\u00f3g\u0142by": 2075, "\u2581bym": 2076, "\u2581funkcjonowania": 2077, "rzy\u0142": 2078, "\u2581ce": 2079, "\u2581se": 2080, "\u2581tytu\u0142": 2081, "\u2581zostan\u0105": 2082, "\u2581osoba": 2083, "chi": 2084, "\u2581op": 2085, "gar": 2086, "owali\u015bmy": 2087, "cem": 2088, "\u2581okazji": 2089, "ran": 2090, "\u2581IV": 2091, "wi\u0142": 2092, "\u2581wiesz": 2093, "\u2581godzin": 2094, "\u2581Sejmie": 2095, "\u2581woli": 2096, "\u2581uda": 2097, "\u2581terytorialnego": 2098, "\u2581krwi": 2099, "\u2581Sto": 2100, "\u2581powiedzia\u0142em": 2101, "\u2581problemy": 2102, "kowa": 2103, "\u2581dobry": 2104, "\u2581projekt\u00f3w": 2105, "50": 2106, "n\u00f3w": 2107, "kowy": 2108, "\u2581gry": 2109, "\u2581szczeg\u00f3lno\u015bci": 2110, "\u2581San": 2111, "lach": 2112, "cyjna": 2113, "\u2581B\u00f3g": 2114, "\u2581w\u0142asne": 2115, "\u017cony": 2116, "\u2581sko": 2117, "\u2581\u015bwiatowej": 2118, "\u2581mie\u015bcie": 2119, "\u2581celem": 2120, "\u2581tra": 2121, "\u2581pewnym": 2122, "\u2581przysz\u0142o\u015bci": 2123, "\u0144skie": 2124, "tar": 2125, "\u2581matka": 2126, "\u2581Wiem": 2127, "\u2581informuj\u0119": 2128, "tr": 2129, "\u258160": 2130, "\u2581d\u00f3\u0142": 2131, "\u2581John": 2132, "\u2581ruch": 2133, "\u2581powrotem": 2134, "\u2581ustaw\u0119": 2135, "tro": 2136, "\u2581g\u0142osem": 2137, "mia": 2138, "\u2581prezesa": 2139, "\u2581Stanis\u0142aw": 2140, "\u2581niez": 2141, "\u2581s\u0142ysz\u0119": 2142, "ol": 2143, "60": 2144, "\u2581przepis": 2145, "\u2581firmy": 2146, "0.": 2147, "70": 2148, "\u2581jaka": 2149, "tnie": 2150, "\u2581s\u0142owo": 2151, "\u2581wnioski": 2152, "owo\u015bci": 2153, "\u2581r\u00f3wnie": 2154, "gie": 2155, "ich": 2156, "\u2581inni": 2157, "\u2581powiem": 2158, "\u2581Wil": 2159, "\u2581blisko": 2160, "\u2581g\u0142os\u00f3w": 2161, "\u2581miejsc": 2162, "com": 2163, "\u2581dobra": 2164, "................": 2165, "\u2581tre\u015bci": 2166, "\u2581dzie": 2167, "\u2581zamiast": 2168, "jo": 2169, "\u2581stron": 2170, "tyczne": 2171, "\u2581USA": 2172, "\u2581poziom": 2173, "\u2581Poza": 2174, "\u2581ministrze": 2175, "\u2581miejscowo\u015b\u0107": 2176, "\u0141": 2177, "\u2581pewnie": 2178, "jem": 2179, "tora": 2180, "\u2581sk\u0105d": 2181, "\u2581gminie": 2182, "%.": 2183, "\u2581zawiera": 2184, "\u2581kra": 2185, "\u25811996": 2186, "\u2581pas": 2187, "\u2581ca\u0142a": 2188, "\u2581znak": 2189, "\u2581klubu": 2190, "\u2581mld": 2191, "w\u0119": 2192, "\u2581an": 2193, "niejsze": 2194, "\u2581woj": 2195, "pro": 2196, "\u2581propozycji": 2197, "\u25810,": 2198, "\u258146": 2199, "\u2581pe": 2200, "\u2581da\u0107": 2201, "\u2581charakterze": 2202, "\u2581Fa": 2203, "\u2581swe": 2204, "\u2581cicho": 2205, "wano": 2206, "\u2581punkt": 2207, "\u2581ca\u0142kiem": 2208, "80": 2209, "\u2581problem\u00f3w": 2210, "\u2581\u0142": 2211, "\u2581Marsza\u0142ek": 2212, "\u2581dr": 2213, "\u2581polega": 2214, "ss": 2215, "tka": 2216, "\u2581r\u0119k\u0105": 2217, "owani": 2218, "\u2581realizacj\u0119": 2219, "45": 2220, "\u2581wiemy": 2221, "ng": 2222, "\u2581zasadzie": 2223, "\u2581przedstawicieli": 2224, "\u2581pomy\u015bla\u0142": 2225, "\u2581ci\u0105gle": 2226, "\u2581Rz\u0105d": 2227, "\u2581zrobi\u0142": 2228, "ks": 2229, "\u2581podkre\u015bli\u0107": 2230, "\u2581wielki": 2231, "men": 2232, "\u0139": 2233, "\u2581oceny": 2234, "\u2581wzrok": 2235, "\u2581Di": 2236, "\u2581spo\u0142ecze\u0144stwa": 2237, "\u2581w\u0142asnych": 2238, "ment": 2239, "\u2581wiedzy": 2240, "\u2581niedo": 2241, "owicz": 2242, ":0": 2243, "\u2581mog\u0142o": 2244, "\u2581poprawka": 2245, "\u2581Sie": 2246, "\u2581lekko": 2247, "\u2581Jednocze\u015bnie": 2248, "\u2581Bo\u017ce": 2249, "\u25811994": 2250, "\u2581ulicy": 2251, "czo": 2252, "\u2581obszarze": 2253, "\u2581Narodowego": 2254, "wa\u0142em": 2255, "\u2581planu": 2256, "\u2581Kon": 2257, "\u2581Gra": 2258, "\u2581zesp\u00f3\u0142": 2259, "\u2581sk": 2260, "\u2581polskie": 2261, "\u2581odpowiada": 2262, "\u2581mniejszo\u015bci": 2263, "\u2581cie": 2264, "\u2581pa\u0144stwu": 2265, "\u2581pole": 2266, "\u2581proponuje": 2267, "\u2581kt\u00f3rymi": 2268, "\u2581XX": 2269, "\u2581same": 2270, "\u2581kolejne": 2271, "czyli": 2272, "\u2581da\u0142": 2273, "\u2581sw\u0105": 2274, "\u2581kr\u00f3l": 2275, "ien": 2276, "%,": 2277, "szym": 2278, "23": 2279, "\u2581Rozwoju": 2280, "cjami": 2281, "\u2581wprost": 2282, "\u2581zamie": 2283, "\u2581zapyta\u0107": 2284, "\u258148": 2285, "dzone": 2286, "\u2581stwierdzi\u0142": 2287, "\u2581200": 2288, "\u2581uchwa\u0142y": 2289, "\u2581kogo\u015b": 2290, "90": 2291, "\u2581serca": 2292, "\u2581m\u0119\u017cczyzna": 2293, "\u2581Wszystkie": 2294, "\u2581ziemi\u0119": 2295, "\u2581Nast\u0119pnie": 2296, "\u2581\u017caden": 2297, "\u2581poli": 2298, "\u2581Mia\u0142": 2299, "\u2581\u015bwiadczenia": 2300, "\u2581rozwi\u0105za\u0144": 2301, "\u2581Fi": 2302, "\u2581podkomisji": 2303, "\u2581dotychczas": 2304, "wal": 2305, "cz\u0119": 2306, "scy": 2307, "m\u00f3w": 2308, "\u2581drug\u0105": 2309, "rzenie": 2310, "lek": 2311, "wym": 2312, "szych": 2313, "let": 2314, "zna": 2315, "ci\u0142": 2316, "kar": 2317, "\u2581wolno\u015bci": 2318, "\u2581zauwa\u017cy\u0142": 2319, "tk": 2320, "towych": 2321, "\u2581mar": 2322, "\u2581sta\u0107": 2323, "\u2581czterech": 2324, "ost": 2325, "\u2581czynienia": 2326, "\u2581innej": 2327, "emu": 2328, "ral": 2329, "24": 2330, "\u2581znajduj\u0105": 2331, "niki": 2332, "\u2581ki": 2333, "n\u0105\u0142em": 2334, "au": 2335, "\u2581gospodarczej": 2336, "\u2581por": 2337, "\u2581jak\u0105\u015b": 2338, "\u2581Bie": 2339, "\u2581fi": 2340, "\u2581chcia\u0142a": 2341, "\u2581Lecz": 2342, "\u017c\u0105": 2343, "rz\u0105": 2344, "\u2581prowadzenia": 2345, "\u2581kraj\u00f3w": 2346, "\u2581y": 2347, "\u2581problemu": 2348, "\u2581zatrudnienia": 2349, "\u2581Bi": 2350, "\u2581wydatki": 2351, "\u2581g\u0142owie": 2352, "\u2581tu\u017c": 2353, "\u2581Historia": 2354, "\u2581zapewne": 2355, "\u2581pow": 2356, "tna": 2357, "\u2581rozpatrzenia": 2358, "kow": 2359, "czyk": 2360, "ami": 2361, "alne": 2362, "\u2581okresu": 2363, "\u2581szcz\u0119\u015bcie": 2364, "ger": 2365, "\u2581obie": 2366, "\u258139": 2367, "\u2581Zjednoczonych": 2368, "\u2581pol": 2369, "\u2581po\u0142owie": 2370, "\u2581ostatni": 2371, "\u2581kwot\u0119": 2372, "\u2581spokojnie": 2373, "\u2581odniesieniu": 2374, "\u2581idzie": 2375, "czk\u0119": 2376, "\u017cu": 2377, "\u017cone": 2378, "\u2581racj\u0119": 2379, "\u2581\u017by": 2380, "\u2581pewnego": 2381, "\u2581w\u0142osy": 2382, "dia": 2383, "\u25811991": 2384, "rzenia": 2385, "czona": 2386, "\u2581poj\u0119cia": 2387, "\u2581Jo": 2388, "\u2581194": 2389, "giem": 2390, "\u258147": 2391, "\u2581r\u0119ki": 2392, "\u2581jakiego\u015b": 2393, "\u2581w\u0142asnej": 2394, "for": 2395, "\u25817.": 2396, "\u2581okre\u015bla": 2397, "\u2581grup": 2398, "\u2581wprowadzenie": 2399, "\u2581oczu": 2400, "\u2581przewiduje": 2401, "\u2581rozmowy": 2402, "\u2581Ge": 2403, "\u2581prawdopodobnie": 2404, "\u2581list": 2405, "\u2581zmian\u0119": 2406, "AN": 2407, "dzili": 2408, "\u00e4": 2409, "\u2581Vi": 2410, "\u2581Ce": 2411, "\u25811995": 2412, "\u2581ko\u0142o": 2413, "\u2581okre\u015blone": 2414, "owni": 2415, "rod": 2416, "\u2581obrad": 2417, "cyjn\u0105": 2418, "kowych": 2419, "sh": 2420, "\u2581procesu": 2421, "\u2581czu": 2422, "\u2581itd": 2423, "\u2581czas\u00f3w": 2424, "\u2581195": 2425, "par": 2426, "+": 2427, "\u2581wielk\u0105": 2428, "g\u0119": 2429, "\u2581sprawozdania": 2430, "\u2581p\u0119": 2431, "\u2581termin": 2432, "\u2581dyrektor": 2433, "\u2581grupa": 2434, "ram": 2435, "stwie": 2436, "\u2581powinni\u015bmy": 2437, "ans": 2438, "cznymi": 2439, "\u2581czym\u015b": 2440, "tycznych": 2441, "\u2581sprzeda\u017cy": 2442, "\u2581ostatnie": 2443, "\u2581zdrowotnej": 2444, "\u017cy\u0142a": 2445, "\u2581wzrostu": 2446, "\u2581podmiot\u00f3w": 2447, "tny": 2448, "\u2581ne": 2449, "Bu": 2450, "\u2581kur": 2451, "\u2581pewnych": 2452, "\u2581cy": 2453, "\u2581pierwszych": 2454, "\u2581niekt\u00f3re": 2455, "szej": 2456, "\u2581polskim": 2457, "\u2581Mor": 2458, "\u2581Ad": 2459, "\u2581pobli\u017cu": 2460, "gan": 2461, "\u2581Gdzie": 2462, "tej": 2463, "\u2581widok": 2464, "ni\u0142a": 2465, "\u2581Hu": 2466, "lni": 2467, "szego": 2468, "\u2581um\u00f3w": 2469, "zapytanie": 2470, "\u2581stary": 2471, "\u2581udzia\u0142u": 2472, "\u2581Wal": 2473, "\u2581Adam": 2474, "\u2581pozwala": 2475, "\u2581196": 2476, "land": 2477, "\u2581zaczyna": 2478, "\u2581finansowe": 2479, "\u2581J\u00f3zef": 2480, "\u2581Pie": 2481, "<": 2482, "ate": 2483, "\u2581Niestety": 2484, "mar": 2485, "\u2581197": 2486, "\u2581finansowania": 2487, "ph": 2488, "wana": 2489, "an\u00f3w": 2490, "\u2581\u015b": 2491, "\u2581zobaczy\u0107": 2492, "\u2581niestety": 2493, "\u258143": 2494, "\u2581przyj\u0119cia": 2495, "\u2581\u0142atwo": 2496, "waniu": 2497, "\u2581Har": 2498, "\u2581cho\u0107by": 2499, "\u00ed": 2500, "\u2581bud\u017cetowej": 2501, "\u2581warto": 2502, "\u2581syna": 2503, "\u2581narodowej": 2504, "\u2581okre\u015blonych": 2505, "\u2581pos\u0142owie": 2506, "\u2581Sprawiedliwo\u015bci": 2507, "\u2581Czas": 2508, "ple": 2509, "\u2581Izby": 2510, "\u2581wszelkie": 2511, "\u2581Wysoki": 2512, "\u2581(2": 2513, ".\"": 2514, "\u2581wielo": 2515, "g\u0105": 2516, "\u2581\u017ale": 2517, "n\u0119\u0142y": 2518, "\u2581zadanie": 2519, "\u2581obowi\u0105zku": 2520, "\u2581stanowi\u0105": 2521, "\u2581Cy": 2522, "styczne": 2523, "\u2581Polak\u00f3w": 2524, "\u2581chcesz": 2525, "\u2581swym": 2526, "\u2581ster": 2527, "\u2581uwag": 2528, "\u2581j\u0119zyka": 2529, "\u2581sprawiedliwo\u015bci": 2530, "bia": 2531, "\u2581miejscowo\u015bci": 2532, "lina": 2533, "\u2581prezes": 2534, "\u2581przyj\u0105\u0107": 2535, "\u2581sta\u0142y": 2536, "\u25811993": 2537, "\u2581stopnia": 2538, "owska": 2539, "\u0142oby": 2540, "\u2581\u017b": 2541, "\u2581prezydenta": 2542, "\u2581dr\u00f3g": 2543, "przy": 2544, "\u2581wyst\u0119puje": 2545, "\u2581pi\u015bmie": 2546, "\u2581przyj\u0105\u0142": 2547, "\u2581serce": 2548, "rzem": 2549, "\u2581krajach": 2550, "\u2581wkr\u00f3tce": 2551, "\u2581rolnictwa": 2552, "\u2581v": 2553, "\u2581szeroko": 2554, "\u2581Con": 2555, "\u2581Tego": 2556, "anymi": 2557, "\u2581LINEAR": 2558, "\u2581szereg": 2559, "kowski": 2560, "\u2581przedstawi\u0107": 2561, "\u2581niezwykle": 2562, "\u2581kr\u00f3tko": 2563, "\u2581rzeczywisto\u015bci": 2564, "\u2581\u015awiata": 2565, "\u2581wz": 2566, "kowej": 2567, "\u2581stoi": 2568, "\u2581pre": 2569, "\u2581Maria": 2570, "dzony": 2571, "\u2581Europie": 2572, "\u2581informacj\u0119": 2573, "\u2581b\u0119dziesz": 2574, "SP": 2575, "\u25811992": 2576, "\u2581przewodnicz\u0105c": 2577, "\u2581chwil\u0105": 2578, "\u258180": 2579, "\u2581gro": 2580, "tel": 2581, "\u2581Naj": 2582, "\u2581Gar": 2583, ".).": 2584, "jcie": 2585, "\u2581d\u0142o\u0144": 2586, "\u2581mo\u017cesz": 2587, "\u2581piersi": 2588, "35": 2589, "\u2581wyraz": 2590, "tt": 2591, "tuje": 2592, "\u2581Art": 2593, "szenie": 2594, "g\u00f3w": 2595, "\u2581st": 2596, "\u2581bio": 2597, "\u2581Projekt": 2598, "\u2581podr\u00f3\u017c": 2599, "nica": 2600, "\u2581uwa\u017ca": 2601, "\u2581dot\u0105d": 2602, "\u2581wyboru": 2603, "\u2581Jerzy": 2604, "\u2581kadencji": 2605, "\u2581zaledwie": 2606, "\u2581matki": 2607, "\u2581for": 2608, "zmu": 2609, "\u2581UE": 2610, "bor": 2611, "\u2581musia\u0142a": 2612, "\u258142": 2613, "\u2581By\u0107": 2614, "li\u0142": 2615, "\u2581roli": 2616, "\u2581funkcj\u0119": 2617, "\u2581para": 2618, "\u2581\u0141": 2619, "\u2581ksi\u0105\u017c\u0119": 2620, "\u2581prawem": 2621, "id": 2622, "\u2581kolejnych": 2623, "jmy": 2624, "\u2581wzi\u0105\u0142": 2625, "\u2581dyskusj\u0119": 2626, "\u2581zwierz\u0105t": 2627, "\u2581funkcji": 2628, "\u2581wojnie": 2629, "\u258144": 2630, "\u2581zdoby\u0142": 2631, "\u2581Policji": 2632, "rza\u0142": 2633, "\u2581s\u0105d": 2634, "\u2581organ\u00f3w": 2635, "\u2581\u015bwiat\u0142o": 2636, "\u2581mi\u0142o\u015bci": 2637, "\u2581Pra": 2638, "bar": 2639, "\u2581p\u0142o": 2640, "\u2581Przepraszam": 2641, "\u2581dziedzinie": 2642, "\u2581Mistrzostwa": 2643, "\u2581uwa\u017cam": 2644, "lis": 2645, "win": 2646, "\u2581\u201c": 2647, "\u015a": 2648, "\u2581Dzi\u0119ki": 2649, "\u2581Per": 2650, "\u2581uczni\u00f3w": 2651, "\u2581\u0142\u0105cznie": 2652, "\u2581warto\u015b\u0107": 2653, "95": 2654, "stycznych": 2655, "\u2581\u015bwiat\u0142a": 2656, "\u2581Gospodarki": 2657, "\u2581jakim\u015b": 2658, "\u015bmy": 2659, "\u2581kre": 2660, "\u2581Rada": 2661, "\u2581sen": 2662, "\u2581Uwa\u017cam": 2663, "szka": 2664, "\u2581klub": 2665, "\u2581u\u015bmiechn\u0105\u0142": 2666, "28": 2667, "\u2581jako\u015bci": 2668, "\u2581\u015brodka": 2669, "\u2581Kor": 2670, "\u2581cze": 2671, "kon": 2672, "\u2581be": 2673, "\u2581wynagrodzenia": 2674, "\u2581ma\u0142e": 2675, "75": 2676, "\u2581krew": 2677, "nes": 2678, "onu": 2679, "towe": 2680, "\u2581droga": 2681, "szczy": 2682, "\u2581s\u0105dz\u0119": 2683, "li\u015bcie": 2684, "\u2581&": 2685, "\u2581projektem": 2686, "\u015bni": 2687, "\u2581prosto": 2688, "\u2581program\u00f3w": 2689, "\u2581grze": 2690, "\u2581\u015bwietle": 2691, "\u2581czeka": 2692, "\u2581poziomu": 2693, "\u2581s\u0105du": 2694, "aki": 2695, "\u2581sztuki": 2696, "ato": 2697, "\u2581Kra": 2698, "\u2581W\u0142a\u015bnie": 2699, "\u2581\u0142u": 2700, "\u2581dochod\u00f3w": 2701, "\u2581jako\u015b": 2702, "pia": 2703, "nio": 2704, "-3": 2705, "\u2581formy": 2706, "\u2581wykonania": 2707, "n\u0119\u0142o": 2708, "\u2581jakich": 2709, "\u2581mianowicie": 2710, "\u2581Mat": 2711, "\u2581cele": 2712, "\u2581znaczenia": 2713, "\u2581drog\u0105": 2714, "\u2581Sp": 2715, "\u2581uro": 2716, "\u2581rzeki": 2717, "\u015bnie": 2718, "j\u0105co": 2719, "\u2581ilo\u015bci": 2720, "\u2581Th": 2721, "\u2581zdanie": 2722, "\u2581moc": 2723, "\u2581obrony": 2724, "\u2581Zwi\u0105zku": 2725, "\u2581rzuci\u0142": 2726, "\u2581(1": 2727, "\u2581Ben": 2728, "sp": 2729, "ers": 2730, "dzia": 2731, "\u2581tob\u0105": 2732, "\u2581spotkania": 2733, "n\u0119li": 2734, "waj\u0105c": 2735, "ra\u0142": 2736, "\u2581pozwoli": 2737, "stan": 2738, "\u2581staje": 2739, "\u00f6": 2740, "\u2581wr\u00f3ci\u0142": 2741, "\u2581wprowadzenia": 2742, "\u2581Par": 2743, "\u25818.": 2744, "\u2581m\u0142odzie\u017cy": 2745, "\u2581nikogo": 2746, "\u2581Klub": 2747, "br": 2748, "\u2581G\u0142os": 2749, "\u2581go\u015bci": 2750, "\u2581Anna": 2751, "\u2581c\u00f3\u017c": 2752, "\u2581listy": 2753, "\u2581chcemy": 2754, "tera": 2755, "\u2581pozosta\u0142ych": 2756, "\u2581pierwsza": 2757, "\u2581potrafi": 2758, "\u2581nauczycieli": 2759, "\u2581Rok": 2760, "\u2581Sh": 2761, "\u2581Pol": 2762, "\u2581spotkanie": 2763, "\u2581charaktery": 2764, "\u2581publicznego": 2765, "\u2581Jeden": 2766, "\u2581wysoko": 2767, "\u2581rodzic\u00f3w": 2768, "\u2581wszystkiego": 2769, "\u2581budynku": 2770, "k\u0142a": 2771, "ll": 2772, "\u2581anty": 2773, "\u2581\u017be": 2774, "\u2581zale\u017cy": 2775, "\u2581Tymczasem": 2776, ".),": 2777, "\u2581pos\u0142owi": 2778, "\u2581zakres": 2779, "\u2581wr\u0119cz": 2780, "\u2581XIX": 2781, "\u2581zewn\u0105trz": 2782, "\u2581druga": 2783, "\u2581powy\u017cszym": 2784, "\u2581przedsi\u0119biorstw": 2785, "\u2581Takie": 2786, "\u2581sze\u015b\u0107": 2787, "\u2581Marek": 2788, "\u2581trybie": 2789, "\u2581i\u015b\u0107": 2790, "\u2581wyniki": 2791, "stwem": 2792, "\u2581dniem": 2793, "\u2581Bra": 2794, "\u2581granicy": 2795, "\u2581rano": 2796, "\u2581chc\u0105": 2797, "\u2581Gro": 2798, "\u2581rodzin": 2799, "98": 2800, "ham": 2801, "\u2581pa\u0144": 2802, "\u2581m\u0119": 2803, "26": 2804, "\u2581Dopiero": 2805, "\u2581Senat": 2806, "waj\u0105": 2807, "\u2581PKP": 2808, "\u2581wsparcia": 2809, "\u2581Pa\u0144stwo": 2810, "\u2581niewiele": 2811, "niejszych": 2812, "\u2581Q": 2813, "czni": 2814, "\u2581\u015bci": 2815, "\u2581nowelizacji": 2816, "\u2581szcze": 2817, "\u2581sezonie": 2818, "owc\u00f3w": 2819, "\u2581centrum": 2820, "\u2581198": 2821, "\u2581partii": 2822, "cyjnie": 2823, "\u2581wi\u0119ksze": 2824, "\u2581zawo\u0142a\u0142": 2825, "\u2581min": 2826, "\u2581sam\u0105": 2827, "\u2581pami\u0119ci": 2828, "\u2581Nagle": 2829, "\u2581p\u00f3\u017an": 2830, "\u2581podni\u00f3s\u0142": 2831, "chem": 2832, "\u2581wszed\u0142": 2833, "\u2581opini\u0119": 2834, "\u2581sza": 2835, "\u2581doktor": 2836, "li\u0107": 2837, "\u2581pozosta": 2838, "skiem": 2839, "\u2581cel\u00f3w": 2840, "lej": 2841, "\u2581przypadkach": 2842, "\u2581szkole": 2843, "\u00fc": 2844, "\u2581maj\u0105c": 2845, "\u258170": 2846, "\u2581Musz\u0119": 2847, "\u2581bie": 2848, "\u2581przedstawia": 2849, "\u2581d\u0142u\u017cej": 2850, "\u2581Centrum": 2851, "\u2581wielkim": 2852, "\u2581193": 2853, "\u2581\u017byciorys": 2854, "\u2581Ko\u015bcio\u0142a": 2855, "fo": 2856, "bra": 2857, "\u2581spraw\u0105": 2858, "\u2581wiadomo\u015bci": 2859, "\u2581miast": 2860, "\u2581obejmuje": 2861, "\u2581stra": 2862, "ci\u0142a": 2863, "\u2581zwr\u00f3ci\u0142": 2864, "lia": 2865, "\u2581jakiej": 2866, "\u2581zmie": 2867, "\u2581odezwa\u0142": 2868, "\u2581istotne": 2869, "gh": 2870, "\u2581sk\u0142ada": 2871, "\u2581cz\u0142onkiem": 2872, "\u2581wojska": 2873, "AR": 2874, "szki": 2875, "\u2581rami\u0119": 2876, "\u2581Ich": 2877, "\u2581Bel": 2878, "\u2581Hi": 2879, "niach": 2880, "\u2581Ziemi": 2881, "\u2581Ochrony": 2882, "\u2581von": 2883, "\u2581panem": 2884, "\u2581g\u0142\u0119boko": 2885, "wach": 2886, "hu": 2887, "\u2581odpowiedzie\u0107": 2888, "lona": 2889, "\u2581rodzaj": 2890, "\u2581widzi": 2891, "\u2581pra": 2892, "\u2581kwestie": 2893, "\u2581strze": 2894, "\u2581bro\u0144": 2895, "\u2581pom\u00f3c": 2896, "ena": 2897, "wski": 2898, "\u2581Cz": 2899, "\u2581pom": 2900, "sti": 2901, "dar": 2902, "\u25811989": 2903, "berg": 2904, "q": 2905, "qu": 2906, "\u2581czu\u0142": 2907, "-0": 2908, "czonych": 2909, "\u2581ska": 2910, "czono": 2911, "\u2581Ka\u017cdy": 2912, "\u2581wyszed\u0142": 2913, "\u2581rozpocz\u0105\u0142": 2914, "\u2581dosz\u0142o": 2915, "\u2581moment": 2916, "szenia": 2917, "ros": 2918, "\u2581doskonale": 2919, "\u2581mil": 2920, "\u2581mm": 2921, "\u2581m\u00f3wimy": 2922, "\u2581Niemcy": 2923, "\u2581kolejny": 2924, "\u2581Rosji": 2925, "sch": 2926, "\u2581zak": 2927, "cony": 2928, "\u2581ko\u015bcio\u0142a": 2929, "\u2581g\u00f3r": 2930, "85": 2931, "\u2581wykonywania": 2932, "\u2581Przechodzimy": 2933, "\u2581m\u00f3wi\u0142a": 2934, "\u2581zawarte": 2935, "\u2581zechce": 2936, "\u2581Ko\u015bci\u00f3\u0142": 2937, "\u2581Biura": 2938, "zja": 2939, "\u2581jaka\u015b": 2940, "\u2581pragn\u0119": 2941, "s\u0142a": 2942, "\u2581j\u0119zyk": 2943, "\\'": 2944, "wanych": 2945, "tow": 2946, "\u2581^": 2947, "\u201a": 2948, "\u2581Kontroli": 2949, "dne": 2950, "dzy": 2951, "\u2581z\u0142o": 2952, "\u2581ameryka\u0144ski": 2953, "anka": 2954, "\u2581p\u0142y": 2955, "ot": 2956, "\u2581mi\u0142o\u015b\u0107": 2957, "\u2581Pat": 2958, "\u2581chcia\u0142by": 2959, "\u2581Polityki": 2960, "ER": 2961, "\u2581dziennego": 2962, "000": 2963, "\u2581potrzeba": 2964, "\u2581|": 2965, "\u2581By": 2966, "\u2581w\u0142adz": 2967, "\u2581reformy": 2968, "\u2581spod": 2969, "\u2581li\u015bcie": 2970, "\u2581przedstawiciela": 2971, "\u2581kraj": 2972, "\u2581le\u017cy": 2973, "\u2581skali": 2974, "\u2581\u015brodku": 2975, "33": 2976, "\u2581C\u00f3\u017c": 2977, "\u2581cm": 2978, "\u2581Wobec": 2979, "ka\u0142": 2980, "atu": 2981, "\u2581nadzoru": 2982, "\u2581\u017c": 2983, "gli": 2984, "\u2581by\u0142by": 2985, "\u2581Man": 2986, "tycznej": 2987, "\u2581dniach": 2988, "\u2581chcia\u0142em": 2989, "\u2581ak": 2990, "\u2581kszta\u0142t": 2991, "\u2581podnie\u015b\u0107": 2992, "p\u0119": 2993, "\u2581Krajowej": 2994, "alny": 2995, ");": 2996, "\u2581ty\u0142u": 2997, "\u2581Ministerstwie": 2998, "aru": 2999, "\u2581samych": 3000, "wego": 3001, "\u2581wzd\u0142u\u017c": 3002, "\u2581posta\u0107": 3003, "\u2581cz\u0142owiekiem": 3004, "wienie": 3005, "\u2581Tom": 3006, "\u2581obszar": 3007, "uk": 3008, "\u2581konieczno\u015b\u0107": 3009, "\u2581dziesi\u0119\u0107": 3010, "\u2581kwota": 3011, "are": 3012, "wer": 3013, "\u2581nasza": 3014, "\u2581\u017cona": 3015, "\u2581decyzje": 3016, "\u2581pewna": 3017, "\u2581kim": 3018, "\u2581Dy": 3019, "\u2581zabranie": 3020, "wej": 3021, "\u2581dokument\u00f3w": 3022, "pat": 3023, "\u2581Sy": 3024, "\u2581pi\u0119ciu": 3025, "\u2581wymie": 3026, "\u2581Mie": 3027, "\u258110.": 3028, "\u2581>": 3029, "\u2581Niemiec": 3030, "\u2581now\u0105": 3031, "\u2581d\u0142ugo\u015bci": 3032, "np": 3033, "\u2581Urz\u0119du": 3034, "wych": 3035, "\u2581ko\u015bci": 3036, "\u2581drzew": 3037, "\u2581trudno\u015bci": 3038, "\u2581przyj\u0119\u0142a": 3039, "\u2581New": 3040, "\u2581ma\u0142y": 3041, "\u2581propozycj\u0119": 3042, "rowa": 3043, "\u2581Pierwszy": 3044, "\u2581stro": 3045, "\u2581analizy": 3046, "\u2581wej\u015bcia": 3047, "\u2581nasz\u0105": 3048, "dzeniem": 3049, "\u2581ksi\u0105\u017cki": 3050, "\u2581wielko\u015bci": 3051, "\u258155": 3052, "\u2581pracowa\u0142": 3053, "\u2581urz\u0119du": 3054, "ia\u0142": 3055, "\u2581bud\u017cet": 3056, "cio": 3057, "\u2581powietrze": 3058, "pl": 3059, "\u2581musieli": 3060, "\u2581oka": 3061, "\u2581Och": 3062, "\u2581doda\u0107": 3063, "\u2581form": 3064, "\u2581powoduje": 3065, "\u2581zale": 3066, "\u2581etapie": 3067, "\u2581doda\u0142": 3068, "torem": 3069, "\u2581wynik": 3070, "\u2581liczb\u0119": 3071, "\u2581Miejsce": 3072, "\u2581kategorii": 3073, "owskiej": 3074, "pol": 3075, "\u2581Gi": 3076, "-2": 3077, "nionych": 3078, "\u2581spo\u0142eczne": 3079, "\u2581pla": 3080, "\u2581wysoko\u015b\u0107": 3081, "\u2581ostatnim": 3082, "\u2581Robert": 3083, "\u2581dowo": 3084, "\u2581\u0141a": 3085, "\u2581regulacji": 3086, "tnych": 3087, "\u2581politycznych": 3088, "\u2581nast\u0119puje": 3089, "tyczny": 3090, "\u2581wczoraj": 3091, "OR": 3092, "\u2581kro": 3093, "\u2581dyrektora": 3094, "\u2581przedstawi": 3095, "\u25819.": 3096, "stka": 3097, "48": 3098, "thumb": 3099, "dom": 3100, "b\u0119": 3101, "\u2581ramionami": 3102, "\u2581niebezpie": 3103, "cenia": 3104, "\u25814,": 3105, "\u2581HS": 3106, "czeniem": 3107, "zn": 3108, "\u2581obecnej": 3109, "\u2581zawi": 3110, "\u015bciami": 3111, "\u2581wiedz\u0105": 3112, "\u2581pomys\u0142": 3113, "\u2581zauwa\u017cy\u0107": 3114, "\u2581druku": 3115, "\u2581ds": 3116, "lami": 3117, "\u015bciach": 3118, "\u25811945": 3119, "\u2581podstawowych": 3120, "mer": 3121, "szek": 3122, "\u2581Tra": 3123, "szy\u0142": 3124, "ser": 3125, "\u2581miar\u0119": 3126, "ec": 3127, "\u2581zaj\u0105\u0142": 3128, "styczny": 3129, "\u2581dwadzie\u015bcia": 3130, "\u2581edukacji": 3131, "\u2581punkt\u00f3w": 3132, "dna": 3133, "vo": 3134, "\u2581Cor": 3135, "\u2581di": 3136, "\u2581przepisu": 3137, "\u2581u\u015bmiech": 3138, "\u2581Poprawka": 3139, "\u2581wsp\u00f3lnego": 3140, "\u2581z\u0142otych": 3141, "\u2581stwierdzi\u0107": 3142, "ctwo": 3143, "\u2581Pawe\u0142": 3144, "\u2581z\u0142a": 3145, "\u2581premiera": 3146, "96": 3147, "sami": 3148, "nikiem": 3149, "\u2581dawno": 3150, "\u2581dzi": 3151, "\u2581ma\u0142ych": 3152, "szony": 3153, "\u2581dziewczyna": 3154, "\u2581ton": 3155, "\u25811939": 3156, "kn\u0105\u0142": 3157, "\u258190": 3158, "\u2581wyzna": 3159, "\u2581jakiej\u015b": 3160, "nki": 3161, "\u2581tro": 3162, "\u2581dost\u0119p": 3163, "towej": 3164, "tz": 3165, "rat": 3166, "\u2581Bur": 3167, "\u2581dawna": 3168, "\u2581opr\u00f3cz": 3169, "cone": 3170, "\u2581500": 3171, "\u2581Agencji": 3172, "\u2581wielkiego": 3173, "\u2581pora": 3174, "\u2581armii": 3175, "\u2581Tar": 3176, "\u2581Star": 3177, "\u2581brzegu": 3178, "\u2581\u2212": 3179, "\u2581PO": 3180, "\u2581odleg\u0142o\u015bci": 3181, "\u2581sprzeciwu": 3182, "\u2581Cze": 3183, "\u2581najlepiej": 3184, "\u2581przyj\u0119ty": 3185, "\u2581star": 3186, "\u2581d\u0142oni": 3187, "\u0105cego": 3188, "\u2581transportu": 3189, "27": 3190, "tacji": 3191, "pa\u0142": 3192, "\u2581wal": 3193, "\u2581zmieni\u0107": 3194, "\u2581mi\u0119dzynarod": 3195, "\u2581panowie": 3196, "\u2581polska": 3197, "\u2581pe\u0142ne": 3198, "\u2581czasach": 3199, "\u2581podj\u0105\u0142": 3200, "\u2581Kry": 3201, "por": 3202, "\u2581zdania": 3203, "\u2581wsp\u00f3lnie": 3204, "\u2581pami\u0119tam": 3205, "\u2581ro\u015blin": 3206, "\u2581szacunku": 3207, "nd": 3208, "ni\u0119ty": 3209, "bel": 3210, "\u2581Warszawy": 3211, "\u2581film": 3212, "skimi": 3213, "\u2581milion\u00f3w": 3214, "\u2581Praw": 3215, "\u015bli": 3216, "\u2581pa\u0144stwowych": 3217, "\u0142ami": 3218, "wi\u0107": 3219, "\u2581Ona": 3220, "dzeniu": 3221, "raz": 3222, "\u2581wzrokiem": 3223, "gro": 3224, "-18": 3225, "tyka": 3226, "\u2581\u017cyje": 3227, "22": 3228, "jak": 3229, "\u2581towar\u00f3w": 3230, "\u2581pewn\u0105": 3231, "daw": 3232, "\u2581pal": 3233, "\u2581zostali": 3234, "\u2581sp\u00f3\u0142ek": 3235, "tan": 3236, "usz": 3237, "\u2581ko\u0144": 3238, "wi\u0142a": 3239, "\u2581dop\u00f3ki": 3240, "\u2581sposobu": 3241, "\u2581r\u00f3\u017c": 3242, "\u2581rad": 3243, "\u2581zachowania": 3244, "nia\u0142": 3245, "\u2581natury": 3246, "\u2581jutro": 3247, "\u2581los": 3248, "\u2581Komisj\u0119": 3249, "\u2581przestrzeni": 3250, "\u2581prowadzi\u0107": 3251, "\u2581przypomnie\u0107": 3252, "\u2581senatora": 3253, "\u2581m\u00f3wi\u0105": 3254, "\u2581powy\u017cej": 3255, "\u2581prywatyzacji": 3256, "\u2581potrzebne": 3257, "pra": 3258, "tnym": 3259, "\u2581w\u0142asnego": 3260, "\u2581Fe": 3261, "\u2581Por": 3262, "g\u0142a": 3263, "waj": 3264, "?!": 3265, "aku": 3266, "nii": 3267, "ch\u00f3w": 3268, "\u0430": 3269, "lizacji": 3270, "anem": 3271, "lub": 3272, "anki": 3273, "Na": 3274, "rzony": 3275, "\u2581budow\u0119": 3276, "\u2581kry": 3277, "kowego": 3278, "\u2581zagranicznych": 3279, "\u2581Ach": 3280, "\u2581Her": 3281, "\u2581Cha": 3282, "dny": 3283, "\u2581senator\u00f3w": 3284, "\u2581pochodzi": 3285, "-20": 3286, "del": 3287, "\u2581Cie": 3288, "\u2581zmienia": 3289, "\u2581kg": 3290, "pli": 3291, "\u2581odwr\u00f3ci\u0142": 3292, "\u2581profesor": 3293, "\u2581pozostaje": 3294, "\u2581ZSRR": 3295, "Ma": 3296, "\u2581mistrzostw": 3297, "\u2581czemu": 3298, "tycznego": 3299, "\u2581dosy\u0107": 3300, "wienia": 3301, "\u2581akurat": 3302, "..": 3303, "\u2581Micha\u0142": 3304, "\u2581nazw\u0119": 3305, "\u2581oba": 3306, "dow": 3307, "65": 3308, "\u2581Wreszcie": 3309, "\u2581Mary": 3310, "\u2581ide": 3311, "\u2581sensie": 3312, "und": 3313, "\u2581Kultury": 3314, "lik": 3315, "ble": 3316, "\u2581Biuro": 3317, "i\u0142": 3318, "ST": 3319, "log": 3320, "\u2581Oto": 3321, "\u2581pojawi\u0142": 3322, "\u2581zak\u0142ad\u00f3w": 3323, "g\u0142o": 3324, "\u2581euro": 3325, "\u2581pewnej": 3326, "\u2581zobaczy\u0142": 3327, "ck\u0105": 3328, "\u2581miesz": 3329, "\u2581odpowiednio": 3330, "\u2581wzi\u0105\u0107": 3331, "\u0144sk\u0105": 3332, "\u2581propozycje": 3333, "\u2581\u00f3w": 3334, "ria": 3335, "\u2581medal": 3336, "\u2581pierwsz\u0105": 3337, "\u2581powstania": 3338, "\u2581okaza\u0142o": 3339, "szone": 3340, "\u2581przeszed\u0142": 3341, "\u2581do\u015bwiadczenia": 3342, "\u2581Ke": 3343, "\u2581zak\u0142ad": 3344, "\u2581S\u0105dz\u0119": 3345, "\u2581kogo": 3346, "\u2581ho": 3347, "pi\u0142": 3348, "94": 3349, "sach": 3350, "\u2581ostatecznie": 3351, "cenie": 3352, "93": 3353, "dzonych": 3354, "\u2581Zawsze": 3355, "\u2581Cho": 3356, "\u2581dzia\u0142anie": 3357, "\u2581M\u00f3j": 3358, "lla": 3359, "hy": 3360, "\u2581\u017ar\u00f3de\u0142": 3361, "\u2581w\u0142asno\u015bci": 3362, "bach": 3363, "r\u00f3": 3364, "\u2581samorz\u0105d": 3365, "\u2581poni\u017cej": 3366, "76": 3367, "tory": 3368, "\u2581zamierza": 3369, "\u2581pokry": 3370, "\u2581m\u0105\u017c": 3371, "\u2581dodatkowe": 3372, "ling": 3373, "\u2581trwa": 3374, "kowie": 3375, "/19": 3376, "\u2581przedstawiciel": 3377, "ni\u0119cie": 3378, "\u2581po\u0142o\u017cona": 3379, "z\u0119": 3380, "tes": 3381, "\u2581obowi\u0105zk\u00f3w": 3382, "\u2581autor": 3383, "ct": 3384, "\u2581\u00ab": 3385, "\u2581niepo": 3386, "\u2581j\u0119zyku": 3387, "\u2581\u015bwiadomo\u015b\u0107": 3388, "\u2581zawodowych": 3389, "ed": 3390, "\").": 3391, "owanymi": 3392, "\u2581g\u0142o": 3393, "\u2581uk\u0142ad": 3394, "\u2581stacji": 3395, "\u2581cho": 3396, "rzy\u0107": 3397, "\u2581w\u0142asnym": 3398, "\u2581umie": 3399, "\u2581przygotowania": 3400, "\u2581stu": 3401, "\u2581siedzia\u0142": 3402, "\u2581zdaje": 3403, "sz\u0119": 3404, "\u2581podobne": 3405, "\u2581zawie": 3406, "\u2581Trybuna\u0142u": 3407, "ta\u0142": 3408, "\u2581ruszy\u0142": 3409, "iej": 3410, "ret": 3411, "\u2581tem": 3412, "czonego": 3413, "kim": 3414, "\u2581wersji": 3415, "\u2581Rolnictwa": 3416, "cen": 3417, "\u2581zwie": 3418, "\u2581Kodeksu": 3419, "\u2581numer": 3420, "szcze": 3421, "\u2581per": 3422, "\u2581podj\u0105\u0107": 3423, "\u2581rolnik\u00f3w": 3424, "\"),": 3425, "tur": 3426, "46": 3427, "rzy\u0142a": 3428, "\u2581statku": 3429, "\u2581stosowania": 3430, "\u2581g\u0142o\u015bno": 3431, "\u2581\u015bciany": 3432, "yt": 3433, "\u2581niewy": 3434, "szem": 3435, "\u2581prof": 3436, "\u2581st\u00f3p": 3437, "\u2581obecno\u015bci": 3438, "\u2581prawne": 3439, "\u2581wielkich": 3440, "-1": 3441, "\u2581studia": 3442, "\u2581Wi\u0119kszo\u015b\u0107": 3443, "97": 3444, "\u2581Mon": 3445, "78": 3446, "\u2581skutek": 3447, "ium": 3448, "\u2581tygodni": 3449, "\u2581war": 3450, "\u2581nowym": 3451, "stw": 3452, "kt": 3453, "\u2581krok": 3454, ":5": 3455, "nikami": 3456, "\u2581interpelacj\u0119": 3457, "ft": 3458, "\u2581godz": 3459, "IE": 3460, "\u017ceniem": 3461, "niejszy": 3462, "\u2581wsp\u00f3\u0142": 3463, "\u2581wielkiej": 3464, "\u2581infrastruktury": 3465, "\u2581SPS": 3466, "\u2581spo\u0142ecznego": 3467, "\u2581Anglii": 3468, "\u25812019": 3469, "\u2581pojawia": 3470, "\u2581\u0142o": 3471, "\u2581stan\u0105\u0142": 3472, "\u2581najcz\u0119\u015bciej": 3473, "\u2581Wielkiej": 3474, "logii": 3475, "\u2581projekty": 3476, "\u2581wiedzia\u0142a": 3477, "\u2581patrz\u0105c": 3478, "\u2581zabi": 3479, "\u2581powiatu": 3480, "\u2581Panowie": 3481, "\u2581tle": 3482, "\u2581zostaje": 3483, "wia\u0142": 3484, "\u2581a\u017ceby": 3485, "\u2581mog\u0142em": 3486, "\u2581brat": 3487, "\u2581likwidacji": 3488, "\u2581procent": 3489, "tak": 3490, "\u2581m\u00f3wi\u0142em": 3491, "fer": 3492, "stym": 3493, "\u0438": 3494, "\u2581jasno": 3495, "\u2581Gre": 3496, "\u25815,": 3497, "\u2581zach": 3498, "\u2581okoliczno\u015bci": 3499, "\u2581NU": 3500, "\u2581ci\u0119\u017cko": 3501, "\u2581ceny": 3502, "\u2581wskazuje": 3503, "\u2581praca": 3504, "\u2581siedem": 3505, "\u2581NIK": 3506, "\u2581VI": 3507, "\u2581w\u0142adze": 3508, "\u2581w\u0142asn\u0105": 3509, "\u2581uczy": 3510, "\u2581Nor": 3511, "\u2581wyro": 3512, "\u2581Bor": 3513, "\u2581zrozumie\u0107": 3514, "\u2581koszt": 3515, "\u2581bli\u017cej": 3516, "\u2581\u015bwie": 3517, "\u2581192": 3518, "nemu": 3519, "czem": 3520, "\u2581rzu": 3521, "que": 3522, "dzi\u0142y": 3523, "\u2581drzewa": 3524, "zd": 3525, "38": 3526, "\u2581pochodzenia": 3527, "wskiego": 3528, "\u2581du\u017cej": 3529, "\u2581skutki": 3530, "\u2581Mal": 3531, "\u2581Co\u015b": 3532, "\u2581(198": 3533, "mina": 3534, "tury": 3535, "\u017ani": 3536, "\u2581dotacji": 3537, "\u2581Jeste\u015b": 3538, "\u2581Sza": 3539, "\u2581Zreszt\u0105": 3540, "\u2581choroby": 3541, "\u2581pozna": 3542, "\u2581zwi\u0105zek": 3543, "\u2581Ludzie": 3544, "\u2581zrobi": 3545, "sza\u0142": 3546, "\u2581Jednak\u017ce": 3547, "czeniu": 3548, "\u2581r\u0105k": 3549, "asa": 3550, "\u2581propozycja": 3551, "\u258175": 3552, "\u2581przepisami": 3553, "towa\u0142": 3554, "\u2581rodzinie": 3555, "\u2581wewn\u0105trz": 3556, "\u2581kontek\u015bcie": 3557, "dza\u0107": 3558, "\u2581liczne": 3559, "ctwa": 3560, "\u2581stole": 3561, "\u2581(200": 3562, "\u2581terytorium": 3563, "\u2581materia\u0142\u00f3w": 3564, "\u2581niebo": 3565, "cz\u0105c": 3566, "dzi\u0142o": 3567, "\u2581cza": 3568, "\u2581Tur": 3569, "ene": 3570, "czonym": 3571, "\u2581Kariera": 3572, "\u2581nazwa": 3573, "\u2581sygn": 3574, "\u2581osob": 3575, "\u2581ks": 3576, "\u2581du\u017c\u0105": 3577, "\u2581przedstawiciele": 3578, "\u2581element": 3579, "\u2581m\u0142ody": 3580, "\u2581Ti": 3581, "dnia": 3582, "s\u0142": 3583, "tion": 3584, "\u2581prowadzonych": 3585, "owca": 3586, "wi\u0105": 3587, "21": 3588, "rzone": 3589, "\u2581nazwisko": 3590, "\u2581szko": 3591, "\u2581biegu": 3592, "\u017c\u0119": 3593, "wicz": 3594, "Le": 3595, "73": 3596, "kuje": 3597, "\u2581ochronie": 3598, "rie": 3599, "dzona": 3600, "\u2581uzyskania": 3601, "\u2581uprawnie\u0144": 3602, "da\u0107": 3603, "szy\u0107": 3604, "pis": 3605, "\u2581stara": 3606, "\u2581wyrzu": 3607, "\u25811:": 3608, "\u2581by\u0142aby": 3609, "\u2581bieg": 3610, "szona": 3611, "\u2581przemys\u0142u": 3612, "\u2581konieczne": 3613, "\u2581ograniczenia": 3614, "\u2581skarbu": 3615, "36": 3616, "\u2581By\u0142y": 3617, "\u2581d\u0142ugi": 3618, "bli": 3619, "\u2581patrzy\u0142": 3620, "\u2581fa": 3621, "\u2581jasne": 3622, "rad": 3623, "\u2581okna": 3624, "\u2581poczu\u0142": 3625, "\u2581polityk": 3626, "\u2581tw\u00f3j": 3627, "89": 3628, "\u0105ca": 3629, "op": 3630, "ar\u00f3w": 3631, "ka\u0142a": 3632, "\u2581zde": 3633, "lonych": 3634, "\u2581For": 3635, "\u2581itp": 3636, "\u2581wi\u0119ksz\u0105": 3637, "lii": 3638, "rak": 3639, "\u2581spojrzenie": 3640, "\u2581s\u0142u": 3641, "\u2581at": 3642, "gami": 3643, "Za": 3644, "towa": 3645, "\u2581bru": 3646, "\u2581punkty": 3647, "\u2581stanowisku": 3648, "\u2581ucie": 3649, "\u2581St\u0105d": 3650, "\u2581ksi\u0119cia": 3651, "\u2581restruktury": 3652, "\u2581umys\u0142": 3653, "\u2581konia": 3654, "\u2581\u0142\u0105": 3655, "\u2581spok\u00f3j": 3656, "\u2581wr\u00f3ci\u0107": 3657, "\u2581us\u0142ugi": 3658, "\u2581czasami": 3659, "czy\u0142y": 3660, "\u2581B\u0119dzie": 3661, "\u2581Prawa": 3662, "\u2581Musimy": 3663, ":3": 3664, "leg": 3665, "\u2581bok": 3666, "\u2581m\u0142odych": 3667, "ta\u0142a": 3668, "\u2581G\u00f3r": 3669, "\u2581Bogu": 3670, "\u2581decyzja": 3671, "\u2581uzyska\u0107": 3672, "\u2581oczami": 3673, "\u2581spi": 3674, "-200": 3675, "\u2581wyja\u015bni\u0107": 3676, "\u2581firm": 3677, "owo\u015b\u0107": 3678, "\u2581Gru": 3679, "\u2581d\u0142ugie": 3680, "\u2581stali": 3681, "dal": 3682, "\u2581uzna": 3683, "-5": 3684, "\u2581spa": 3685, "\u0144stwo": 3686, "\u2581du\u017cy": 3687, "\u2581Pre": 3688, "\u2581m\u0119\u017ca": 3689, "\u2581Krzysztof": 3690, "\u2581s\u0142u\u017cb": 3691, "\u2581przyczyn": 3692, "\u2581organ": 3693, "mem": 3694, "\u2581kom": 3695, "\u2581mieli\u015bmy": 3696, "\u2581podzia\u0142u": 3697, "ps": 3698, "\u2581zasadach": 3699, "nen": 3700, "\u2581wyda\u0142": 3701, "\u2581kt\u00f3remu": 3702, "czeni": 3703, "\u2581Tadeusz": 3704, "by\u015b": 3705, "\u2581poru": 3706, "kiewicz": 3707, "\u2581nazwy": 3708, "\u2581u\u017cy": 3709, "czk\u0105": 3710, "\u017conych": 3711, "\u2581przeprowa": 3712, "\u2581organy": 3713, "tnego": 3714, "wia\u0107": 3715, "\u2581wyja\u015bnienia": 3716, "\u2581zarazem": 3717, "\u2581procedury": 3718, "\u2581Tomasz": 3719, "\u2581zainteres": 3720, "68": 3721, "\u2581przodu": 3722, "\u2581spyta\u0142a": 3723, "\u2581powsta\u0142": 3724, "\u2581ilo\u015b\u0107": 3725, "dali": 3726, "\u2581konieczno\u015bci": 3727, "\u2581oparciu": 3728, "\u2581mieszka": 3729, "\u2581lekarza": 3730, "\u2581zwi\u0119kszenie": 3731, "\u2581polu": 3732, "\u2581funduszu": 3733, "liz": 3734, "\u2581inicjatywy": 3735, "\u2581twoje": 3736, "towy": 3737, "\u2581odpowiednie": 3738, "cili": 3739, "34": 3740, "92": 3741, "\u2581lud\u017ami": 3742, "\u2581regionie": 3743, "\u2581ostatniej": 3744, "\u2581Ol": 3745, "\u2581pr\u00f3bowa\u0142": 3746, "gna": 3747, "\u2581Mil": 3748, "\u258165": 3749, "AT": 3750, "\u2581rynek": 3751, "\u2581pok\u00f3j": 3752, "\u2581metody": 3753, "\u2581przedsi\u0119biorc\u00f3w": 3754, "\u2581wyd": 3755, "\u2581podstawy": 3756, "\u2581udzia\u0142em": 3757, "\u2581handlu": 3758, "\u2581s\u0105d\u00f3w": 3759, "tn\u0105": 3760, "\u2581Pierwsze": 3761, "era": 3762, "\u2581terminie": 3763, "Ch": 3764, "\u2581osiem": 3765, "cze\u0144": 3766, "\u2581poch": 3767, "\u2581400": 3768, "\u2581ko\u015bci\u00f3\u0142": 3769, "\u2581nale\u017ca\u0142oby": 3770, "\u2581300": 3771, "\u2581os": 3772, "\u2581wyda": 3773, "\u2581rozwi": 3774, "\u2581podr\u00f3\u017cy": 3775, "\u2581prezydent": 3776, "nka": 3777, "\u2581zapewni\u0107": 3778, "\u2581oko": 3779, "\u2581loka": 3780, "\u2581au": 3781, "\u2581mieszkania": 3782, "\u2581Komitetu": 3783, "\u2581zagro\u017cenia": 3784, "\u2581Klubu": 3785, "\u2581przedstawienie": 3786, "\u2581Uniwersytetu": 3787, "now": 3788, "\u2581u\u015bmiechem": 3789, "\u2581Ustawa": 3790, "\u2581obs\u0142ugi": 3791, "\u2581reprezentacji": 3792, "\u2581Mer": 3793, "\u2581telewizji": 3794, "\u2581powod\u00f3w": 3795, "\u2581wod\u0119": 3796, "\u2581b\u00f3l": 3797, "czy\u0142em": 3798, "\u2581zgody": 3799, "\u2581akt": 3800, "\u2581kieszeni": 3801, "cj": 3802, "74": 3803, "\u2581r\u00f3wno": 3804, "\u2581znalaz\u0142a": 3805, "\u2581Fo": 3806, "\u2581Dar": 3807, "\u017cona": 3808, "\u2581ch\u0142o": 3809, "\u2581\u017cy\u0107": 3810, "\u2581dotycz\u0105": 3811, "\u2581wydawa\u0142o": 3812, "\u2581ka\u017cda": 3813, "\u2581widzia\u0142em": 3814, "\u2581dia": 3815, "dzi\u0142em": 3816, "\u2581Tutaj": 3817, "\u2581Ste": 3818, "\u2581dom\u00f3w": 3819, "\u2581odda": 3820, "nic": 3821, "\u2581stylu": 3822, "\u2581or": 3823, "\u2581przyj\u0119ta": 3824, "\u2581zapyta\u0142a": 3825, "\u2581gar": 3826, ":2": 3827, "\u2581wprowadza": 3828, "\u2581Podobnie": 3829, "dza\u0142": 3830, "\u2581wielokrotnie": 3831, "\u2581wiatr": 3832, "\u2581rozbi": 3833, "ni\u0119cia": 3834, "\u017b": 3835, "\u2581odwie": 3836, "\u2581teren": 3837, "\u2581chcieli": 3838, "ator": 3839, "\u2581kary": 3840, "\u2581g\u0142osowanie": 3841, "\u2581szans\u0119": 3842, "\u2581gen": 3843, "\u2581poszed\u0142": 3844, "\u2581op\u0142at": 3845, "\u2581s\u0142o\u0144ca": 3846, "\u2581P\u00f3\u017aniej": 3847, "dzono": 3848, "\u2581sprawozdanie": 3849, "\u2581wyci\u0105g": 3850, "\u2581wyj\u0105tkiem": 3851, "\u2581obiekt\u00f3w": 3852, "\u2581ministerstwo": 3853, "wem": 3854, "\u0104": 3855, "\u2581sku": 3856, "\u2581zajmuje": 3857, "\u2581sprzeciw": 3858, "\u2581prawd\u0119": 3859, "\u2581zale\u017cno\u015bci": 3860, "ven": 3861, "\u2581duszy": 3862, "\u2581odpar\u0142a": 3863, "\u2581produkt\u00f3w": 3864, "stki": 3865, "99": 3866, "\u2581ramiona": 3867, "lec": 3868, "\u2581my\u015ble\u0107": 3869, "czonej": 3870, "\u2581zosta": 3871, "\u2581uczelni": 3872, "kich": 3873, "64": 3874, "\u2581Akademii": 3875, "tyk": 3876, "\u2581aktor": 3877, "\u0142\u0119": 3878, "\u2581znam": 3879, "\u2581zako\u0144czeniu": 3880, "spo": 3881, "\u2581niby": 3882, "\u2581przyjaci\u00f3\u0142": 3883, "la\u0142a": 3884, "\u2581kr\u0119": 3885, "\u2581Niemczech": 3886, "\u2581cz\u0142onkowie": 3887, "\u0105cym": 3888, "!...": 3889, "on\u00f3w": 3890, "str": 3891, "\u2581Dzisiaj": 3892, "dam": 3893, "stego": 3894, "\u2581konstytucji": 3895, "\u2581maj\u0105tku": 3896, "\u2581ar": 3897, "\u2581boku": 3898, "\u2581powa\u017cnie": 3899, "\u2581Ani": 3900, "owskim": 3901, "\u2581Albo": 3902, "\u2581powietrza": 3903, "\u2581biskup": 3904, "ka\u0107": 3905, "\u2581wewn\u0119trznych": 3906, "wi\u0119": 3907, "towa\u0107": 3908, "\u2581wszelkich": 3909, "\u2581Spo\u0142ecznej": 3910, "\u2581kszta\u0142cenia": 3911, "\u2581dolar\u00f3w": 3912, "\u2581wchodzi": 3913, "\u2581szef": 3914, "dli": 3915, "\u2581po\u0142udnie": 3916, "\u2581prawnej": 3917, "\u2581Stanis\u0142awa": 3918, "\u2581(15": 3919, "\u2581mat": 3920, "nij": 3921, "\u2581Poli": 3922, "\u2581pi\u0142karz": 3923, "\u2581kwesti\u0119": 3924, "\u2581otworzy\u0142": 3925, "\u2581lekarz": 3926, "wiony": 3927, "\u2581tru": 3928, "\u2581wnosi": 3929, "tor\u00f3w": 3930, "got": 3931, "\u2581premier": 3932, "\u2581bior\u0105c": 3933, "\u2581wnioskiem": 3934, "ON": 3935, "\u2581ataku": 3936, "\u2581pracowa\u0107": 3937, "dro": 3938, "da\u0142a": 3939, "leni": 3940, "\u2581opis": 3941, "44": 3942, "\u2581Trudno": 3943, "ris": 3944, "\u2581nast\u0119puj\u0105cych": 3945, "\u2581pot": 3946, "dnych": 3947, "\u2581wojsk": 3948, "\u2581sens": 3949, "\u2581rolnych": 3950, "ca\u0142": 3951, "To": 3952, "\u2581nale\u017ca\u0142a": 3953, "\u2581Bro": 3954, "\u2581og": 3955, "\u2581kompetencji": 3956, "\u015bcia": 3957, "-4": 3958, "\u2581ofiar": 3959, "\u2581150": 3960, "In": 3961, "\u2581przedtem": 3962, "\u2581ludziom": 3963, "czno": 3964, "\u2581uzyska\u0142": 3965, "\u2581Ros": 3966, "tal": 3967, "\u2581wywo": 3968, "\u2581inn\u0105": 3969, "\u2581Masz": 3970, "\u2581tobie": 3971, "\u2581cz\u0119\u015bci\u0105": 3972, "\u2581poprze": 3973, "\u2581du\u017cym": 3974, "\u2581rzadko": 3975, "\u2581dokument": 3976, "\u2581he": 3977, "ura": 3978, "\u2581Jack": 3979, "\u2581Am": 3980, "!\"": 3981, "\u2581zdecydowanie": 3982, "\u2581atak": 3983, "\u2581o\u015bwiaty": 3984, "RA": 3985, "dn\u0105": 3986, "oru": 3987, "\u2581\u015bmie": 3988, "\u2581powietrzu": 3989, "\u2581d\u0142onie": 3990, "\u2581przyzna": 3991, "\u2581odkry": 3992, "\u2581trzeci": 3993, "\u2581nowa": 3994, "\u2581Ser": 3995, "row": 3996, "\u2581rodzi": 3997, "\u2581udzielenie": 3998, "\u2581Skoro": 3999, "\u2581Kur": 4000, "\u2581Dzie": 4001, "\u0142ach": 4002, "\u2581domy": 4003, "czno\u015b\u0107": 4004, "\u2581Sko": 4005, "\u2581wynik\u00f3w": 4006, "\u2581tre\u015b\u0107": 4007, "\u2581dostar": 4008, "\u2581znany": 4009, "\u2581zapisu": 4010, "\u2581struktury": 4011, "\u2581elementy": 4012, "\u2581mrukn\u0105\u0142": 4013, "\u2581dowiedzie\u0107": 4014, "\u2581\u017cony": 4015, "\u2581wystarczy": 4016, "\u2581wynosi\u0142a": 4017, "tyczna": 4018, "\u2581wieczorem": 4019, "\u2581uprawnienia": 4020, "\u017ceniu": 4021, "\u2581praktycznie": 4022, "\u2581\u017ceby\u015bmy": 4023, "\u2581Stra": 4024, "roz": 4025, "\u2581odbywa": 4026, "\u2581inna": 4027, "\u2581element\u00f3w": 4028, "\u2581kuchni": 4029, "\u2581wsz\u0119dzie": 4030, "\u2581Ile": 4031, "\u2581brzmieniu": 4032, "\u2581George": 4033, "la\u0142": 4034, "\u2581180": 4035, "\u2581Zosta\u0142": 4036, "\u00bb": 4037, "\u2581brata": 4038, "\u2581Im": 4039, "\u2581\u015arodowiska": 4040, "\u2581dotycz\u0105cej": 4041, "\u2581skutk\u00f3w": 4042, "ciel": 4043, "\u009c": 4044, "\u2581tor": 4045, "g\u0142": 4046, "\u2581dzia\u0142": 4047, "\u2581us\u0142ysza\u0142": 4048, "szcza": 4049, "\u2581przej\u015b\u0107": 4050, "\u2581wina": 4051, "\u2581mas": 4052, "kli": 4053, "\u25816,": 4054, "\u00b0": 4055, "tyw": 4056, ":4": 4057, "tnej": 4058, "ra\u0107": 4059, "\u258111.": 4060, "\u2581krzykn\u0105\u0142": 4061, "72": 4062, "duje": 4063, "szymi": 4064, "\u2581pola": 4065, "\u2581niezale\u017cnie": 4066, "cko": 4067, "\u2581ostro": 4068, "dr": 4069, "\u2581gwa\u0142townie": 4070, "37": 4071, "\u2581prze\u017cy": 4072, "Ko": 4073, "\u2581Edukacji": 4074, "\u2581podlega": 4075, "\u25811980": 4076, "wan": 4077, "\u2581Ver": 4078, "\u2581podmioty": 4079, "\u2581podszed\u0142": 4080, "\u2581zacz\u0119\u0142y": 4081, "\u2581En": 4082, "\u2581wydania": 4083, "\u2581ponadto": 4084, "\u2581Au": 4085, "\u2581statek": 4086, "\u2581interes": 4087, "\u2581praktyce": 4088, "\u2581wy\u0142\u0105": 4089, "\u0105d": 4090, "\u2581w\u0119gla": 4091, "\u2581dwoma": 4092, "\u2581nu": 4093, "\u2581Proponuj\u0119": 4094, "\u2581pami\u0119ta\u0107": 4095, "kiej": 4096, "\u2581gu": 4097, "\u2581Chi": 4098, "nice": 4099, "\u2581powo": 4100, "\u2581185": 4101, "ni\u0119te": 4102, "or\u00f3w": 4103, "\u2581\u0142\u00f3\u017cka": 4104, "\u043e": 4105, "\u2581wprowadzi\u0107": 4106, "29": 4107, "\u2581spo\u015br\u00f3d": 4108, "\u2581g\u0142\u0119bi": 4109, "\u2581Sze": 4110, "\u2581Stra\u017cy": 4111, "\u2581wych": 4112, "\u2581Szanowni": 4113, "\u2581marsza\u0142ek": 4114, "\u2581Zatem": 4115, "kiego": 4116, "\u2581konsekwencji": 4117, "\u2581nauczyciel": 4118, "\u2581Spo": 4119, "\u2581Zaraz": 4120, "\u2581skrzy": 4121, "fy": 4122, "\u2581ocenie": 4123, "\u2581znane": 4124, "\u2581przypomina": 4125, "OW": 4126, "czyn": 4127, "\u2581osobi\u015bcie": 4128, "\u2581wyst\u0119puj\u0105": 4129, "\u2581p\u00f3\u017ano": 4130, "\u015bci\u0107": 4131, "ama": 4132, "ta\u0107": 4133, "\u2581jedynym": 4134, "ga\u0142": 4135, "czno\u015bci": 4136, "\u2581g\u0142\u00f3wnego": 4137, "\u2581VAT": 4138, "uj\u0105": 4139, "\u2581zatrzyma\u0142": 4140, "\u2581Pa\u0144stwowej": 4141, "\u2581szko\u0142ach": 4142, "alnych": 4143, "\u2581odnosi": 4144, "\u25811988": 4145, "\u2581Sk\u0105d": 4146, "\u2581du\u017cych": 4147, "\u2581\u017ar\u00f3d\u0142a": 4148, "39": 4149, "waniem": 4150, "\u2581zagospodar": 4151, "\u2581bud\u017cecie": 4152, "si\u0119": 4153, "logia": 4154, "\u2581powsta\u0142a": 4155, "\u2581g\u0142osy": 4156, "rza\u0142a": 4157, "ca\u0107": 4158, "cha\u0142": 4159, "czon\u0105": 4160, "86": 4161, "\u2581przycisk": 4162, "\u2581cz\u0119\u015bciowo": 4163, "\u2581Kom": 4164, "66": 4165, "pod": 4166, "\u2581Taka": 4167, "\u2581Wysokiej": 4168, "\u0142o\u015bci": 4169, "wki": 4170, "\u2581w\u0142o": 4171, "\u2581gene": 4172, "\u2581b\u0142\u0105d": 4173, "kowym": 4174, "\u2581sektora": 4175, "\u2581inwestycje": 4176, "\u2581Zam": 4177, "\u2581roboty": 4178, "\u2581nazywa": 4179, "\u2581samoch\u00f3d": 4180, "\u2581Nowy": 4181, "\u2581dalszych": 4182, "IA": 4183, "\u258149": 4184, "\u2581miejscach": 4185, "\u2581toku": 4186, "\u2581pomimo": 4187, "\u2581szuka\u0107": 4188, "\u2581tworzenia": 4189, "\u2581ka\u017cde": 4190, "\u2581samochodu": 4191, "zacja": 4192, "\u2581komisja": 4193, "bi\u0142": 4194, "wne": 4195, "\u2581Puchar": 4196, "\u2581Armii": 4197, "\u2581meczu": 4198, "\u2581nasi": 4199, "\u2581prawnego": 4200, "liwy": 4201, "\u2581dost\u0119pu": 4202, "\u2581narodu": 4203, "\u2581nale\u017ca\u0142o": 4204, "AL": 4205, "\u2581gru": 4206, "\u2581dokona\u0107": 4207, "\u2581w\u0142a\u015bciwego": 4208, "\u2581danej": 4209, "\u2581stosunk\u00f3w": 4210, "\u2581istniej\u0105": 4211, "stro": 4212, "\u2581oce": 4213, "\u2581por\u00f3wnaniu": 4214, "\u2581w\u0142adz\u0119": 4215, "\u2581tar": 4216, "\u2581nara": 4217, "fie": 4218, "\u2581Data": 4219, "\u2581obowi\u0105zki": 4220, "\u2581liczy\u0107": 4221, "\u2581realizowane": 4222, "\u2581Krzy\u017c": 4223, "\u2581Qu": 4224, "\\": 4225, "da\u0142": 4226, "\u2581J\u00f3zefa": 4227, "\u2581Aby": 4228, "cin": 4229, "cal": 4230, "\u2581gospodarczych": 4231, "\u2581Muzeum": 4232, "\u2581mal": 4233, "mach": 4234, "zji": 4235, "bin": 4236, "\u2581ukry": 4237, "\u2581wsparcie": 4238, "\u2581procesie": 4239, "\u2581prowadzi\u0142": 4240, "\u2581wro": 4241, "\u2581g\u0142\u00f3wnym": 4242, "des": 4243, "uro": 4244, "\u2581duch": 4245, "fu": 4246, "\u2581polsko": 4247, "\u2581Ban": 4248, "\u2581R\u00f3wnie\u017c": 4249, "\u2581\u017cebym": 4250, "\u2581przysz\u0142o\u015b\u0107": 4251, "pan": 4252, "i\u0105": 4253, "tyczn\u0105": 4254, "\u017cyli": 4255, "\u25811944": 4256, "CH": 4257, "st\u0119": 4258, "\u2581ge": 4259, "\u2581S\u0105d": 4260, "\u2581\u017cadne": 4261, "\u2581lewej": 4262, "rt": 4263, "\u2581stos": 4264, "\u2581post\u0119powa\u0144": 4265, "\u2581ministerstwa": 4266, "\u2581rz\u0105dowej": 4267, "\u2581ca": 4268, "\u2581osobom": 4269, "\u2581op\u0142aty": 4270, "\u2581godzin\u0119": 4271, "mis": 4272, "\u2581nieu": 4273, "\u258154": 4274, "\u2581wiek": 4275, "\u2581Gor": 4276, "\u2581um": 4277, "\u2581my\u015bla\u0142": 4278, "taj": 4279, "\u2581sporz\u0105": 4280, "\u2581Tro": 4281, "\u258112.": 4282, "\u2581przeznaczone": 4283, "\u2581py": 4284, "\u2581Han": 4285, "\u2581publiczne": 4286, "\u2581si\u0142\u0105": 4287, "32": 4288, "88": 4289, "\u2581finansowej": 4290, "\u2581Chocia\u017c": 4291, "\u2581poprawce": 4292, "\u2581dokumenty": 4293, "\u2581uzna\u0107": 4294, "\u2581r\u0119kach": 4295, "\u2581(199": 4296, "\u2581Jeste\u015bmy": 4297, "\u2581wp\u0142ywu": 4298, "ako": 4299, "towego": 4300, "\u2581Obrony": 4301, "\u2581Stan\u00f3w": 4302, "\u2581\u015bwiadomo\u015bci": 4303, "\u2581wyst\u0105pi\u0142": 4304, "\u2581zarz\u0105du": 4305, "\u2581kot": 4306, "\u2581grupie": 4307, "\u2581odczu": 4308, "\u2581poczucie": 4309, "\u2581zapa": 4310, "\u2581bud": 4311, "\u2581nauk": 4312, "\u2581Ab": 4313, "wka": 4314, "\u2581funduszy": 4315, "\u2581informacja": 4316, "\u2581zapewnienia": 4317, "\u2581cz\u0142onek": 4318, "\u2581dra": 4319, "nku": 4320, "cza\u0107": 4321, "\u258156": 4322, "las": 4323, "ic": 4324, "\u2581europejskich": 4325, "\u2581chorych": 4326, "\u2581rezerwy": 4327, "bi\u0107": 4328, "\u2581auto": 4329, "\u2581wyst\u0105pienia": 4330, "dat": 4331, "\u2581Naprawd\u0119": 4332, "\u2581czar": 4333, "\u2581zdolno\u015bci": 4334, "\u2581oddech": 4335, "\u2581niew\u0105tpliwie": 4336, "mio": 4337, "\u2581mego": 4338, "\u2581r\u00f3wnocze\u015bnie": 4339, "cer": 4340, "\u2581ogromne": 4341, "\u2581wysokie": 4342, "\u2581wsch\u00f3d": 4343, "\u2581podstaw": 4344, "\u2581pisma": 4345, "kle": 4346, "sis": 4347, "\u2581trudem": 4348, "bur": 4349, "raj": 4350, "\u2581s\u0142o\u0144ce": 4351, "\u2581Peter": 4352, "tali": 4353, "praw": 4354, "\u2581z\u0119by": 4355, "kow\u0105": 4356, "\u2581ur": 4357, "\u2581oddzia\u0142y": 4358, "\u2581zach\u00f3d": 4359, "\u2581jakiego": 4360, "\u2581wyj\u015bcia": 4361, "\u2581w\u0142a\u015bciwy": 4362, "jach": 4363, "\u2581niezb\u0119dne": 4364, "\u2581zwierz\u0119": 4365, "\u2581terminu": 4366, "\u2581W\u015br\u00f3d": 4367, "\u2581nieba": 4368, "\u2581ad": 4369, "tus": 4370, "\u2581dobrym": 4371, "\u2581pe\u0142n\u0105": 4372, "\u2581wod\u0105": 4373, "\u2581morza": 4374, "\u2581krzy": 4375, "Li": 4376, "lacji": 4377, "\u2581zazwyczaj": 4378, "\u2581brzmi": 4379, "ist": 4380, "si\u0142": 4381, "dor": 4382, "\u2581Paul": 4383, "\u2581wynagrodze\u0144": 4384, "\u2581Zwi\u0105zek": 4385, "\u2581wy\u017csze": 4386, "\u2581przepraszam": 4387, "\u2581pozycj\u0119": 4388, "\u2581Zanim": 4389, "\u2581po\u0142owy": 4390, "\u2581pr\u00f3by": 4391, "\u2581S\u0142u": 4392, "\u2581dodatkowych": 4393, "\u2581sp\u0119": 4394, "\u2581obrotu": 4395, "#": 4396, "\u2581prawdy": 4397, "poli": 4398, "ance": 4399, "\u2581uj": 4400, "\u2581pracuje": 4401, "\u2581radio": 4402, "lam": 4403, "\u2581przysz\u0142o": 4404, "\u2581Dzie\u0144": 4405, "\u2581okno": 4406, "\u2581FC": 4407, "\u0105c\u0105": 4408, "\u2581momentu": 4409, "\u2581ograni": 4410, "wiaj\u0105": 4411, "\u2581sprowa": 4412, "\u2581zamiesz": 4413, "\u2581mistrz": 4414, "\u2581konie": 4415, "\u2581odrzucenie": 4416, "skach": 4417, "\u2581szkolenia": 4418, "\u2581chodzi\u0142o": 4419, "\u2581Michael": 4420, "m\u0119": 4421, "\u2581roze": 4422, "\u2581Os": 4423, "\u2581lubi": 4424, "\u2581d\u017awi\u0119k": 4425, "dra": 4426, "\u2581Kazimierz": 4427, "\u2581policji": 4428, "\u2581rozm\u00f3w": 4429, "ownik\u00f3w": 4430, "owia": 4431, "79": 4432, "gnie": 4433, "\u2581der": 4434, "\u2581interes\u00f3w": 4435, "nar": 4436, "\u2581forma": 4437, "\u2581zapisy": 4438, "\u2581rozporz\u0105dzenie": 4439, "\u2581w\u0119": 4440, "\u258141": 4441, "\u2581wyp\u0142a": 4442, "\u2581kapitan": 4443, "Wy": 4444, "\u2581dochody": 4445, "\u2581politycznej": 4446, "\u2581Hol": 4447, "\u2581straty": 4448, "\u2581r\u0119ku": 4449, "\u2581samorz\u0105d\u00f3w": 4450, "wami": 4451, "\u2581znajdzie": 4452, "\u2581Kat": 4453, "\u2581zwi\u0105zk\u00f3w": 4454, "\u2581problemem": 4455, "\u2581op\u0142a": 4456, "\u00c4": 4457, "\u2581starego": 4458, "tycznym": 4459, "\u2581pat": 4460, "\u2581czele": 4461, "\u2581nale\u017c\u0105": 4462, "stej": 4463, "ls": 4464, "\u0435": 4465, "towi": 4466, "\u2581ministrowi": 4467, "stych": 4468, "\u2581dru": 4469, "\u2581Stu": 4470, "owcy": 4471, "\u2581p\u0142yn": 4472, "czy\u0142o": 4473, "\u2581okre\u015blenia": 4474, "\u2581pocho": 4475, "\u2581Rad": 4476, "\u2581r\u0119ka": 4477, "\u2581zapewnia": 4478, "\u2581okre\u015blenie": 4479, "\u2581niemiecki": 4480, "\u2581Tor": 4481, "\u2581operacji": 4482, "\u2581snu": 4483, "\u2581Wiesz": 4484, "dnej": 4485, "\u2581hu": 4486, "stycznej": 4487, "84": 4488, "\u2581osob\u0119": 4489, "nis": 4490, "\u2581zamku": 4491, "\u2581Henryk": 4492, "\u2581smu": 4493, "dz\u0105c": 4494, "\u2581zd": 4495, "\u2581stale": 4496, "\u2581obni": 4497, "cona": 4498, "\u2581uk\u0142adu": 4499, "liwe": 4500, "\u2581pis": 4501, "\u2581pismo": 4502, "\u2581utrzymania": 4503, "\u2581kiedykolwiek": 4504, "niejsza": 4505, "\u2581Pragn\u0119": 4506, "nuje": 4507, "\u2581prawej": 4508, "\u2581zwi": 4509, "\u2581niemo\u017cliwe": 4510, "\u2581zachowanie": 4511, "\u2581istocie": 4512, "\u2581spojrza\u0142a": 4513, "mann": 4514, "anta": 4515, "\u2581danego": 4516, "\u2581Wkr\u00f3tce": 4517, "\u2581polityczne": 4518, "\u2581Najpierw": 4519, "\u2581Czyli": 4520, "kowo": 4521, "\u2581stopie\u0144": 4522, "\u2581S\u0105du": 4523, "kowskiego": 4524, "\u2581p\u00f3\u0142noc": 4525, "\u258185": 4526, "cono": 4527, "77": 4528, "\u2581przyszed\u0142": 4529, "\u2581rodzina": 4530, "\u2581dalsze": 4531, "\u2581b\u00f3lu": 4532, "towany": 4533, "i\u0107": 4534, "\u2581prowadzenie": 4535, "\u2581wykorzystania": 4536, "ownik": 4537, "Co": 4538, "\u2581dalszym": 4539, "\u2581Kto\u015b": 4540, "\u2581doprowadzi\u0107": 4541, "\u2581zwo": 4542, "lus": 4543, "\u2581resortu": 4544, "?\"": 4545, "\u2581wprawdzie": 4546, "\u2581mierze": 4547, "\u2581wyrazami": 4548, "Re": 4549, "la\u0107": 4550, "mier": 4551, "szt": 4552, "\u2581lekarzy": 4553, "\u2581og\u00f3lnej": 4554, "\u2581faktu": 4555, "gn": 4556, "\u2581(17": 4557, "tacja": 4558, "\u2581czytania": 4559, "\u2581zacz\u0119li": 4560, "stem": 4561, "\u2581tele": 4562, "\u2581miesi\u0105ce": 4563, "\u010d": 4564, "\u2581upraw": 4565, "\u2581wi\u0105\u017ce": 4566, "\u2581Europejskiego": 4567, "\u2581cyt": 4568, "\u2581mog\u0142aby": 4569, "\u2581model": 4570, "\u2581rozsze": 4571, "d\u0142a": 4572, "\u2581pe\u0142nym": 4573, "\u2581Druga": 4574, "ell": 4575, "\u2581Mog\u0119": 4576, "\u25811985": 4577, "ill": 4578, "\u2581Izba": 4579, "\u2581dow\u00f3dca": 4580, "\u2581poko": 4581, "\u2581tymczasem": 4582, "\u2581zato": 4583, "\u2581Ham": 4584, "\u2581Pierwsza": 4585, "\u2581zobowi\u0105za\u0144": 4586, "\u25811981": 4587, "li\u0142a": 4588, "\u2581wiadomo\u015b\u0107": 4589, "\u2581kolejno\u015bci": 4590, "\u2581klasyfikacji": 4591, "\u2581pary": 4592, "\u2581potrafi\u0142": 4593, "kan": 4594, "lono": 4595, "\u0142a\u015b": 4596, "\u2581Hal": 4597, "91": 4598, "\u2581karnego": 4599, "\u2581wypadek": 4600, "\u2581sensu": 4601, "\u2581widzie\u0107": 4602, "\u2581tekst": 4603, "\u2581tonem": 4604, "\u2581Pow": 4605, "\u2581\u015bwi": 4606, "\u2581istnienia": 4607, "\u2581w\u0142a": 4608, "dnego": 4609, "31": 4610, "\u2581wesz\u0142a": 4611, "\u2581Kr\u00f3l": 4612, "tymi": 4613, "dnym": 4614, "bro": 4615, "\u2581zaj\u0105\u0107": 4616, "enia": 4617, "\u2581chc\u0105c": 4618, "\u2581rozpozna": 4619, "\u2581oficer": 4620, "\u2581pos\u0142u": 4621, "\u2581Karol": 4622, "\u2581zgod\u0119": 4623, "\u2581trzecie": 4624, "\u2581marsza\u0142ka": 4625, "\u2581jednak\u017ce": 4626, "\u2581poinformowa\u0107": 4627, "stycznego": 4628, "alnie": 4629, "\u2581ostatnio": 4630, "\u2581t\u0142um": 4631, "ni\u0119ta": 4632, "\u2581Izbie": 4633, "leniu": 4634, "\u2581Dzi": 4635, "\u2581ogie\u0144": 4636, "\u2581wielka": 4637, "\u2581genera\u0142": 4638, "\u25817,": 4639, "\u2581uzna\u0142": 4640, "\u2581absolutnie": 4641, "\u2581bazy": 4642, "\u2581obja": 4643, "at\u00f3w": 4644, "dzimy": 4645, "\u2581\u015bpie": 4646, "ak\u00f3w": 4647, "conych": 4648, "\u2581nast\u0119pnego": 4649, "ci\u0105": 4650, "\u0142aby": 4651, "\u25811987": 4652, "\u2581ka\u017cd\u0105": 4653, "\u2581materia\u0142": 4654, "\u2581czyn": 4655, "cze\u0144stwo": 4656, "\u2581ostro\u017cnie": 4657, "\u2581Brytanii": 4658, "\u0144ca": 4659, "\u2581\u0142\u00f3\u017cku": 4660, "\u2581\u017cywno\u015bci": 4661, "\u2581Taki": 4662, "owa\u0144": 4663, "\u25812)": 4664, "\u2581Program": 4665, "owa\u0142am": 4666, "anin": 4667, "\u2581ma\u0142a": 4668, "\u2581urz\u0105dzenia": 4669, "\u2581odpowiednich": 4670, "\u00f3d": 4671, "\u2581relacji": 4672, "\u2581powa\u017cne": 4673, "\u2581wym": 4674, "\u2581budynk\u00f3w": 4675, "\u2581Ram": 4676, "\u2581odrzu": 4677, "ci\u0119": 4678, "rej": 4679, "\u2581urz\u0105dze\u0144": 4680, "\u25811982": 4681, "\u2581Wiele": 4682, "\u2581pa\u0144stwowej": 4683, "\u2581Win": 4684, "\u2581\u015bci\u015ble": 4685, "\u2581list\u0119": 4686, "kra": 4687, "):": 4688, "\u2581plany": 4689, "\u2581materia\u0142u": 4690, "\u2581zgo": 4691, "han": 4692, "\u2581Fran": 4693, "\u2581Trzy": 4694, "\u2581mistrzostwach": 4695, "kro": 4696, "\u2581za\u0142o\u017cenia": 4697, "\u2581rozkaz": 4698, "ld": 4699, "rg": 4700, "\u2581p\u00f3\u0142nocy": 4701, "na\u0142": 4702, "\u2581s\u0142u\u017cy\u0107": 4703, "\u2581bud\u017cetowych": 4704, "lot": 4705, "rali": 4706, "\u2581paru": 4707, "\u2581sto\u0142u": 4708, "\u258152": 4709, "\u2581masy": 4710, "\u2581przepisach": 4711, "\u2581media": 4712, "\u2581David": 4713, "\u2581palce": 4714, "\u2581wyci\u0105gn\u0105\u0142": 4715, "\u2581poszczeg\u00f3lne": 4716, "\u2581czeka\u0142": 4717, "rz\u0105d": 4718, "\u2581Administracji": 4719, "\u2581got\u00f3w": 4720, "\u2581doktora": 4721, "\u2581Publicznych": 4722, "pre": 4723, "\u2581trudne": 4724, "Q": 4725, "\u2581siedzib\u0105": 4726, "\u2581Val": 4727, "\u015bci\u0142": 4728, "\u2581wyborach": 4729, "\u2581Ojciec": 4730, "\u2581odnie\u015b\u0107": 4731, "\u2581pacjent\u00f3w": 4732, "\u2581uwadze": 4733, "\u2581zada\u0107": 4734, "\u2581lud": 4735, "szy\u0142a": 4736, "\u2581Fundusz": 4737, "\u2581bry": 4738, "\u2581wi\u0119kszej": 4739, "\u2581uczucia": 4740, "\u2581kredyt\u00f3w": 4741, "\u2581Cho\u0107": 4742, "\u2581nos": 4743, "zer": 4744, "tona": 4745, "\u25811986": 4746, "\u2581Dwa": 4747, "\u2581dobro": 4748, "wia\u0142a": 4749, "lli": 4750, "\u2581programy": 4751, "\u2581gruncie": 4752, "iar": 4753, "\u2581dobr\u0105": 4754, "\u2581umo\u017cliwia": 4755, "\u2581zwi\u0105zany": 4756, "\u2581znajdowa\u0142": 4757, "\u2581wyp": 4758, "\u2581dziewczyny": 4759, "\u2581dobrego": 4760, "\u2581czeka\u0107": 4761, "\u2581Rob": 4762, "\u2581Tre": 4763, "\u2581dzie\u0142a": 4764, "niono": 4765, "\u2581pro\u015bb\u0105": 4766, "tura": 4767, "\u2581wygl\u0105da\u0142": 4768, "pi\u0119": 4769, "\u2581leczenia": 4770, "200": 4771, "lie": 4772, "\u2581przyzna\u0107": 4773, "\u2581organizacyjne": 4774, "\u2581\u0142y": 4775, "cz\u0105cy": 4776, "87": 4777, "anow": 4778, "\u2581konkuren": 4779, "szko": 4780, "niec": 4781, "83": 4782, "\u2581opowiada": 4783, "her": 4784, "\u2581Bob": 4785, "\u2581po\u0142o": 4786, "\u2581zwi\u0119k": 4787, "\u2581obecnych": 4788, "\u2581spe\u0142nia": 4789, "\u2581Bru": 4790, "\u2581Sk": 4791, "\u2581Ed": 4792, "\u2581pozna\u0107": 4793, "\u2581zna\u0142": 4794, "rego": 4795, "lew": 4796, "\u2581biura": 4797, "\u0105cej": 4798, "pem": 4799, "dzki": 4800, "\u2581dotk": 4801, "\u2581ubezpieczenia": 4802, "szczenia": 4803, "\u2581Bal": 4804, "kin": 4805, "lacja": 4806, "\u2581up": 4807, "\u2581z\u0142e": 4808, "\u2581porz\u0105dek": 4809, "niona": 4810, "\u2581dole": 4811, "\u2581przedstawi\u0142": 4812, "\u2581okre\u015bli\u0107": 4813, "\u2581--": 4814, "\u2581wskaza\u0107": 4815, "\u2581zarz\u0105dzania": 4816, "gon": 4817, "\u014d": 4818, "\u25811984": 4819, "\u25811)": 4820, "ville": 4821, "\u2581obli": 4822, "\u2581ple": 4823, "\u2581Polskich": 4824, "\u2581ducha": 4825, "\u2581wyj\u015b\u0107": 4826, "styczna": 4827, "47": 4828, "\u2581odcinku": 4829, "\u2581przerwa\u0142": 4830, "\u2581ostrze": 4831, "\u2581nag": 4832, "\u2581\u0141u": 4833, "\u2581kan": 4834, "\u2581pozosta\u0142e": 4835, "\u2581wykonanie": 4836, "\u2581budzi": 4837, "\u2581ch\u0119tnie": 4838, "\u2581Ds": 4839, "ranie": 4840, "\u2581wej\u015b\u0107": 4841, "\u2581zrozumia\u0142": 4842, "\u2581czo\u0142o": 4843, "\u2581fil": 4844, "\u2581trzyma\u0142": 4845, "\u2581utrzymanie": 4846, "\u2581Mia\u0142a": 4847, "\u2581Ur": 4848, "\u2581pocz": 4849, "\u2581t\u0142u": 4850, "\u2581porozumienia": 4851, "\u2581powinni": 4852, "\u2581osi\u0105gni\u0119cia": 4853, "czce": 4854, "\u2581Wewn\u0119trznych": 4855, "71": 4856, "\u2581kla": 4857, "gach": 4858, "ion": 4859, "\u2581zap": 4860, "\u2581czyni": 4861, "niku": 4862, "\u2581zaprze": 4863, "dzia\u0142": 4864, "Pa": 4865, "\u2581Polsk\u0119": 4866, "\u2581kor": 4867, "\u2581tryb": 4868, "\u2581kaza\u0142": 4869, "82": 4870, "\u2581rzecz\u0105": 4871, "\u2581tworzy": 4872, "\u2581ZUS": 4873, "\u2581podj\u0119cia": 4874, "\u2581drzwiach": 4875, "s\u0142aw": 4876, "\u201320": 4877, "\u2581Dzi\u015b": 4878, "\u2581bra": 4879, "pad": 4880, "\u2581sur": 4881, "67": 4882, "\u2581grup\u0119": 4883, "\u2581niekiedy": 4884, "\u2581cen\u0119": 4885, "\u2581du\u017ca": 4886, "\u2581powy\u017csze": 4887, "\u2581bierze": 4888, "\u2581czarne": 4889, "\u2581nieprawid\u0142": 4890, "\u2581Pewnie": 4891, "czak": 4892, "\u2581Chcia\u0142em": 4893, "roni": 4894, "\u2581adres": 4895, "\u2581ch\u0142op": 4896, "mana": 4897, "\u2581obozu": 4898, "\u2581przewo": 4899, "\u2581sprawdzi\u0107": 4900, "\u2581sir": 4901, "\u2581woda": 4902, "\u2581wysz\u0142a": 4903, "\u2581Rozdzia\u0142": 4904, "ces": 4905, "\u2581Zesp\u00f3\u0142": 4906, "\u2581naro": 4907, "\u2581gospodarczego": 4908, "\u2581skarb": 4909, "\u2581zwracam": 4910, "\u2581korzy\u015bci": 4911, "\u258113.": 4912, "\u2581wiary": 4913, "\u2581Instytutu": 4914, "\u2581w\u0142asny": 4915, "net": 4916, "\u2581zako\u0144czona": 4917, "\u2581pt": 4918, "\u2581walce": 4919, "rum": 4920, "\u2581instytucje": 4921, "\u2581maj\u0105ce": 4922, "\u2581przemys\u0142": 4923, "\u2581gospodarstw": 4924, "\u2581orze": 4925, "\u2581powie\u015bci": 4926, "\u2581Tru": 4927, "\u2581po\u015bwi\u0119": 4928, "nowa": 4929, "\u2581wysta": 4930, "\u2581sub": 4931, "niejszym": 4932, "\u2581tysi\u0105ce": 4933, "\u2581przyj": 4934, "\u2581zabezpieczenia": 4935, "\u2581w\u0142a\u015bciciel": 4936, "\u2581zako": 4937, "iego": 4938, "\u2581studi\u00f3w": 4939, "\u2581Szanowna": 4940, "\u2581rzek\u0142a": 4941, "\u2581postanowi\u0142": 4942, "nionego": 4943, "\u2581tamtej": 4944, "\u2581\u017cadnym": 4945, "\u2581faktycznie": 4946, "\u2581funkcje": 4947, "liwie": 4948, "\u2581Ger": 4949, "\u2581umiej\u0119tno\u015bci": 4950, "\u2581musisz": 4951, "\u2581punkcie": 4952, "\u2581wp\u0142ywem": 4953, "\u2581Lista": 4954, "ela": 4955, "\u2581zmieni": 4956, "\u2581Chcia\u0142abym": 4957, "Ro": 4958, "\u2581dziwne": 4959, "\u2581zad": 4960, "\u2581ban": 4961, "\u2581pyta": 4962, "\u2581ser": 4963, "szczenie": 4964, "\u2581udzie": 4965, "\u2581zadaniem": 4966, "\u2581pojazd\u00f3w": 4967, "dzaj\u0105": 4968, "\u2581fe": 4969, "rych": 4970, "\u2581Paw\u0142a": 4971, "\u2581turnieju": 4972, "red": 4973, "\u2581ilu": 4974, "\u2581zwi\u0119kszenia": 4975, "43": 4976, "\u2581przest\u0119pstwa": 4977, "\u2581Senatorze": 4978, "\u2581nacisn\u0105\u0107": 4979, "\u2581Jaki": 4980, "\u2581Przypominam": 4981, "\u2581rozmawia\u0107": 4982, "\u2581interpelacji": 4983, "\u2581\u015ble": 4984, "\u2581wojna": 4985, "Mi": 4986, "\u2581jakich\u015b": 4987, "\u2581Mc": 4988, "\u2581\u017car": 4989, "EN": 4990, "a\u0142u": 4991, "69": 4992, "\u2581brzmienie": 4993, "odc": 4994, "kn\u0119\u0142a": 4995, "\u25811920": 4996, "\u2581komi": 4997, "OS": 4998, "\u2581Richard": 4999, "\u2581l\u0105d": 5000, "\u2581VII": 5001, "\u2581ostatniego": 5002, "\u2581naprz\u00f3d": 5003, "\u2581Pytanie": 5004, "\u0144czy": 5005, "\u2581Aleksander": 5006, "\u2581kilometr\u00f3w": 5007, "\u2581zali": 5008, "\u2581psycho": 5009, "\u2581Polskie": 5010, "\u2581Stan": 5011, "\u2581po\u017cy": 5012, "\u2581Piotra": 5013, "zach": 5014, "mon": 5015, "\u2581granic\u0105": 5016, "\u2581ryb": 5017, "\u2581widz\u0105c": 5018, "\u2581zmieni\u0142": 5019, "\u2581Rzeczywi\u015bcie": 5020, "\u2581Podsekretarz": 5021, "\u2581okolicy": 5022, "\u2581Eu": 5023, "\u2581dosta\u0107": 5024, "ord": 5025, "wen": 5026, "\u2581Nauk": 5027, "\u2581Grupa": 5028, "\u2581zobowi\u0105zania": 5029, "\u2581Nazwa": 5030, "wiaj\u0105c": 5031, "\u2581osob\u0105": 5032, "\u2581ciemno\u015bci": 5033, "\u2581potwier": 5034, "\u2581naukowych": 5035, "\u2581zaku": 5036, "\u2581Mas": 5037, "\u2581utwor\u00f3w": 5038, "\u2581podstawowe": 5039, "\u2581wsta\u0142": 5040, "\u2581chocia\u017cby": 5041, "wska": 5042, "\u2581poci\u0105g": 5043, "\u2581uwa\u017cnie": 5044, "\u2581Pozycja": 5045, "\u258153": 5046, "\u2581pocz\u0105tek": 5047, "\u2581dysku": 5048, "\u2581Kas": 5049, "\u2581narodowych": 5050, "pach": 5051, "\u2581dzia\u0142o": 5052, "\u2581pok\u0142ad": 5053, "gla": 5054, "\u2581ujaw": 5055, "onych": 5056, "\u2581Andrzeja": 5057, "\u2581starych": 5058, "ont": 5059, "\u2581strachu": 5060, "muje": 5061, "\u2581dzia\u0142a\u0107": 5062, "\u2581nazwiska": 5063, "zuje": 5064, "eli": 5065, "\u2581ci\u0105g": 5066, "pt": 5067, "pi\u0107": 5068, "\u2581trzyma": 5069, "\u2581prowincji": 5070, "\u2581\u015bwiet": 5071, "\u2581przyjdzie": 5072, "\u2581album": 5073, "asi": 5074, "\u2581obszar\u00f3w": 5075, "49": 5076, "uj\u0105c": 5077, "\u25811983": 5078, "\u2581Zie": 5079, "\u2581polityka": 5080, "\u2581Martin": 5081, "\u2581zamiar": 5082, "\u2581Pary\u017cu": 5083, "\u2013200": 5084, "nin": 5085, "\u2581spokoju": 5086, "\u2581resort": 5087, "\u2581zaba": 5088, "\u0142ad": 5089, "\u2581Nowym": 5090, "\u2581grunt\u00f3w": 5091, "\u2581wojskowych": 5092, "\u2581stosuje": 5093, "rab": 5094, "\u2581serdecznie": 5095, "\u2581zazna": 5096, "\u2581Sezon": 5097, "\u2581staro": 5098, "\u2581zw": 5099, "\u2581Bieg": 5100, "\u2581historia": 5101, "\u2581ognia": 5102, "\u2581krajowych": 5103, "\u2581organizacje": 5104, "\u2581miesi\u0105c": 5105, "\u2581zakon": 5106, "\u2581urz\u0105d": 5107, "\u2581kole": 5108, "NA": 5109, "\u2581W\u0142adys\u0142aw": 5110, "\u2581zmniej": 5111, "\u2581znaczeniu": 5112, "ning": 5113, "\u2581Wojciech": 5114, "\u2581Kim": 5115, "pla": 5116, "\u2581powszechnie": 5117, "-10": 5118, "\u2581bezpiecze\u0144stwo": 5119, "\u2581wiecz\u00f3r": 5120, "\u2581ulega": 5121, "\u2581\u015bredniej": 5122, "\u015bnia": 5123, "\u2581telefon": 5124, "\u2581przerwy": 5125, "\u2581r\u00f3\u017cni": 5126, "\u2581120": 5127, "\u2581dar": 5128, "\u2581prawny": 5129, "\u2581sze\u015bciu": 5130, "\u2581krok\u00f3w": 5131, "\u2581kol": 5132, "\u2581szefa": 5133, "\u2581XVIII": 5134, "burg": 5135, "osa": 5136, "OP": 5137, "\u2581Mi\u0119dzy": 5138, "bili": 5139, "\u2581zapach": 5140, "atem": 5141, "\u2581dzisiejszego": 5142, "\u2581\u015brodowisko": 5143, "\u2581Dia": 5144, "dle": 5145, "\u2581\u015bnie": 5146, "\u2581\u017byd\u00f3w": 5147, "cza\u0142y": 5148, "\u2581plac\u00f3wki": 5149, "\u2581zawodowej": 5150, "\u2581Ali": 5151, "\u2581(20": 5152, "k\u0142": 5153, "\u2581przekszta\u0142": 5154, "\u2581konsul": 5155, "\u2581koni": 5156, "\u2581zawartych": 5157, "p\u0142a": 5158, "\u2581skry": 5159, "\u2581pocz\u0105tkowo": 5160, "\u2581przyczyny": 5161, "\u2581plecami": 5162, "\u2581pogl\u0105d": 5163, "\u2581cisza": 5164, "\u2581sp\u00f3\u0142dzielni": 5165, "skiemu": 5166, "\u2581polityk\u0119": 5167, "\u2581Najwy\u017cszej": 5168, "\u2581ziem": 5169, "\u2581Plan": 5170, "\u2581osi\u0105g": 5171, "don": 5172, "\u2581nadziei": 5173, "sza\u0107": 5174, "tyki": 5175, "\u2581lepsze": 5176, "\u2581s\u0142o": 5177, "\u25812,5": 5178, "\u2581zmar\u0142": 5179, "skami": 5180, "\u2581typ": 5181, "\u2581Prokuratura": 5182, "\u2581Banku": 5183, "\u2581opa": 5184, "\u2581istoty": 5185, "\u2581serii": 5186, "rowa\u0107": 5187, "\u2581geo": 5188, "jne": 5189, "\u2581oddzia\u0142": 5190, "\u2581odno\u015bnie": 5191, "\u2581utrzyma\u0107": 5192, "anami": 5193, "two": 5194, "\u2581powstanie": 5195, "zacj\u0119": 5196, "\u2581gmin\u0119": 5197, "\u2581g\u0142osie": 5198, "ong": 5199, "\u2581o\u017cy": 5200, "j\u00f3w": 5201, "gno": 5202, "\u2581wszystkimi": 5203, "twa": 5204, "\u2581filmu": 5205, "\u2581sprzed": 5206, "\u2581powr\u00f3ci\u0142": 5207, "\u2581samorz\u0105dy": 5208, "\u2581trybu": 5209, "d\u0142": 5210, "\u2581m\u0119\u017cczy\u017ani": 5211, "\u2581racji": 5212, "\u2581maj\u0105cych": 5213, "\u2581obj\u0105\u0142": 5214, "rac": 5215, "\u2581pomy": 5216, "alna": 5217, "\u2581pracach": 5218, "\u2581nosi": 5219, "ent\u00f3w": 5220, "kla": 5221, "\u2581jednostka": 5222, "\u2581lokalnych": 5223, "\u2581W\u0142o": 5224, "\u2581g\u0142\u00f3wny": 5225, "\u2581Polsk\u0105": 5226, "\u2581g\u00f3rze": 5227, "\u2581et": 5228, "\u2581Wielki": 5229, "wanego": 5230, "si\u0107": 5231, "\u2581Szu": 5232, "\u2581odpowiedzia\u0142a": 5233, "\u2581s\u0142ucha": 5234, "\u2581nast\u0105pi\u0142o": 5235, "\u2581***": 5236, "\u258114.": 5237, "\u2581Sprawiedliwo\u015b\u0107": 5238, "wam": 5239, "by\u015bmy": 5240, "Ja": 5241, "\u2581post\u0119powaniu": 5242, "\u2581macie": 5243, "\u2581Moja": 5244, "\u2581mog\u0142oby": 5245, "\u0118": 5246, "\u2581obecno\u015b\u0107": 5247, "\u2581zarz\u0105d": 5248, "km": 5249, "\u2581Cz\u0119\u015b\u0107": 5250, "\u2581budynek": 5251, "lski": 5252, "\u2581teren\u00f3w": 5253, "\u2581dokumentu": 5254, "pa\u0107": 5255, "\u2581dobrej": 5256, "\u2581dz": 5257, "\u2581cokolwiek": 5258, "\u2581ch\u0142opca": 5259, "\u2581tydzie\u0144": 5260, "anek": 5261, "\u2581napisa\u0142": 5262, "\u2581wyja\u015bni\u0142": 5263, "\u2581wysoki": 5264, "\u2581Saint": 5265, "\u2581r\u0119kami": 5266, "\u2581groma": 5267, "\u2581Urz\u0105d": 5268, "\u2581pozwoli\u0107": 5269, "\u2581Lan": 5270, "\u2581urz\u0119d\u00f3w": 5271, "\u2581Komisje": 5272, "\u2581prawd\u0105": 5273, "63": 5274, "\u2581tysi\u0105c": 5275, "\u2581usiad\u0142": 5276, "\u2581Ameryki": 5277, "\u2581(10": 5278, "\u2581przekonany": 5279, "\u2581Dz": 5280, "\u2581zak\u0142ada": 5281, "\u2581Don": 5282, "\u2581przygotowanie": 5283, "nom": 5284, "\u2581dowie": 5285, "\u2581Marcin": 5286, "\u258115.": 5287, "\u2581sezon": 5288, "mat": 5289, "\u2581Kam": 5290, "\u2581marsza\u0142ku": 5291, "\u2581parafii": 5292, "lera": 5293, "\u2581wyra": 5294, "\u2581zabi\u0107": 5295, "\u2581zdo\u0142a\u0142": 5296, "\u017cem": 5297, "\u2581prokurator": 5298, "\u2581s\u0142ysza\u0142": 5299, "\u2581wskaza\u0142": 5300, "\u2581Er": 5301, "\u2581przekona\u0107": 5302, "\u2581po\u0142udniu": 5303, "\u2581pozosta\u0142": 5304, "\u2581plan\u00f3w": 5305, "\u2581Gal": 5306, "\u2581specjalnych": 5307, "\u2581wydarze\u0144": 5308, "\u25811918": 5309, "\u2581konkurencji": 5310, "\u0144stwa": 5311, "\u2581milczeniu": 5312, "\u2581rozumie": 5313, "\u2581Rz\u0105du": 5314, "\u2581lasu": 5315, "\u2581dosta\u0142": 5316, "\u2581Dom": 5317, "\u2581danym": 5318, "\u2581histori\u0119": 5319, "\u2581Jas": 5320, "\u2581Cal": 5321, "\u017cono": 5322, "\u2581mowy": 5323, "le\u0144": 5324, "\u2581Zbigniew": 5325, "\u2581pracownicy": 5326, "uch": 5327, "\u2581g\u0142\u00f3wnych": 5328, "\u2581programie": 5329, "rin": 5330, "TA": 5331, "mal": 5332, "\u2581ksi\u0119": 5333, "\u2581mro": 5334, "\u2581specjali": 5335, "\u2581zachowa\u0107": 5336, "\u2581ruchem": 5337, "\u2581oskar": 5338, "\u2581pr\u00f3b": 5339, "\u2581wybuch": 5340, "\u2581zg\u0142asza": 5341, "\u2581wiedzieli": 5342, "ryn": 5343, "naj": 5344, "sta\u0142": 5345, "\u2581niekt\u00f3rzy": 5346, "\u2581Uwagi": 5347, "?)": 5348, "\u2581win": 5349, "\u2581nau": 5350, "\u2581Poznaniu": 5351, "\u2581pil": 5352, "\u2581nieruchomo\u015b\u0107": 5353, "ik": 5354, "\u2581brwi": 5355, "\u2581wydaw": 5356, "\u2581\u0141odzi": 5357, "dzonego": 5358, "rowi": 5359, "tery": 5360, "\u2581chcia\u0142abym": 5361, "stru": 5362, "\u2581rodzice": 5363, "\u2581wyobrazi\u0107": 5364, "\u2581lek\u00f3w": 5365, "\u2581Roman": 5366, "CZ": 5367, "\u2581Bri": 5368, "\u2581produk": 5369, "p\u00f3w": 5370, "\u2581uni": 5371, "-17": 5372, "niejsz\u0105": 5373, "\u2581Cz\u0119sto": 5374, "\u2581uwa\u017ca\u0142": 5375, "\u2581warunkiem": 5376, "\u2581niezbyt": 5377, "\u2581zdoby": 5378, "\u2581dro": 5379, "62": 5380, "\u2581zwyci\u0119": 5381, "\u0142om": 5382, "\u2581Zna": 5383, "wione": 5384, "\u2581wiedz\u0119": 5385, "\u2581debaty": 5386, "\u2581znale\u017ali": 5387, "\u2581plac\u00f3wek": 5388, "a\u0142oby": 5389, "\u2581ministrem": 5390, "\u2581regu\u0142y": 5391, "\u2581robi\u0142": 5392, "81": 5393, "\u2581chwila": 5394, "\u2581dwukrotnie": 5395, "\u2581Moje": 5396, "gle": 5397, "\u2581System": 5398, "\u2581urz\u0105": 5399, "\u2581teorii": 5400, "\u2581nieruchomo": 5401, "\u2581sk\u00f3ry": 5402, "\u2581zawodu": 5403, "towania": 5404, "\u2581skin\u0105\u0142": 5405, "nionej": 5406, "\u2581gatunk\u00f3w": 5407, "\u2581en": 5408, "\u2581wbrew": 5409, "\u2581pos": 5410, "\u2581Radzie": 5411, "\u2581pisze": 5412, "\u2581sk\u0142adzie": 5413, "\u2581kroki": 5414, "\u2581opu\u015bci\u0142": 5415, "\u2581Jerzego": 5416, "\u2581wy\u017cszych": 5417, "\u2581Problem": 5418, "\u2581Harry": 5419, "\u2581dam": 5420, "\u2581Jean": 5421, "\u2581wojew\u00f3dztw": 5422, "\u2581gor": 5423, "\u2581Konstytucyjnego": 5424, "\u2581dotycz\u0105cy": 5425, "\u2581kontrol\u0119": 5426, "\u2581zmierza": 5427, "\u2581Kilka": 5428, "\u2581nast\u0105pi": 5429, "\u2581wzbu": 5430, "\u2581przyrody": 5431, "\u2581kontrakt": 5432, "\u2581z\u0142ego": 5433, "\u2581sek": 5434, "\u2581Ale\u017c": 5435, "\u2581Kodeks": 5436, "lizacja": 5437, "\u015bmie": 5438, "\u2581rozpoczyna": 5439, "\u2581nazw\u0105": 5440, "\u2581czuje": 5441, "\u2581two": 5442, "\u2581wskutek": 5443, "\u2581wyra\u017ca": 5444, "rym": 5445, "\u258157": 5446, "AM": 5447, "\u2581przestrze": 5448, "szono": 5449, "ar\u0142": 5450, "s\u0142y": 5451, "\u2581twoja": 5452, "\u2581nast\u0119pne": 5453, "\u2581proponuj\u0119": 5454, "\u2581planie": 5455, "\u2581spotkaniu": 5456, "nionym": 5457, "\u2581dodatkowo": 5458, "tru": 5459, "\u2581rejestru": 5460, "\u2581Jezus": 5461, "\u2581prawnym": 5462, "\u2581James": 5463, "\u2581dyspozycji": 5464, "\u2581zastosowanie": 5465, "\u2581skar": 5466, "\u2581Sal": 5467, "\u2581przebieg": 5468, "\u2581Stefan": 5469, "\u2581Can": 5470, "wier": 5471, "\u2581strach": 5472, ")\"": 5473, "\u2581zainteresowania": 5474, "zem": 5475, "\u2581zas": 5476, "letni": 5477, "stami": 5478, "mit": 5479, "bami": 5480, "\u2581\u0141o": 5481, "\u2581Londynie": 5482, "\u2581kara": 5483, "ian": 5484, "\u2581przekonaniu": 5485, "ras": 5486, "\u017cna": 5487, "\u2581Parlamentarnego": 5488, "\u2581wia": 5489, "\u258151": 5490, "\u2581swoimi": 5491, "\u2581zap\u0142a": 5492, "\u2581Henry": 5493, "\u2581organu": 5494, "\u2581ciemno": 5495, "\u2581Skarb": 5496, "anowi": 5497, "\u2581Dob": 5498, "\u2581sukces": 5499, "\u2581zjawiska": 5500, "\u2581pobytu": 5501, "\u2581finansowego": 5502, "\u2581wynikaj\u0105cych": 5503, "\u25811919": 5504, "ung": 5505, "\u2581sygna": 5506, "har": 5507, "Sz": 5508, "\u2581dziedzi": 5509, "\u2581stwo": 5510, "daj": 5511, "\u2581najwa\u017cniejsze": 5512, "\u2581zbie": 5513, "\u2581nast\u0119pnym": 5514, "tam": 5515, "\u2581stworzenia": 5516, "towym": 5517, "\u2581Drugi": 5518, "\u2581szcz\u0119\u015bcia": 5519, "\u2581przemy": 5520, "\u2581jazdy": 5521, "41": 5522, "\u2581XVI": 5523, "\u2581uczyni\u0107": 5524, "dzaj\u0105c": 5525, "niami": 5526, "\u2581sporo": 5527, "\u017conej": 5528, "\u2581otwarte": 5529, "?...": 5530, "rona": 5531, "ci\u0105g": 5532, "kowa\u0142": 5533, "\u2581prezent": 5534, "\u2581Park": 5535, "\u2581sezonu": 5536, "\u2581szczerze": 5537, "\u2581ubo": 5538, "\u2581przyjaciel": 5539, "Ka": 5540, "\u2581wychowania": 5541, "nia\u0142a": 5542, "bat": 5543, "\u2581w\u0142a\u015bciwe": 5544, "\u2581zamy": 5545, "lon\u0105": 5546, "\u2581materia\u0142y": 5547, "\u2581Janusz": 5548, "\u2581s\u0142ab": 5549, "\u2581stosunki": 5550, "\u2581proste": 5551, "\u2581chrze\u015bcija": 5552, "\u2581wyg": 5553, "ts": 5554, "\u2581post\u0119p": 5555, "\u00f3\u0142": 5556, "\u2581wy\u0142o": 5557, "\u2581ju": 5558, "ade": 5559, "\u2581jedyny": 5560, "rani": 5561, "\u0142o\u015b\u0107": 5562, "\u2581pozytywnie": 5563, "\u017ceni": 5564, "\u2581Pas": 5565, "\u2581Obie": 5566, "\u2581charakteru": 5567, "\u2581Kro": 5568, "b\u0105": 5569, "\u2581widzia\u0142a": 5570, "ryj": 5571, "\u2581Oni": 5572, "\u2581Marka": 5573, "AC": 5574, "\u25811972": 5575, "try": 5576, "\u2581szed\u0142": 5577, "dzieli": 5578, "\u2581p\u00f3j\u015b\u0107": 5579, "\u2581stosunkowo": 5580, "tha": 5581, "\u2581Ter": 5582, "\u2581okr\u0105": 5583, "\u2581uko\u0144czy\u0142": 5584, "\u2581s\u0142u\u017cbie": 5585, "\u2581le\u017ca\u0142": 5586, "\u2581dzieckiem": 5587, "\u2581przyby": 5588, "\u2581si\u0142\u0119": 5589, "\u2581Jednym": 5590, "\u2581Jacek": 5591, "pi\u0105": 5592, "\u2581dziewi\u0119\u0107": 5593, "\u2581strona": 5594, "II": 5595, "\u25811976": 5596, "IS": 5597, "ora": 5598, "\u2581odbi": 5599, "\u2581rejonie": 5600, "\u2581analiz": 5601, "\u2581kszta\u0142cie": 5602, "\u015bla": 5603, "\u2581wyb\u00f3r": 5604, "\u2581osi\u0105gn\u0105\u0107": 5605, "\u2581daw": 5606, "\u2581\u0142atwiej": 5607, "\u2581Otwieram": 5608, "\u2581\u017ceby\u015b": 5609, "\u2581stru": 5610, "stycznym": 5611, "\u2581Com": 5612, "\u2581zmu": 5613, "ye": 5614, "\u2581sia": 5615, "\u2581naru": 5616, "ns": 5617, "\u2581wykorzysta\u0107": 5618, "\u2581twoim": 5619, "\u2581pomy\u015bla\u0142a": 5620, "\u2581Paw": 5621, "\u2581(3": 5622, "\u2581s\u0142u\u017cb\u0119": 5623, "\u2581stopy": 5624, "\u2581granicach": 5625, "\u2581\u017beby": 5626, "42": 5627, "\u2581Pal": 5628, "lom": 5629, "wny": 5630, "\u2581krzy\u017c": 5631, "\u2581tygodnie": 5632, "nne": 5633, "\u2581Trybuna\u0142": 5634, "\u2581pe\u0142ni\u0142": 5635, "ford": 5636, "\u2581niedawno": 5637, "dzania": 5638, "\u2581dyskusja": 5639, "\u2581muzyki": 5640, "\u2581spo\u0142eczno\u015bci": 5641, "bal": 5642, "\u2581status": 5643, "\u2581Sprawa": 5644, "\u2581oddzia\u0142u": 5645, "\u2581mor": 5646, "\u2581c\u00f3rki": 5647, "\u2581Ve": 5648, "\u2581dotycz\u0105c\u0105": 5649, "\u2581Antoni": 5650, "\u25811968": 5651, "gr": 5652, "\u2581powt\u00f3rzy\u0142": 5653, "\u2581bia\u0142e": 5654, "\u2581Bre": 5655, "\u2581wa\u017cny": 5656, "\u2581Mart": 5657, "\u2581stworzenie": 5658, "\u25811970": 5659, "\u2581mn\u00f3stwo": 5660, "\u2581trans": 5661, "\u2581porz\u0105d": 5662, "\u2581okre\u015blony": 5663, "\u2581Warto": 5664, "\u2581dodatku": 5665, "\u2581przyj\u0119te": 5666, "\u2581szpitala": 5667, "\u2581o\u015bwiadczy\u0142": 5668, "\u2581poprawk\u0105": 5669, "\u2581m\u0119\u017cczyzny": 5670, "\u2581zagadnienia": 5671, "\u017cny": 5672, "ra\u017c": 5673, "\u2581rozmow\u0119": 5674, "\u2581funkcjonariuszy": 5675, "\u2581gwiazd": 5676, "\u2581Uniwersytecie": 5677, "\u2581winy": 5678, "\u2581do\u015bwiad": 5679, "\u2581funkcjonowanie": 5680, "\u2581fizycznych": 5681, "\u2581W\u00f3wczas": 5682, "jesz": 5683, "\u2581gdybym": 5684, "mienia": 5685, "\u2581lek": 5686, "\u2581poj\u0119cie": 5687, "\u2581190": 5688, "ownie": 5689, "\u2581oczywiste": 5690, "\u2581m\u00f3w": 5691, "\u25811978": 5692, "\u2581s\u0142y": 5693, "\u2581szybciej": 5694, "\u2581prosi\u0107": 5695, "\u2581ocenia": 5696, "\u2581poprawy": 5697, "\u2581Edward": 5698, "\u2581from": 5699, "trzy": 5700, "\u2581zast\u0119p": 5701, "\u2581ewentualnie": 5702, "\u2581pojawi\u0142y": 5703, "\u2581pojawi\u0142a": 5704, "\u2581powr\u00f3t": 5705, "\u2581kontakt": 5706, "\u2581koncepcji": 5707, "\u2581s\u0142": 5708, "\u2581Wyniki": 5709, "kali": 5710, "\u2581ustalenia": 5711, "\u017cy\u0142y": 5712, "\u2581artyku\u0142u": 5713, "61": 5714, "cznik": 5715, "\u2581ledwie": 5716, "\u2581spotka\u0107": 5717, "oba": 5718, "\u2581utra": 5719, "\u2581dwudziestu": 5720, "\u2581ma\u0142ej": 5721, "\u2581Hor": 5722, "\u2581wa\u017cna": 5723, "\u2581m\u0142odzie\u017c": 5724, "\u2581Kie": 5725, "\u2581Jedno": 5726, "\u2581\u017co\u0142nierze": 5727, "\u2581ubezpiecze\u0144": 5728, "\u2581przekracza": 5729, "\u2581regionu": 5730, "owskich": 5731, "\u2581wierzy": 5732, "ni\u0119ciem": 5733, "Do": 5734, "\u25811973": 5735, "\u2581samochod\u00f3w": 5736, "port": 5737, "Mar": 5738, "wek": 5739, "\u2581Z\u0142o": 5740, "\u2581przekaza\u0107": 5741, "\u2581obszaru": 5742, "\u2581duchu": 5743, "\u2581Demokratycznej": 5744, "\u2581Prezydium": 5745, "\u2581pami\u0119\u0107": 5746, "\u2581s\u0119dzi\u00f3w": 5747, "\u2581wodzie": 5748, "\u2581zgodzi\u0142": 5749, "lonego": 5750, "ire": 5751, "\u2581Fer": 5752, "\u2581\u017con\u0119": 5753, "alnym": 5754, "\u2581przej": 5755, "\u2581stare": 5756, "\u2581c\u00f3rka": 5757, "\u25811975": 5758, "\u2581ma\u0142\u0105": 5759, "\u2581trzydzie\u015bci": 5760, "\u2022": 5761, "KS": 5762, "\u2581del": 5763, "\u2581obecny": 5764, "\u2581grudniu": 5765, "\u2581zako\u0144czy\u0142": 5766, "wi\u0142o": 5767, "-16": 5768, "\u2581zle": 5769, "\u2581zbior": 5770, "\u2581Opr\u00f3cz": 5771, "\u2581podoba": 5772, "car": 5773, "\u2581dochodzi": 5774, "dz\u0105ce": 5775, "\u2581pog": 5776, "\u2581oddzia\u0142\u00f3w": 5777, "\u2581sportu": 5778, "\u2581start": 5779, "OM": 5780, "\u25811979": 5781, "cielem": 5782, "\u2581wydanie": 5783, "\u2581zak\u0142adu": 5784, "\u2581posta": 5785, "\u2581aby\u015bmy": 5786, "ow\u0119": 5787, "\u2581o\u015bwiet": 5788, "rzy\u0142y": 5789, "\u2581wypowied\u017a": 5790, "\u2581Aleksandra": 5791, "\u2581czerwcu": 5792, "\u2581pi\u0119": 5793, "\u2581kru": 5794, "menty": 5795, "\u2581og\u00f3\u0142": 5796, "\u25811975\u20131998": 5797, "\u2581bur": 5798, "\u2581podzie": 5799, "\u2581cz\u0119\u015bciej": 5800, "\u2581tradycji": 5801, "dowe": 5802, "\u2581z\u0142ota": 5803, "\u2581Mnie": 5804, "\u2581hrabstwie": 5805, "\u2581Musi": 5806, "\u2581odpad\u00f3w": 5807, "\u2581j\u0119": 5808, "\u2581zbli": 5809, "\u2581Marii": 5810, "jami": 5811, "liny": 5812, "\u25818,": 5813, "\u2581tekstu": 5814, "\u2581godzinie": 5815, "\u2581akt\u00f3w": 5816, "\u2581r\u00f3\u017cnego": 5817, "\u2581\u015awi\u0119tego": 5818, "\u00b1": 5819, "rzona": 5820, "\u2581sk\u0142adek": 5821, "rywa": 5822, "czo\u015bci": 5823, "\u2581Wynik": 5824, "anina": 5825, "\u2581pomi": 5826, "\u2581k\u0142opoty": 5827, "\u2581podwy\u017c": 5828, "niom": 5829, "ban": 5830, "ker": 5831, "z\u00f3w": 5832, "\u2581maj": 5833, "\u2581\u017con\u0105": 5834, "\u2581Grand": 5835, "\u2581przypadk\u00f3w": 5836, "\u2581zbli\u017ca": 5837, "\u2581podzia\u0142": 5838, "\u2581Przede": 5839, "\u258158": 5840, "\u2581proc": 5841, "\u2581licznych": 5842, "\u2581\u015blady": 5843, "\u2581zapis\u00f3w": 5844, "\u2581bra\u0142": 5845, "\u2581ksi\u0105\u017cek": 5846, "\u2581Zagranicznych": 5847, "\u2581cud": 5848, "\u2581okr\u0119": 5849, "\u2581zza": 5850, "\u2581finansowanie": 5851, "\u2581Lin": 5852, "\u2581ex": 5853, "OL": 5854, "\u2581parlamentu": 5855, "\u2581ci\u0119\u017car": 5856, "\u2581wybor\u00f3w": 5857, "\u2581w\u0142asno\u015b\u0107": 5858, "\u2581w\u00f3d": 5859, "\u2581cywilnego": 5860, "pki": 5861, "\u2581Zawodnik": 5862, "owne": 5863, "czar": 5864, "\u2581zasad\u0119": 5865, "\u2581wynikiem": 5866, "\u2581dyrektywy": 5867, "\u2581transport": 5868, "nt": 5869, "\u2581podobny": 5870, "\u2581William": 5871, "\u2581twarz\u0105": 5872, "\u2581doprowa": 5873, "\u2581gospodarstwa": 5874, "los": 5875, "\u2581fragment": 5876, "\u2581Dan": 5877, "si\u0105": 5878, "\u2581zakaz": 5879, "\u2581ch\u0142opak": 5880, "\u2581korzysta\u0107": 5881, "\u2581Cu": 5882, "\u015ble": 5883, "\u2581pa\u0142acu": 5884, "\u2581nikomu": 5885, "\u2581przedstawione": 5886, "trze": 5887, "cza\u0142a": 5888, "owice": 5889, "\u2581Rad\u0119": 5890, "\u2581Mark": 5891, "tow\u0105": 5892, "\u2581pogo": 5893, "\u2581wi\u0119kszy": 5894, "\u2581okaza\u0142": 5895, "\u2581dow\u00f3dcy": 5896, "\u2581Sar": 5897, "lizm": 5898, "\u2581pe\u0142": 5899, "\u2581zdra": 5900, "\u2581Far": 5901, "\u2581Kali": 5902, "La": 5903, "\u2581specjalnie": 5904, "\u2581ko\u0144czy": 5905, "jny": 5906, "\u2581naby": 5907, "\u2581dow\u00f3d": 5908, "\u2581inter": 5909, "\u2581zgodne": 5910, "\u2581far": 5911, "\u2581stosunek": 5912, "\u2581banku": 5913, "\u2581Jakub": 5914, "tuj\u0105": 5915, "\u2581patrze\u0107": 5916, "\u2581Towarzystwa": 5917, "\u2581zag": 5918, "\u2581podj\u0119cie": 5919, "szeniu": 5920, "vel": 5921, "\u2581kilkana\u015bcie": 5922, "sek": 5923, "\u2581sumie": 5924, "\u2581tzn": 5925, "\u2581poto": 5926, "\u2581Odpowiadaj\u0105c": 5927, "\u2581wycof": 5928, "rus": 5929, "caj\u0105c": 5930, "\u258164": 5931, "\u2581styczniu": 5932, "\u2581M\u00f3wi": 5933, "\u2581podatkowych": 5934, "\u2581Niekt\u00f3re": 5935, "\u2581m\u00f3zgu": 5936, "\u017ce\u0144": 5937, "all": 5938, "\u2581rz\u0105d\u00f3w": 5939, "\u2581\u0142zy": 5940, "\u2581stronach": 5941, "\u2581dziesi\u0119ciu": 5942, "\u2581Legislacyjne": 5943, "\u2581Rejonowa": 5944, "\u2581Mac": 5945, "cyjnymi": 5946, "\u2581\u017cadna": 5947, "\u2581zda": 5948, "\u2581przewi": 5949, "\u2581oszcz\u0119dno\u015bci": 5950, "\u2581po\u0142\u0105czenia": 5951, "rzyli": 5952, "\u2581b\u0119d\u0105c": 5953, "\u2581g\u0142osowaniu": 5954, "\u2581piechoty": 5955, "\u2581Br": 5956, "\u2581obowi\u0105zuj\u0105cych": 5957, "\u2581pochy": 5958, "\u2581z\u0142o\u017cy\u0142": 5959, "\u2581Brak": 5960, "\u2581drzwiami": 5961, "\u2581rezerw": 5962, "\u2581mi\u0119": 5963, "\u2581Niemniej": 5964, "\u2581Lud": 5965, "\u2581spotka\u0144": 5966, "\u2581system\u00f3w": 5967, "\u017cej": 5968, "\u2581m\u00f3wili": 5969, "\u2581kul": 5970, "\u2581komu": 5971, "\u2581powi\u0119k": 5972, "\u2581zwi\u0105zki": 5973, "\u2581pali": 5974, "\u2581zapewnienie": 5975, "-15": 5976, "\u2581Dor": 5977, "\u2581Hiszpanii": 5978, "\u2581maju": 5979, "\u2581podstaw\u0119": 5980, "\u2581dotycz\u0105cego": 5981, "\u2581powodzi": 5982, "An": 5983, "\u2581zabierze": 5984, "\u2581am": 5985, "\u2581Krzy": 5986, "\u2581zaszczyt": 5987, "\u2581bla": 5988, "\u2581pod\u0142odze": 5989, "nia\u0107": 5990, "\u2581Woj": 5991, "\u2581Cz\u0142owiek": 5992, "\u2581pe\u0142nej": 5993, "\u2581Mel": 5994, "\u2581zagro\u017cenie": 5995, "\u2581uni\u00f3s\u0142": 5996, "\u2581pok\u0142adzie": 5997, "\u2581nauczania": 5998, "dziemy": 5999, "\u2581wiedzia\u0142em": 6000, "\u2581poprzednich": 6001, "\u2581Nowo": 6002, "\u2581wstrzyma\u0142o": 6003, "\u25811974": 6004, "\u2581Min": 6005, "\u2581zako\u0144czenie": 6006, "\u2581oku": 6007, "ant\u00f3w": 6008, "\u2581wyja\u015bnienie": 6009, "\u017cne": 6010, "torzy": 6011, "\u2581des": 6012, "\u2581opera": 6013, "\u2581otacza": 6014, "\u2581opie": 6015, "\u2581Konstytucji": 6016, "\u2581Max": 6017, "set": 6018, "\u258116.": 6019, "\u2581rz\u0105dowego": 6020, "\u2581maszyn": 6021, "\u2581sztu": 6022, "\u2581Char": 6023, "\u2581sposobem": 6024, "\u2581ozna": 6025, "\u2581ograniczenie": 6026, "cel": 6027, "rzonych": 6028, "\u2581Powiedzia\u0142": 6029, "\u2581zaj\u0119cia": 6030, "\u2581nieraz": 6031, "\u2581wystawi": 6032, "\u2581elementem": 6033, "\u2581przywo": 6034, "ys": 6035, "\u2581wrze\u015bniu": 6036, "lle": 6037, "\u2581wynikaj\u0105ce": 6038, "\u2581gazu": 6039, "jnych": 6040, "towane": 6041, "ni\u0142y": 6042, "tycznie": 6043, "\u2581wolno\u015b\u0107": 6044, "mia\u0142": 6045, "\u2581mieszka\u0144": 6046, "\u2581stwierdza": 6047, "\u2581polsk\u0105": 6048, "\u2581zasada": 6049, "WE": 6050, "\u2581potrzebna": 6051, "\u2581wraca": 6052, "\u2581my\u015bl\u0105": 6053, "\u2581cechy": 6054, "\u2581\u015brodek": 6055, "\u25811960": 6056, "\u2581bywa": 6057, "\u2581zab": 6058, "iz": 6059, "szonych": 6060, "\u015bciu": 6061, "\u2581Las": 6062, "wili": 6063, "\u2581zainteresowanie": 6064, "\u2581poprzedniego": 6065, "\u2581patrzy": 6066, "\u2581przeprowadzenia": 6067, "\u2581Film": 6068, "\u2581(5": 6069, "\u2581VIII": 6070, "\u2581nast\u0119pnych": 6071, "cz\u0105cych": 6072, "\u2581wymienionych": 6073, "\u2581narze": 6074, "\u2581ana": 6075, "\u2581rozum": 6076, "\u2581krzyk": 6077, "\u2581sercu": 6078, "\u2581podmiot": 6079, "\u2581uczucie": 6080, "wna": 6081, "lum": 6082, "\u2581tacy": 6083, "\u2581dostos": 6084, "\u2581p\u0142ac": 6085, "\u2581podstawowej": 6086, "z\u0105": 6087, "\u2581takimi": 6088, "\u2581wi\u0119kszych": 6089, "\u2581soli": 6090, "ens": 6091, "\u2581kampanii": 6092, "\u2581rado\u015bci": 6093, "\u2581\u017ar\u00f3d\u0142o": 6094, "\u2581producent\u00f3w": 6095, "\u258120.": 6096, "\u2581spo\u0142ecze\u0144stwo": 6097, "\u2581napis": 6098, "\u2581przyzna\u0142": 6099, "\u2581Thomas": 6100, "gni": 6101, "\u2581znalaz\u0142y": 6102, "\u2581ud": 6103, "\u2581Pos\u0142a": 6104, "\u2581pi\u0119kna": 6105, "\u2581Kru": 6106, "\u2581fo": 6107, "bry": 6108, "\u2581zdoby\u0107": 6109, "lizmu": 6110, "\u2581straci\u0142": 6111, "\u2581l\u0119": 6112, "\u2581Liczba": 6113, "\u2581ma\u0142ym": 6114, "jna": 6115, "\u2581s\u0142a": 6116, "iem": 6117, "\u2581terenu": 6118, "\u2581przypad": 6119, "\u2581medycznych": 6120, "ue": 6121, "\u2581artyku\u0142\u00f3w": 6122, "\u2581Narodowy": 6123, "nion\u0105": 6124, "czania": 6125, "\u2581karier\u0119": 6126, "\u2581Tyle": 6127, "\u2581Instytut": 6128, "\u2581przewidy": 6129, "\u2581przygotowa\u0107": 6130, "\u2581budownictwa": 6131, "\u0142ki": 6132, "\u2581wojew\u00f3dzkich": 6133, "alnej": 6134, "\u2581wa\u017c": 6135, "\u2581przychodzi": 6136, "anii": 6137, "\u2581dok\u0105d": 6138, "ise": 6139, "strze": 6140, "laj\u0105c": 6141, "s\u0142u": 6142, "\u2581Hel": 6143, "\u2581Va": 6144, "\u2581nieo": 6145, "\u2581niebie": 6146, "\u2581opinia": 6147, "\u2581gatunek": 6148, "\u2581ma\u0142ego": 6149, "daj\u0105": 6150, "\u2581Zach\u00f3d": 6151, "\u2581by\u0142am": 6152, "\u25811943": 6153, "\u2581aktywno\u015bci": 6154, "KA": 6155, "\u2581nadz\u00f3r": 6156, "\u2581\u017cyciem": 6157, "pier": 6158, "styczn\u0105": 6159, "\u2581czu\u0142a": 6160, "\u2581z\u0142y": 6161, "\u2581\u015bli": 6162, "\u2581przyjaciela": 6163, "\u2581stanowi\u0107": 6164, "\u2581prawdziwe": 6165, "\u2581wi\u0119ksza": 6166, "\u2581zastanowi\u0107": 6167, "\u2581kier": 6168, "rze\u0144": 6169, "\u2581chu": 6170, "\u2581przewodnicz\u0105ca": 6171, "\u2581siedzi": 6172, "\u2581niemieckich": 6173, "Mo": 6174, "\u2581okiem": 6175, "\u2581przyczyn\u0105": 6176, "\u2581wr\u00f3ci": 6177, "\u2581trzeciej": 6178, "\u2581sprz\u0119tu": 6179, "val": 6180, "\u2581wyrazy": 6181, "gam": 6182, "\u2581Przyj": 6183, "\u2581Kancelarii": 6184, "\u2581klucz": 6185, "\u2581granic\u0119": 6186, "\u2581ch\u0142opiec": 6187, "\u2581pocie": 6188, "\u2581By\u0142em": 6189, "\u2581m\u0142odego": 6190, "\u2581r\u0119": 6191, "\u0144c\u00f3w": 6192, "\u2581\u0142ago": 6193, "\u2581oficer\u00f3w": 6194, "\u2581stworzy\u0107": 6195, "\u2581firma": 6196, "\u2581gospodarce": 6197, "\u2581przeciwny": 6198, "\u2581mia\u0142am": 6199, "\u2581trzeciego": 6200, "\u2581dzie\u0107mi": 6201, "szewski": 6202, "\u2581okr\u0119gu": 6203, "\u2581World": 6204, "\u2581stara\u0142": 6205, "\u2581kandydat\u00f3w": 6206, "\u2581hotelu": 6207, "\u2581rz\u0105dowym": 6208, "\u2581Hen": 6209, "\u2581Wroc\u0142aw": 6210, "ruje": 6211, "\u2581dzisiejszym": 6212, "lnymi": 6213, "\u2581poda\u0142": 6214, "\u0142ek": 6215, "\u258195": 6216, "\u2581zro": 6217, "\u2581funkcjonuje": 6218, "\u2581logi": 6219, "szli": 6220, "dek": 6221, "\u2581Del": 6222, "\u2581nadzor": 6223, "\u2581pisa\u0142": 6224, "\u2581francuski": 6225, "\u2581za\u0142o": 6226, "\u2581mru": 6227, "\u2581profesora": 6228, "\u2581wychodzi": 6229, "\u2581stawia": 6230, "\u2581Czer": 6231, "\u2581potrzeb\u0119": 6232, "grafii": 6233, "\u25811977": 6234, "\u2581mieszka\u0144cy": 6235, "\u2581Prezesa": 6236, "\u2581przedmiotowej": 6237, "\u2581przer": 6238, "\u2581Chrystusa": 6239, "\u2581konsultacji": 6240, "\u2581uwzgl\u0119dnia": 6241, "\u2581Polacy": 6242, "\u2581krokiem": 6243, "\u2581skr\u0119": 6244, "\u2581ust\u0119p": 6245, "\u258110,": 6246, "\u2581obaj": 6247, "\u2581dyplom": 6248, "\u2581narodowego": 6249, "\u017e": 6250, "\u2581pop": 6251, "\u2581zna\u0107": 6252, "\u2581miastach": 6253, "unk": 6254, "\u2581pokaza\u0107": 6255, "\u2581przedmiot": 6256, "\u2581Nowa": 6257, "\u2581kolej": 6258, "\u2581oznajmi\u0142": 6259, "\u2581szuka": 6260, "\u2581przeciwdzia\u0142": 6261, "\u2581cech": 6262, "\u2581Jorku": 6263, "\u2581granic": 6264, "\u2581najlepsze": 6265, "\u2581Two": 6266, "\u2581obawy": 6267, "\u2581\u017cywo": 6268, "\u2581pasa": 6269, "\u2581twojej": 6270, "asy": 6271, "\u2581gitara": 6272, "\u2581ca\u0142o\u015b\u0107": 6273, "\u25811941": 6274, "\u2581tk": 6275, "\u2581\u015blad": 6276, "\u2581Pos\u0142owie": 6277, "\u2581sze": 6278, "gania": 6279, "\u2581oczyma": 6280, "\u2581Bry": 6281, "\u2581zaw": 6282, "\u2581zajmowa\u0142": 6283, "\u2581dru\u017cyny": 6284, "\u2581ochron\u0119": 6285, "\u2581z\u0142o\u017cy\u0107": 6286, "\u2581Wielka": 6287, "\u2581szyi": 6288, "\u2581student\u00f3w": 6289, "\u2581\u015bmiechem": 6290, "\u2581klas": 6291, "\u015bl": 6292, "\u2581nieprze": 6293, "\u2581braci": 6294, "\u2581obecnym": 6295, "zio": 6296, "\u2581Zak": 6297, "\u2581oszcz\u0119": 6298, "\u2581Inne": 6299, "\u2581Bank": 6300, "\u2581hi": 6301, "\u2581cywi": 6302, "akiem": 6303, "kry": 6304, "\u2581skierowa\u0142": 6305, "\u2581trafi\u0142": 6306, "\u2581g\u0119": 6307, "\u2581Miasto": 6308, "\u2581arty": 6309, "s\u0142o": 6310, "\u2581deszcz": 6311, "\u2581musia\u0142y": 6312, "\u2581Mo\u017cemy": 6313, ":1": 6314, "\u2581port": 6315, "\u2581Brze": 6316, "\u2581konferencji": 6317, "\u2581starannie": 6318, "\u258112,": 6319, "\u2581stopniowo": 6320, "\u2581Jaka": 6321, "czam": 6322, "\u2581przedsi\u0119wzi\u0119cia": 6323, "\u2581\u015brodkami": 6324, "\u2581tematy": 6325, "\u2581ramieniu": 6326, "sor": 6327, "\u2581wojskowej": 6328, "\u25812:": 6329, "\u2581tr\u00f3j": 6330, "\u2581stopni": 6331, "ies": 6332, "\u2581uwaga": 6333, "sel": 6334, "\u2581zak\u0142ady": 6335, "\u2581spo\u017cy": 6336, "\u2581spowoduje": 6337, "\u2581pragnie": 6338, "\u2581mniejsze": 6339, "\u2581morze": 6340, "\u2581powsta\u0142y": 6341, "\u2581podatk\u00f3w": 6342, "\u2581Pozna\u0144": 6343, "sona": 6344, "\u2581odby\u0142a": 6345, "nak": 6346, "\u2581brzeg": 6347, "\u2581ek": 6348, "\u2581Zmiana": 6349, "\u2581narzu": 6350, "\u25811940": 6351, "\u2581zjawisko": 6352, "nikach": 6353, "\u2581dobrych": 6354, "\u2581con": 6355, "\u2581klub\u00f3w": 6356, "\u2581powrocie": 6357, "cieli": 6358, "\u2581kolor": 6359, "\u2581Miasta": 6360, "\u2581znikn\u0105\u0142": 6361, "\u2581s\u0142owem": 6362, "\u2581towarzy": 6363, "\u2581unikn\u0105\u0107": 6364, "\u2581zbro": 6365, "dze\u0144": 6366, "\u2581naprzeciw": 6367, "\u2581materii": 6368, "prowa": 6369, "\u258159": 6370, "\u2581pe\u0142en": 6371, "\u2581r\u00f3\u017cnica": 6372, "\u2581odno": 6373, "\u2581podatek": 6374, "\u2581redak": 6375, "suje": 6376, "k\u0142y": 6377, "\u2581\u015bwi\u0105tyni": 6378, "\u2581try": 6379, "ci\u0142y": 6380, "\u2581postrze": 6381, "liwo\u015b\u0107": 6382, "\u2581Che": 6383, "\u2581tygodniu": 6384, "\u2581sp\u0142a": 6385, "\u2581zaproponowa\u0142": 6386, "\u2581pokaz": 6387, "\u2581stylem": 6388, "\u2581ran": 6389, "\u2581PR": 6390, "\u2581owa": 6391, "\u2581gwaran": 6392, "\u2581Cel": 6393, "\u2581pa\u0144stwie": 6394, "\u2581Ca\u0142y": 6395, "Prze": 6396, "\u2581zam": 6397, "\u2581spie": 6398, "\u2581przypadki": 6399, "\u2581lewo": 6400, "/0": 6401, "\u2581diab\u0142a": 6402, "\u2581po\u0142": 6403, "\u2581brakuje": 6404, "0)": 6405, "\u2581zawo": 6406, "\u2581Republiki": 6407, "r\u00f3\u017c": 6408, "prawa": 6409, "ou": 6410, "\u2581przekaz": 6411, "\u2581postanowienia": 6412, "rok": 6413, "\u2581pusty": 6414, "\u2581zacz\u0119\u0142o": 6415, "\u2581odby\u0142": 6416, "\u2581zrobi\u0142a": 6417, "leniem": 6418, "\u0442": 6419, "De": 6420, "\u2581jedyn\u0105": 6421, "\u017conego": 6422, "bus": 6423, "\u0440": 6424, "cent": 6425, "k\u0142ad": 6426, "\u2581dob": 6427, "entu": 6428, "\u2581B\u0119d\u0119": 6429, "\u2581Partii": 6430, "\u017cek": 6431, "\u2581kr\u00f3tkie": 6432, "\u2581zagro": 6433, "\u2581stanowi\u0142y": 6434, "\u2581Stanach": 6435, "lak": 6436, "\u2581misji": 6437, "ci\u0142em": 6438, "\u2581(16": 6439, "\u2581inform": 6440, "\u2581rad\u0119": 6441, "\u2581wybrany": 6442, "\u2581przedstawienia": 6443, "\u2581str": 6444, "\u2581wojn\u0119": 6445, "\u2581wymiaru": 6446, "\u2581\u015brodowisk": 6447, "\u2581przysz\u0142a": 6448, "lio": 6449, "\u2581kawa\u0142ek": 6450, "\u017ca\u0107": 6451, "\u2581kas": 6452, "\u2581As": 6453, "\u2581One": 6454, "obi": 6455, "\u2581opi": 6456, "\u2581ci\u0105gn\u0105\u0142": 6457, "\u2581wszcz\u0119cia": 6458, "cz\u0105ce": 6459, "\u2581do\u015bwiadczenie": 6460, "\u2581Los": 6461, "\u2581krajowej": 6462, "\u2581p\u0142ci": 6463, "\u2581bank\u00f3w": 6464, "\u2581ochot\u0119": 6465, "\u2581mili": 6466, "anna": 6467, "\u2581\u017cy\u0142": 6468, "\u2581spojrzeniem": 6469, "\u2581mog\u0142yby": 6470, "\u2581bra\u0107": 6471, "m\u0105": 6472, "\u2581Programu": 6473, "\u2581Gil": 6474, "\u2581wyj\u0105tkowo": 6475, "\u2581kapita\u0142u": 6476, "\u25811946": 6477, "\u2581subwencji": 6478, "\u2581artyku\u0142": 6479, "\u2581sch": 6480, "IN": 6481, "\u2581udost\u0119p": 6482, "\u2581199": 6483, "\u00ab": 6484, "lij": 6485, "\u2581Matki": 6486, "\u2581powi": 6487, "cha\u0142a": 6488, "\u2581niemieckiej": 6489, "\u2581za\u0142ogi": 6490, "ction": 6491, "muj\u0105c": 6492, "\u2581Pocz\u0105tkowo": 6493, "\u258162": 6494, "\u2581najlepszych": 6495, "\u2581zak\u0142adach": 6496, "\u2581praktyki": 6497, "kowa\u0107": 6498, "\u2581rocznie": 6499, "ght": 6500, "\u2581pisarz": 6501, "\u2581przypadek": 6502, "\u2581zwraca": 6503, "\u2581lipcu": 6504, "\u2581wi\u0119kszym": 6505, "\u2581kocha": 6506, "\u2581zawodach": 6507, "\u2581umow\u0119": 6508, "\u2581W\u0119": 6509, "nictwa": 6510, "\u2581kobiet\u0119": 6511, "\u2581dotar\u0142": 6512, "\u2581van": 6513, "\u017con\u0105": 6514, "\u2581wypad": 6515, "ga\u0107": 6516, "\u2581po\u015brednictwem": 6517, "\u2581g\u0142osowa\u0142o": 6518, "\u015ar\u00f3dmie\u015bcie": 6519, "\u2581kapita\u0142": 6520, "\u2581posu": 6521, "\u2581zwi\u0105zana": 6522, "logiczne": 6523, "\u2581Powiedz": 6524, "\u2581papier": 6525, "dowy": 6526, "ja\u0142": 6527, "\u258167": 6528, "\u2581s\u0142usznie": 6529, "\u2581Ubezpiecze\u0144": 6530, "\u25811956": 6531, "\u2581napi": 6532, "nictwo": 6533, "\u2581spa\u0107": 6534, "\u2581Niekt\u00f3rzy": 6535, "\u2581pracownika": 6536, "\u2581wzgl\u0119d\u00f3w": 6537, "\u2581Zosta": 6538, "\u2581kraje": 6539, "\u2581trafi": 6540, "\u2581pro\u015bb\u0119": 6541, "\u2581Matka": 6542, "\u2581opinie": 6543, "\u2581do\u0142\u0105": 6544, "\u2581stwier": 6545, "\u2581szczeg\u00f3\u0142owo": 6546, "\u2581Die": 6547, "\u2581Zach": 6548, "\u2581Wz": 6549, "\u2581Maj\u0105c": 6550, "\u2581gra\u0142": 6551, "NE": 6552, "\u2581IX": 6553, "\u2581Is": 6554, "\u2581zatwier": 6555, "\u2581dzie\u0142o": 6556, ".0": 6557, "\u2581Bla": 6558, "\u2581wyst\u0119powa\u0142": 6559, "nieniem": 6560, "ktor": 6561, "\u2581progu": 6562, "nieniu": 6563, "\u2581Jedna": 6564, "\u2581wzi\u0119\u0142a": 6565, "\u2581Czar": 6566, "\u2581obszary": 6567, "\u201318": 6568, "\u2581strategii": 6569, "czymy": 6570, "nos": 6571, "\u2581dostrzeg\u0142": 6572, "\u2581odrzek\u0142": 6573, "\u2581konkretne": 6574, "\u2581zd\u0105\u017cy\u0142": 6575, "\u2581SS": 6576, "\u2581zje": 6577, "\u2581sko\u0144czy": 6578, "\u2581Konkurencja": 6579, "van": 6580, "\u2581Samo": 6581, "czanie": 6582, "\u25811954": 6583, "\u2581dofinansowanie": 6584, "\u2581kr\u00f3tkim": 6585, "\u2581\u015bcian\u0119": 6586, "\u2581istotnie": 6587, "\u2581popiera": 6588, "\u2581po\u0142o\u017cy\u0142": 6589, "\u2581Ukrainy": 6590, "\u2581wierzy\u0107": 6591, "tuj\u0119": 6592, "\u2581wsp\u00f3\u0142prac": 6593, "\u2581Bezpiecze\u0144stwa": 6594, "\u2581\u015bcianie": 6595, "\u2581stamt\u0105d": 6596, "pe\u0142": 6597, "\u2581wyrob\u00f3w": 6598, "trz": 6599, "\u2581Stary": 6600, "\u2581palcami": 6601, "\u2581szczeg\u00f3\u0142owe": 6602, "\u25813)": 6603, "\u2581wydawa\u0142": 6604, "\u2581najszybciej": 6605, "\u2581nogami": 6606, "\u2581cu": 6607, "\u2581zaj\u0119\u0107": 6608, "\u2581ludzkie": 6609, "\u2581Infrastruktury": 6610, "niejszego": 6611, "\u2581kadry": 6612, "ci\u0142o": 6613, "\u2581nagrody": 6614, "\u00e1n": 6615, "\u2581aktu": 6616, "\u2581prywatne": 6617, "\u2581wyko": 6618, "\u2581wydarzenia": 6619, "wicza": 6620, "\u2581M\u00f3wi\u0119": 6621, "\u2581tw\u00f3r": 6622, "\u2581stolicy": 6623, "\u2581przy\u0142\u0105": 6624, "\u2581szko\u0142a": 6625, "\u258117.": 6626, "\u2581form\u0119": 6627, "\u25811000": 6628, "stawi": 6629, "\u2581Jezusa": 6630, "nia\u0142y": 6631, "\u2581genera\u0142a": 6632, "wanej": 6633, "gre": 6634, "\u2581interesy": 6635, "\u2581\u015bpi": 6636, "\u2581wskazuj\u0105": 6637, "\u2581wytwo": 6638, "\u2581wykaz": 6639, "cjon": 6640, "\u2581osobie": 6641, "\u2581porozmawia\u0107": 6642, "\u2581dalszej": 6643, "\u2581dziesi\u0105": 6644, "wiania": 6645, "\u2581kolo": 6646, "\u2581dawnych": 6647, "\u2581ludzkiej": 6648, "\u2581niegdy\u015b": 6649, "\u2581Lewicy": 6650, "\u2581West": 6651, "\u2581powstrzyma\u0107": 6652, "\u2581dotychczasowych": 6653, "\u2581przeze": 6654, "\u2581marcu": 6655, "\u2581opat": 6656, "\u2581zer": 6657, "\u2581Maciej": 6658, "\u2581zawod\u00f3w": 6659, "\u2581\u017ca": 6660, "\u2581kom\u00f3r": 6661, "\u2581poparcie": 6662, "\u2581XVII": 6663, "gii": 6664, "\u00f3\u017c": 6665, "\u2581zakup": 6666, "\u2581uzasadnienia": 6667, "\u2581wielko": 6668, "\u2581Ak": 6669, "\u258166": 6670, "\u2581g\u0142\u00f3wne": 6671, "\u2581zbrodni": 6672, "\u2581wyprze": 6673, "\u2581podobnych": 6674, "-023": 6675, "\u2581Sama": 6676, "\u2581stosowane": 6677, "szaj\u0105c": 6678, "\u258163": 6679, "\u2581paliw": 6680, "\u2581pu\u0142ku": 6681, "\u2581reakcji": 6682, "\u2581pyta\u0142": 6683, "ryt": 6684, "mi\u0142": 6685, "\u2581kierunek": 6686, "\u2581odszed\u0142": 6687, "\u2581zwierz\u0119ta": 6688, "\u2581cywilnej": 6689, "\u2581mia": 6690, "\u2581spotyka": 6691, "\u2581izby": 6692, "\u2581\u015bmierci\u0105": 6693, "\u2581tajemnicy": 6694, "\u2581miecz": 6695, "\u2581indywidualnych": 6696, "\u2581prokuratora": 6697, "\u2581Zo": 6698, "\u2581,,": 6699, "stein": 6700, "\u2581Euro": 6701, "\u2581wywie": 6702, "\u2581czuj\u0119": 6703, "\u2581s\u0142u\u017cy": 6704, "daj\u0105c": 6705, "pera": 6706, "\u2581koncer": 6707, "\u2581sta\u0142e": 6708, "\u2581CD": 6709, "\u2581walczy\u0107": 6710, "\u2581wie\u017cy": 6711, "\u2581pacjenta": 6712, "\u2581dosta": 6713, "\u2581zacz\u0105\u0107": 6714, "\u2581Kos": 6715, "\u0142ka": 6716, "\u2581Ludowej": 6717, "\u2581rozwija": 6718, "\u2581interesu": 6719, "\u2581Men": 6720, "\u2581Sportu": 6721, "\u2581stanowisk": 6722, "stanie": 6723, "\u2581sk\u0142adki": 6724, "\u258118.": 6725, "\u258168": 6726, "\u25811:0": 6727, "\u2581wyj": 6728, "\u2581organi": 6729, "gia": 6730, "pon": 6731, "gl": 6732, "\u2581papie": 6733, "\u25813:": 6734, "jan": 6735, "tta": 6736, "\u2581obr\u0119bie": 6737, "\u2581pobie": 6738, "\u2581sp\u00f3\u0142ka": 6739, "\u2581wydzie": 6740, "\u2581Znowu": 6741, "\u2581SP": 6742, "\u2581cie\u0144": 6743, "\u2581prowadz\u0105": 6744, "enta": 6745, "sta\u0142a": 6746, "to\u015b\u0107": 6747, "\u2581najwyra\u017aniej": 6748, "nera": 6749, "\u2581korzystania": 6750, "\u2581wsp\u00f3\u0142prac\u0119": 6751, "\u2581konsekwencje": 6752, "\u0142owie": 6753, "\u25811948": 6754, "ari": 6755, "\u2581Spojrza\u0142": 6756, "\u2581wi\u0105z": 6757, "\u2581wyroku": 6758, "\u2581Wielkiego": 6759, "\u2581zabezpie": 6760, "\u25811971": 6761, "\u2581mia\u0142by": 6762, "\u2581obywatel": 6763, "\u2581mono": 6764, "\u2581odby\u0142o": 6765, "\u2581Op": 6766, "alnego": 6767, "owskie": 6768, "\u2581tur": 6769, "\u2581eko": 6770, "\u2581synem": 6771, "\u2581And": 6772, "US": 6773, "\u2581imienia": 6774, "mentu": 6775, "\u2581sprzeda\u017c": 6776, "\u25811942": 6777, "\u2581Spacewatch": 6778, "\u2581obszarach": 6779, "rzeniem": 6780, "\u2581XII": 6781, "\u2581po\u0142udniowo": 6782, "\u2581wysy": 6783, "ux": 6784, "rane": 6785, "\u2581Grzegorz": 6786, "vin": 6787, "\u2581my\u015blenia": 6788, "\u2581chi": 6789, "\u2581Marian": 6790, "\u2581wier": 6791, "\u2581wyst\u0119p": 6792, "\u2581ustroju": 6793, "\u2581krwa": 6794, "\u2581emerytury": 6795, "\u2581nale\u017ca\u0142": 6796, "\u2581Spo\u0142ecznych": 6797, "Ar": 6798, "\u2581zwyczaj": 6799, "cyjno": 6800, "\u2581g\u0142owa": 6801, "\u043a": 6802, "logicznych": 6803, "05": 6804, "\u2581ramienia": 6805, "\u2581em": 6806, "\u2581sprzeda": 6807, "\u2581u\u015bmiechn\u0119\u0142a": 6808, "\u2581gospodarcze": 6809, "pali": 6810, "kaj\u0105c": 6811, "\u017ca\u0142": 6812, "\u2581zastrze": 6813, "\u2581Ryszard": 6814, "\u2581kart": 6815, "\u017cy\u0142em": 6816, "\u2581drzewo": 6817, "\u2581Wsi": 6818, "\u2581wygl\u0105da\u0142a": 6819, "\u2581mikro": 6820, "\u2581Moim": 6821, "rzeniu": 6822, "wali\u015bmy": 6823, "\u2581ziemia": 6824, "Wi": 6825, "\u2581sekund": 6826, "\u2581urz\u0119dnik\u00f3w": 6827, "\u017conym": 6828, "\u2581oprac": 6829, "\u2581wybi": 6830, "ston": 6831, "\u2581siostry": 6832, "czyka": 6833, "dowych": 6834, "na\u0107": 6835, "\u2581korzyst": 6836, "\u2581literatury": 6837, "\u2581nauk\u0119": 6838, "\u258174": 6839, "anach": 6840, "\u2581Adama": 6841, "dniej": 6842, "\u2581liczy": 6843, "\u2581posiadaj\u0105": 6844, "dzisz": 6845, "\u2581Mak": 6846, "b\u00f3w": 6847, "SZ": 6848, "sk\u00f3w": 6849, "\u2581psa": 6850, "\u2581sprawia": 6851, "\u2581spo\u0142ecznym": 6852, "\u2581sferze": 6853, "gal": 6854, "\u2581zasob\u00f3w": 6855, "\u2581dawniej": 6856, "\u2581realiz": 6857, "\u2581Nat": 6858, "\u2581zmniejszenie": 6859, "\u2581wa\u017cnych": 6860, "fra": 6861, "\u2581najwi\u0119cej": 6862, "\u2581chor\u00f3b": 6863, "\u2581wyb": 6864, "\u2581pozba": 6865, "zar": 6866, "\u2581Wiedzia\u0142": 6867, "\u2581karty": 6868, "\u2581kup": 6869, "\u258183": 6870, "\u2581na\u0142o": 6871, "wskiej": 6872, "\u258172": 6873, "\u25811969": 6874, "\u2581raport": 6875, "\u2581spadek": 6876, "\u2581uczestnik\u00f3w": 6877, "\u2581zani": 6878, "e\u0142": 6879, "\u2581urz\u0119": 6880, "\u2581zach\u0119": 6881, "\u2581fanta": 6882, "karz": 6883, "\u00d3": 6884, "\u2581wykry": 6885, "01": 6886, "\u2581materia": 6887, "\u2581okaza\u0107": 6888, "\u2581ci\u0105": 6889, "\u2581kana": 6890, "\u2581Zu": 6891, "\u2581wspiera": 6892, "\u2581do\u015bwiadcze\u0144": 6893, "\u2581zb": 6894, "\u2581wydany": 6895, "usa": 6896, "\u2581G\u0142osowa\u0142o": 6897, "szcz\u0119": 6898, "\u2581At": 6899, "\u2581Europejsk\u0105": 6900, "\u2581zachodniej": 6901, "\u2581uprze": 6902, "pin": 6903, "\u2581szczeg\u00f3\u0142owych": 6904, "\u2581reszt\u0119": 6905, "\u2581jasna": 6906, "\u2581\u0142\u0105czy": 6907, "\u2581czer": 6908, "d\u0142o": 6909, "\u2581zwrotu": 6910, "\u2581ost": 6911, "\u2581las": 6912, "\u2581opo": 6913, "szania": 6914, "\u2581b\u0119d\u0105cych": 6915, "\u2581odpowiedni": 6916, "\u2581bitwy": 6917, "\u2581chwy": 6918, "\u2581konkretnych": 6919, "\u2581westchn\u0105\u0142": 6920, "\u2581symboli": 6921, "\u2581wyklu": 6922, "\u2581przysz\u0142ym": 6923, "pami": 6924, "\u2581ojcem": 6925, "\u2581przej\u015bcia": 6926, "OD": 6927, "\u2581tematu": 6928, "ther": 6929, "\u2581osobowo\u015bci": 6930, "\u2581powsta": 6931, "Sa": 6932, "strzy": 6933, "\u2581bohater": 6934, "\u2581City": 6935, "\u258121.": 6936, "tuj\u0105c": 6937, "atyczne": 6938, "cze\u0144stwa": 6939, "graf": 6940, "\u2581w\u0142a\u015bciwo\u015bci": 6941, "\u2581pytam": 6942, "\u2581\u017bycie": 6943, "\u2581Azji": 6944, "zj": 6945, "ktu": 6946, "pisy": 6947, "\u2581Aires": 6948, "dzanie": 6949, "\u2581wp\u0142y": 6950, "\u2581st\u00f3\u0142": 6951, "\u2581zawodowe": 6952, "\u2581zaznaczy\u0107": 6953, "\u2581niem": 6954, "\u0142at": 6955, "\u2581parafia": 6956, "\u2581wyczu": 6957, "chami": 6958, "\u2581pa\u017adzierniku": 6959, "\u2581ligi": 6960, "\u2581przenik": 6961, "rez": 6962, "laz": 6963, "\u2581wyrazi\u0107": 6964, "\u2581robi\u0105": 6965, "\u2581rozleg\u0142": 6966, "\u2581zawodowego": 6967, "\u2581w\u0142a\u015bciwym": 6968, "\u2581Buenos": 6969, "\u2581maj\u0105tek": 6970, "Ra": 6971, "lim": 6972, "lor": 6973, "aln\u0105": 6974, "\u2581wpad\u0142": 6975, "\u2581dwaj": 6976, "dzonym": 6977, "\u2581nowi": 6978, "\u2581wp\u0142ywa": 6979, "\u2581walk\u0119": 6980, "\u2581ryzyko": 6981, "wanym": 6982, "\u2581przeznaczonych": 6983, "\u2581Pucharu": 6984, "fia": 6985, "\u2581efekt": 6986, "\u2581zni": 6987, "\u2581powierzchni\u0119": 6988, "\u2581licz\u0105c": 6989, "\u2581zwyci\u0119stwo": 6990, "\u2581kamie\u0144": 6991, "\u2581smo": 6992, "\u2581j\u0119zykiem": 6993, "\u2581zmy": 6994, "\u2581byle": 6995, "\u2581wprowadzono": 6996, "czaj\u0105": 6997, "\u2581komisje": 6998, "akie": 6999, "\u2581w\u00f3z": 7000, "\u2581obcych": 7001, "\u2581nosem": 7002, "ius": 7003, "\u2581NA": 7004, "\u2581Zamykam": 7005, "\u2581opiera": 7006, "\u2581gwiazdy": 7007, "dzeni": 7008, "\u2581okazj\u0119": 7009, "\u2581mama": 7010, "\u2581zdj\u0119cia": 7011, "\u2581\u015bwiadczy": 7012, "\u2581kobiet\u0105": 7013, "\u2581sytuacjach": 7014, "\u2581k\u0105tem": 7015, "\u2581Czego": 7016, "\u2581byli\u015bmy": 7017, "\u2581gr\u0119": 7018, "\u0142ych": 7019, "\u2581zie": 7020, "gn\u0105\u0142": 7021, "\u2581gatunku": 7022, "\u2581realizacja": 7023, "jaj\u0105c": 7024, "\u2581stawki": 7025, "\u2581sk\u0142adu": 7026, "\u2581kurs": 7027, "\u2581\u00a6": 7028, "gowy": 7029, "\u2581g\u0142a": 7030, "\u2581sprawozdaniu": 7031, "\u2581dzielnicy": 7032, "line": 7033, "ryz": 7034, "niz": 7035, "\u2581spo\u0142eczno": 7036, "\u2581szczy": 7037, "ale": 7038, "\u2581kryterium": 7039, "\u2581rozpro": 7040, "pen": 7041, "\u2581Oczy": 7042, "\u2581zatrudnionych": 7043, "\u2581proces\u00f3w": 7044, "\u2581rozumie\u0107": 7045, "\u2581sytuacj\u0105": 7046, "\u2581rz\u0105": 7047, "\u2581Smo": 7048, "\u2581przemie": 7049, "\u2581Fu": 7050, "\u2581ofer": 7051, "\u2581zatrzyma\u0107": 7052, "\u2581podstaw\u0105": 7053, "rza\u0142y": 7054, "\u2581zadebiutowa\u0142": 7055, "\u2581chroni": 7056, "\u2581Ot": 7057, "\u2581ci\u0119\u017ckie": 7058, "jek": 7059, "\u2581zapi": 7060, "sce": 7061, "\u2581sil": 7062, "\u2581kryzys": 7063, "\u2581istotny": 7064, "\u2581wiedz\u0105c": 7065, "ag": 7066, "mieni": 7067, "\u2581podejmuje": 7068, "p\u0142y": 7069, "\u2581zbiera": 7070, "\u2581lit": 7071, "\u2581powy\u017cszego": 7072, "\u2581otrzyma\u0142a": 7073, "\u25811938": 7074, "\u2581zas\u0142u": 7075, "\u2581m\u00f3g\u0142bym": 7076, "si\u0142a": 7077, "\u2581zabra\u0142": 7078, "\u2581o\u015brodk\u00f3w": 7079, "\u2581najwa\u017cniejszych": 7080, "\u2581g\u0142osowa\u0107": 7081, "\u2581zabytk\u00f3w": 7082, "\u2581doj\u015b\u0107": 7083, "\u2581pi\u0119kne": 7084, "\u2581g\u0142\u00f3wnej": 7085, "\u2581Kan": 7086, "\u2581Tat": 7087, "\u2581g\u0142\u00f3w": 7088, "\u2581da\u0142o": 7089, "field": 7090, "ranych": 7091, ":00": 7092, "\u2581czasy": 7093, "cha\u0107": 7094, "\u2581u\u017cytk": 7095, "\u2581wi\u0119zienia": 7096, "pienia": 7097, "yn": 7098, "\u2581B\u0119dziemy": 7099, "\u2581zbu": 7100, "\u25811964": 7101, "\u2581siostra": 7102, "nnych": 7103, "ra\u0142a": 7104, "\u2581dotycz\u0105ca": 7105, "\u2581wyspy": 7106, "dz\u0105cy": 7107, "\u2581zg\u0142osze\u0144": 7108, "\u2581zdrowie": 7109, "\u2581znajdowa\u0142a": 7110, "\u2581Pomimo": 7111, "\u2581szepn\u0105\u0142": 7112, "\u2581si\u0142a": 7113, "racji": 7114, "\u2581Przypomn\u0119": 7115, "oni": 7116, "\u2581rz\u0119du": 7117, "\u2581zastrze\u017cenia": 7118, "\u2581specjalne": 7119, "\u2581gi": 7120, "&": 7121, "\u2581201": 7122, "\u2581oboje": 7123, "\u2581parku": 7124, "\u2581Franciszek": 7125, "czycy": 7126, "\u2581powrotu": 7127, "\u2581Vo": 7128, "\u2581gaz": 7129, "\u2581ludzkich": 7130, "\u00fa": 7131, "\u2581kr\u00f3tki": 7132, "\u2581atrak": 7133, "\u2581wschodniej": 7134, "cjona": 7135, "\u2581zgodzi\u0107": 7136, "55": 7137, "\u2581Byli": 7138, "ganie": 7139, "\u2581terenach": 7140, "\u2581przeprowadzi\u0107": 7141, "\u2581da\u0142a": 7142, "...\"": 7143, "\u2581przypadkiem": 7144, "\u2581og\u00f3lno": 7145, "\u2581rodzinnych": 7146, "\u2581koch": 7147, "liwo\u015bci": 7148, "szonym": 7149, "rzy\u0142o": 7150, "\u2581religii": 7151, "\u2581Wielu": 7152, "\u2581poprzedniej": 7153, "-12": 7154, "\u2581uchy": 7155, "\u2581zja": 7156, "\u2581uwie": 7157, "\u2581doj": 7158, "\u2581ubieg\u0142ym": 7159, "dan": 7160, "\u2581wsp\u00f3lne": 7161, "\u2581dostrze": 7162, "\u2581cz\u0142onkowskich": 7163, "Pro": 7164, "\u2581ksi\u0105\u017ck\u0119": 7165, "\u2581dalszego": 7166, "\u2581przestrze\u0144": 7167, "\u2581Mad": 7168, "\u2581otwarcie": 7169, "wan\u0105": 7170, "\u2581Liga": 7171, "\u2581os\u0142a": 7172, "\u2581schodach": 7173, "\u2581zaufania": 7174, "\u2581funda": 7175, "\u2581wydane": 7176, "\u2581pow\u00f3d": 7177, "\u2581Wroc\u0142awiu": 7178, "\u2581kolana": 7179, "\u2581wyku": 7180, "\u2581w\u0142\u0105": 7181, "\u2581Pet": 7182, "szaj\u0105": 7183, "\u2581wyle": 7184, "\u2581Platforma": 7185, "\u2581\u017ar\u00f3d\u0142em": 7186, "\u2581pot\u0119": 7187, "\u2581wybie": 7188, "ig": 7189, "\u0143": 7190, "\u2581(195": 7191, "\u2581her": 7192, "ander": 7193, "\u2581Stronnictwa": 7194, "\u2581przypomnia\u0142": 7195, "\u2581Witam": 7196, "\u2581bank": 7197, "\u2581orzeczenia": 7198, "\u2581Pla": 7199, "\u2581wyja\u015bnia": 7200, "\u2581dziwnie": 7201, "\u2581technologii": 7202, "lonym": 7203, "\u2581listopadzie": 7204, "\u2581zdo\u0142a": 7205, "\u2581strefy": 7206, "\u2581konstrukcji": 7207, "\u2581przechodzi": 7208, "\u2581<": 7209, "\u2581u\u0142o": 7210, "\u2581wnioskodawcy": 7211, "\u2581granice": 7212, "\u2581\u015bci\u0105": 7213, "\u2581sportowych": 7214, "\u2581najlepszym": 7215, "\u2581wszech": 7216, "onie": 7217, "bl": 7218, "pom": 7219, "\u2581by\u0142yby": 7220, "ase": 7221, "\u2581szyb": 7222, "cjom": 7223, "\u2581rozumieniu": 7224, "\u2581konserwa": 7225, "\u2581Sejmowi": 7226, "tos": 7227, "\u2581inwestycyjnych": 7228, "\u2581mi\u0119dzynarodowej": 7229, "\u2581cesarza": 7230, "\u2581pa\u0144stwowe": 7231, "AS": 7232, "\u2581autora": 7233, "\u2581Obok": 7234, "\u2581prywatnych": 7235, "\u2581pod\u0142og\u0119": 7236, "way": 7237, "\u2581systemem": 7238, "cep": 7239, "lizowa\u0107": 7240, "\u2581modelu": 7241, "\u258111,": 7242, "\u2581gospodarcz\u0105": 7243, "\u2581Europejska": 7244, "\u2581zob": 7245, "\u2581akcep": 7246, "dowej": 7247, "\u2581pozosta\u0142o": 7248, "\u2581d\u0142oni\u0105": 7249, "\u2581Tri": 7250, "\u2581Dro": 7251, "\u2581nogach": 7252, "\u2581Filip": 7253, "\u2581s\u0142ycha\u0107": 7254, "Me": 7255, "\u2581regulaminu": 7256, "\u2581stwierdzenie": 7257, "\u2581Dra": 7258, "\u2581kszta\u0142": 7259, "\u2581przykry": 7260, "\u2581przesu": 7261, "\u2581przygotowy": 7262, "\u2581liczbie": 7263, "\u2581pozwoli\u0142": 7264, "\u2581zre": 7265, "\u2581zrozumienia": 7266, "\u2581cesarz": 7267, "\u2581ca\u0142": 7268, "wskim": 7269, "\u2581po\u0142ow\u0119": 7270, "fika": 7271, "\u2581Sara": 7272, "\u2581stra\u017c": 7273, "\u2581Rze": 7274, "i\u0142a": 7275, "\u2581sty": 7276, "\u2581ciele": 7277, "\u2581osad": 7278, "\u2581grozi": 7279, "\u2581jednoznacznie": 7280, "bieg": 7281, "\u2581interpre": 7282, "gru": 7283, "\u2581cz\u0142onka": 7284, "\u2581width": 7285, "eno": 7286, "\u2581dwor": 7287, "\u2581Inter": 7288, "lonej": 7289, "\u2581(\u201e": 7290, "\u2581oczeki": 7291, "\u2581Ludowego": 7292, "\u2581ostatnia": 7293, "lno": 7294, "\u2581areszt": 7295, "\u2581poku": 7296, "\u2581wzroku": 7297, "illa": 7298, "n\u0105wszy": 7299, "\u2581gorzej": 7300, "ZE": 7301, "mi\u0119": 7302, "mil": 7303, "\u2581zamk": 7304, "\u2581\u015brodowisku": 7305, "\u2581okazuje": 7306, "\u2581Wojska": 7307, "dza\u0142a": 7308, "\u2581s\u0142ysza\u0142em": 7309, "\u2581tytu\u0142em": 7310, "\u2581najlepszy": 7311, "\u2581ST": 7312, "-14": 7313, "\u2581planuje": 7314, "\u2581wr\u00f3ci\u0142a": 7315, "mami": 7316, "\u2581nast\u0119p": 7317, "\u2581robo": 7318, "\u2581poprzednio": 7319, "\u2581Ex": 7320, "\u2581skutecznie": 7321, "\u2581ekspert\u00f3w": 7322, "\u2581zwi\u0105z": 7323, "ralne": 7324, "\u2581wykrzy": 7325, "\u2581Chcia\u0142": 7326, "\u2581argumenty": 7327, "\u2581uli": 7328, "\u2581Fre": 7329, "\u2581fla": 7330, "\u2581wej\u015bcie": 7331, "\u2581w\u0105": 7332, "\u2581kariery": 7333, "pel": 7334, "\u2581ofiary": 7335, "\u2581zamian": 7336, "\u2581przebiegu": 7337, "tnik": 7338, "\u2581publi": 7339, "gram": 7340, "lep": 7341, ".-": 7342, "lika": 7343, "\u2581spotka\u0142": 7344, "ciela": 7345, "dzonej": 7346, "ch\u0119": 7347, "\u2581normy": 7348, "\u2581jeziora": 7349, "12.": 7350, "\u2581Cam": 7351, "\u2581You": 7352, "\u2581pe\u0142na": 7353, "stek": 7354, "\u2581pr": 7355, "\u2581zaj\u0119\u0142a": 7356, "\u2581umowa": 7357, "\u0144stwem": 7358, "\u2581kwocie": 7359, "\u2581niemieckiego": 7360, "\u2581w\u0142os\u00f3w": 7361, "\u2581wp\u0142ywy": 7362, "\u2581obrazu": 7363, "\u2581wyja\u015bnie\u0144": 7364, "\u2581Krajowego": 7365, "\u2581dzieli": 7366, "\u2581\u015blub": 7367, "\u25819,": 7368, "\u2581koleg\u00f3w": 7369, "\u2581wysokim": 7370, "\u2581Razem": 7371, "\u2581postanowieniem": 7372, "\u2581upo": 7373, "\u2581Sil": 7374, "\u2581konsu": 7375, "\u2581Sekretarz": 7376, "\u2581wart": 7377, "\u2581Oznacza": 7378, "czyk\u00f3w": 7379, "\u2581kwalifikacji": 7380, "\u25811967": 7381, "\u2581sal": 7382, "iera": 7383, "\u2581Rzym": 7384, "\u2581Legislacyjnego": 7385, "\u2581kapitana": 7386, "\u2581olimpijskich": 7387, "\u2581niemu": 7388, "\u2581najwi\u0119kszych": 7389, "cus": 7390, "\u2581czo\u0142": 7391, "\u2581okr\u0119t": 7392, "\u2581opodatkowania": 7393, "\u2581przyjmuje": 7394, "\u2581s\u0142abo": 7395, "\u2581grani": 7396, "Al": 7397, "ja\u0107": 7398, "\u2581sierpniu": 7399, "\u2581osa": 7400, "\u2581kredytu": 7401, "\u2581Owszem": 7402, "\u2581pewno\u015b\u0107": 7403, "\u2581najwi\u0119ksze": 7404, "\u2581ryzyka": 7405, "\u2581Nowego": 7406, "\u2581Daniel": 7407, "\u2581gabinetu": 7408, "\u2581wype\u0142nia": 7409, "\u2581ham": 7410, "\u2581Unia": 7411, "\u2581sprz\u0119t": 7412, "ceni": 7413, "\u043d": 7414, "\u2581wa\u017cn\u0105": 7415, "\u2581spodzie": 7416, "\u2581posz\u0142a": 7417, "\u2581starszy": 7418, "fil": 7419, "ime": 7420, "\u2581\u015brednio": 7421, "\u2581silnie": 7422, "\u2581nast\u0105pi\u0107": 7423, "\u2581mi\u0119sa": 7424, "\u2581Czy\u017cby": 7425, "\u2581Przedsi\u0119bior": 7426, "nili": 7427, "\u2581Uni": 7428, "\u2581przedstawiam": 7429, "\u2581przyby\u0142": 7430, "\u2581Odnosz\u0105c": 7431, "\u25811950": 7432, "\u2581awans": 7433, "kimi": 7434, "\u2581skorzysta\u0107": 7435, "to\u015bci": 7436, "\u2581wyrazem": 7437, "\u2581wiejskich": 7438, "\u2581czarny": 7439, "\u2581wil": 7440, "\u2581plecy": 7441, "\u2581delikatnie": 7442, "ctwie": 7443, "\u2581ludu": 7444, "\u2581zastosowania": 7445, "\u2581wp\u0142yw\u00f3w": 7446, "\u2581zg\u0142osi\u0107": 7447, "\u2581oddzie": 7448, "\u2581obci\u0105": 7449, "dziesz": 7450, "\u2581Kazimierza": 7451, "\u2581zdawa\u0142": 7452, "\u2581She": 7453, "pienie": 7454, "\u2581Ran": 7455, "\u2581daleka": 7456, "\u2581towar": 7457, "dzkiego": 7458, "\u2581przyjm": 7459, "\u2581Hy": 7460, "\u2581mechani": 7461, "\u2581\u0142odzi": 7462, "\u2581potrzebny": 7463, "kam": 7464, "\u2581kupi\u0107": 7465, "\u2581Tytu\u0142": 7466, "\u25811966": 7467, "\u2581wargi": 7468, "\u2581ko\u0142a": 7469, "\u2581metod": 7470, "\u2581zbo": 7471, "cyjno\u015bci": 7472, "\u2581Pru": 7473, "\u2581szar": 7474, "\u2581\u00d7": 7475, "\u2581spojrzenia": 7476, "\u2581ub": 7477, "\u017cnych": 7478, "\u2581Niemc\u00f3w": 7479, "\u2581dziwnego": 7480, "\u2581twierdzi": 7481, "niaj\u0105": 7482, "\u258176": 7483, "\u2581otrzymuje": 7484, "\u2581n\u00f3\u017c": 7485, "ownicy": 7486, "\u2581potrzebuje": 7487, "\u2581przyjemno\u015b\u0107": 7488, "\u2581wymiany": 7489, "EM": 7490, "\u2581stra\u017cy": 7491, "\u2581zapew": 7492, "\u2581zacznie": 7493, "\u2581Zw": 7494, "\u2581m\u0142odzi": 7495, "dno": 7496, "\u2581Stanu": 7497, "ille": 7498, "kolwiek": 7499, "\u2581czytanie": 7500, "\u2581rolnej": 7501, "\u258173": 7502, "\u2581potrafi\u0119": 7503, "\u2581b\u0142a": 7504, "\u2581odrzuci\u0142": 7505, "III": 7506, "\u2581zamkn\u0105\u0142": 7507, "\u2581wysi\u0142ku": 7508, "\u2581Nar": 7509, "\u2581p\u00f3ki": 7510, "\u2581us\u0142ysz\u0119": 7511, "\u2581niejako": 7512, "\u2581samorz\u0105dowych": 7513, "stycznie": 7514, "\u2581Pen": 7515, "\u2581pi\u0119\u0107dziesi\u0105t": 7516, "\u2581Czasami": 7517, "\u2581\u015bwiad": 7518, "\u2581kwietniu": 7519, "\u00f3j": 7520, "\u2581gre": 7521, "\u2581odmowie": 7522, "\u2581efekty": 7523, "\u2581wyst\u0105pienie": 7524, "\u2581tworz\u0105c": 7525, "\u2581nast\u0119pny": 7526, "wymi": 7527, "\u0142owi": 7528, "\u2581organizacj\u0119": 7529, "\u2581zrze": 7530, "\u2581Henryka": 7531, "\u2581Super": 7532, "\u0142on": 7533, "\u2581rozpat": 7534, "\u2581wyja\u015bni": 7535, "\u2581u\u017cywa": 7536, "\u2581wielko\u015b\u0107": 7537, "\u2581przemian": 7538, "\u2581szep": 7539, "kr\u0119": 7540, "\u2581podleg\u0142e": 7541, "szeniem": 7542, "\u2581dopu": 7543, "\u2581wersja": 7544, "\u2581ko\u0142": 7545, "\u2581moi": 7546, "\u2581Gene": 7547, "ea": 7548, "\u2581Partia": 7549, "\u2581koron": 7550, "biera": 7551, "\u2581kryteri\u00f3w": 7552, "\u2581trzym": 7553, "\u2581Dzieci": 7554, "\u2581uwierzy\u0107": 7555, "\u2581kim\u015b": 7556, "\u2581p\u00f3\u0142nocnej": 7557, "\u2581by\u015bmy": 7558, "\u2581miesi\u0105ca": 7559, "\u2581Parafia": 7560, "\u2581musia\u0142o": 7561, "\u2581przeczy": 7562, "\u2581zawodnik\u00f3w": 7563, "licz": 7564, "\u2581udzielania": 7565, "\u2581us\u0142ysze\u0107": 7566, "\u2581najbli\u017cszych": 7567, "\u2581zapytanie": 7568, "\u2581nauczyciela": 7569, "\u2581rozpocz\u0119\u0142a": 7570, "\u2581znana": 7571, "\u2581m\u00f3c": 7572, "dziesi\u0105tych": 7573, "\u0142ej": 7574, "\u2581wn\u0119trza": 7575, "tacj\u0119": 7576, "\u2581ogranicza": 7577, "\u2581p\u00f3\u0142nocno": 7578, "wieniem": 7579, "\u2581wymagaj\u0105": 7580, "\u2581technicznych": 7581, "\u25811947": 7582, "\u2581(4": 7583, "\u2581zako\u0144czenia": 7584, "\u2581Alex": 7585, "kul": 7586, "\u2581opozycji": 7587, "\u2581szko\u0142\u0119": 7588, "\u258177": 7589, "ation": 7590, "\u2581roman": 7591, "\u2581przedmiot\u00f3w": 7592, "\u2581gromady": 7593, "\u2581og\u00f3lne": 7594, "owicza": 7595, "\u2581plu": 7596, "\u2581obowi\u0105zuje": 7597, "\u2581zarzu": 7598, "\u2581maszyny": 7599, "\u2581przygotowany": 7600, "\u2581pami\u0119ta": 7601, "\u2581scho": 7602, "\u2581zdawa\u0142o": 7603, "\u2581okien": 7604, "\u2581ludzkiego": 7605, "\u2581standar": 7606, "\u2581ude": 7607, "rei": 7608, "\u2581Sha": 7609, "\u2581nale\u017cno\u015bci": 7610, "sion": 7611, "\u2581prezydium": 7612, "\u2581bal": 7613, "\u2581wymienia": 7614, "\u2581profesjona": 7615, "pow": 7616, "szy\u0142o": 7617, "\u2581tereny": 7618, "o\u0142": 7619, "\u2581przezna": 7620, "owu": 7621, "\u2581S\u0142o\u0144ce": 7622, "\u2581tkwi": 7623, "\u2581bie\u017c\u0105cym": 7624, "\u2581wprowa": 7625, "\u2581przewa\u017cnie": 7626, "\u2581super": 7627, "\u2581wystarczaj\u0105co": 7628, "\u2581c\u00f3rk\u0119": 7629, "bienie": 7630, "\u2581przesta\u0142": 7631, "\u2581miejscem": 7632, "bla": 7633, "\u2581przyk\u0142adem": 7634, "\u0142ym": 7635, "\u2581Karola": 7636, "cha\u0142em": 7637, "\u2581Frank": 7638, "\u2581parlament": 7639, "niak": 7640, "\u2581nia": 7641, "usza": 7642, "Te": 7643, "\u2581zaka": 7644, "\u2581zdrowotnych": 7645, "\u2581kolejowej": 7646, "lane": 7647, "dzkiej": 7648, "\u2581potwierdza": 7649, "\u2581sie\u0107": 7650, "\u2581Opis": 7651, "\u2581znik": 7652, "niego": 7653, "\u2581reszta": 7654, "\u2581popatrzy\u0142": 7655, "\u2581opracowania": 7656, "\u2581stanowczo": 7657, "\u2581wymienione": 7658, "\u2581fal": 7659, "\u2581towarzyszy": 7660, "\u2581Tak\u017ce": 7661, "\u2581powiedzia\u0142am": 7662, "\u2581si\u0119ga": 7663, "dzili\u015bmy": 7664, "\u2581gro\u017a": 7665, "\u25815-": 7666, "\u2581przynosi": 7667, "\u2581odprowa": 7668, "\u2581Celem": 7669, "\u2581brakowa\u0142o": 7670, "\u2581wyli": 7671, "\u2581politycznego": 7672, "\u2581Powie": 7673, "\u2581laty": 7674, "\u2581zauwa\u017cy\u0142a": 7675, "\u2581Wiktor": 7676, "\u2581Mia\u0142em": 7677, "Ta": 7678, "ita": 7679, "\u2581przej\u015bcie": 7680, "\u2581800": 7681, "\u2581przekazane": 7682, "\u2581budowa": 7683, "\u2581regionalnych": 7684, "\u2581dokona\u0142": 7685, "\u2581daj\u0105": 7686, "nor": 7687, "\u2581uwzgl\u0119dnieniem": 7688, "\u2581procedur": 7689, "zdy": 7690, "rii": 7691, "ide": 7692, "\u2581obro": 7693, "int": 7694, "owiska": 7695, "\u2581wycie": 7696, "\u2581Charles": 7697, "\u2581otrzyma\u0107": 7698, "\u2581niepoko": 7699, "\u2581po\u0142udniowej": 7700, "\u2581wyrok": 7701, "hen": 7702, "\u2581lokalu": 7703, "\u2581\u00ad": 7704, "\u2581najbli\u017cszym": 7705, "sza\u0142a": 7706, "\u2581ustach": 7707, "\u2581wad": 7708, "\u2581spacer": 7709, "\u2581uderzy\u0142": 7710, "obie": 7711, "\u2581wieczoru": 7712, "\u2581zespo\u0142\u00f3w": 7713, "\u2581br\u0105z": 7714, "\u2581polityce": 7715, "\u2581lutym": 7716, "No": 7717, "\";": 7718, "\u2581rola": 7719, "\u2581rozwa\u017c": 7720, "\u2581bitwie": 7721, "\u2581st\u0119": 7722, "\u2581placu": 7723, "ralnej": 7724, "\u2581spojrze\u0107": 7725, "\u2581g\u0142\u0105b": 7726, ":19": 7727, "\u2581n\u00f3g": 7728, "\u2581uczu\u0107": 7729, "\u2581zastrze\u017ce\u0144": 7730, "\u2581poda\u0107": 7731, "\u2581promocji": 7732, "\u2581o\u015bwiadczenia": 7733, "\u2581Agencja": 7734, "\u2581vi": 7735, "gg": 7736, "owna": 7737, "\u2581uczestni": 7738, "\u2581zawo\u0142a\u0142a": 7739, "\u2581norm": 7740, "\u2581Em": 7741, "\u2581panna": 7742, "ralnych": 7743, "\u2581ksi\u0105dz": 7744, "\u2581Prezydenta": 7745, "\u2581zdecydowa\u0142": 7746, "\u2581Port": 7747, "\u2581przes\u0142": 7748, "\u2581indziej": 7749, "\u2581trzyma\u0107": 7750, "bij": 7751, "\u2581niepok\u00f3j": 7752, "\u2581Zarz\u0105du": 7753, "\u2581smak": 7754, "\u2581jeste\u015bcie": 7755, "\u2581Wydzia\u0142u": 7756, "\u2581zgroma": 7757, "\u015bci\u0142a": 7758, "\u2581wagi": 7759, "\u2581rada": 7760, "\u2581m\u00f3wisz": 7761, "\u2581q": 7762, "\u2581trener": 7763, "\u258169": 7764, "\u2581kroku": 7765, ".?": 7766, "\u2581wido": 7767, "\u2581ma\u0142\u017ce\u0144stwa": 7768, "\u2581rokiem": 7769, "\u2581nazwie": 7770, "hl": 7771, "zj\u0119": 7772, "\u2581Raz": 7773, ".;": 7774, "\u2581niewielkie": 7775, "\u2581pou": 7776, "ni\u0142o": 7777, "\u258113,": 7778, "\u2581fazie": 7779, "\u2581sprawami": 7780, "moc": 7781, "kanie": 7782, "rob": 7783, "\u2581wyda\u0107": 7784, "kre": 7785, "\u2581jakimi": 7786, "/10": 7787, "ati": 7788, "\u2581York": 7789, "niemy": 7790, "\u2581zgu": 7791, "\u2581zapisane": 7792, "\u2581zamord": 7793, "\u2581dram": 7794, "\u2581szeregu": 7795, "\u2581porzu": 7796, "-13": 7797, "ni\u0119ciu": 7798, "tte": 7799, "\u2581skal\u0119": 7800, "\u2581pies": 7801, "\u2581zamiaru": 7802, "\u25811965": 7803, "\u2581t\u0142uma": 7804, "\u2581gniew": 7805, "\u2581ot": 7806, "\u2581Medal": 7807, "\u2581silny": 7808, "\u2581krajowego": 7809, "\u2581mur": 7810, "\u2581Bia\u0142orusi": 7811, "\u2581kie": 7812, "\u2581kobie": 7813, "\u2581przekonanie": 7814, "\u2581boga": 7815, "\u258161": 7816, "\u2581zamek": 7817, "gin": 7818, "\u2581zanu": 7819, "\u2581za\u0142o\u017ce\u0144": 7820, "\u00f3l": 7821, "\u2581wyd\u0142u": 7822, "\u2581ch\u0119\u0107": 7823, "\u0105cymi": 7824, "\u2581Lip": 7825, "\u2581k\u0119": 7826, "\u2581stwierdzi\u0142a": 7827, "\u2581zwolnienia": 7828, "wiona": 7829, "\u2581z\u0142o\u017cenia": 7830, "\u2581ucieczki": 7831, "\u2581post\u0119pu": 7832, "cz\u0105cego": 7833, "\u2581igrzyskach": 7834, "ney": 7835, "iach": 7836, "\u2581ozdob": 7837, "\u2581u\u017cytku": 7838, "star": 7839, "\u2581wydoby": 7840, "\u2581by\u015b": 7841, "\u2581znaczne": 7842, "zia": 7843, "\u2581nog\u0119": 7844, "\u2581porze": 7845, "Ne": 7846, "kuj\u0105c": 7847, "\u2581silne": 7848, "...)": 7849, "\u2581p\u0142atno\u015bci": 7850, "\u2581powstaje": 7851, "zali": 7852, "\u2581obowi\u0105z": 7853, "\u2581zim": 7854, "bywa": 7855, "\u2581mistrza": 7856, "\u25811949": 7857, "ater": 7858, "\u2581twoj\u0105": 7859, "\u2581filozofii": 7860, "\u2581umys\u0142u": 7861, "ni\u0119tych": 7862, "\u2581kasy": 7863, "\u2581zdarzenia": 7864, "\u2581Kate": 7865, "\u25811928": 7866, "\u2581obej": 7867, "szo": 7868, "\u2581czynnik\u00f3w": 7869, "\u2581Obywatelska": 7870, "\u2581szczyt": 7871, "tum": 7872, "\u2581przekonania": 7873, "\u2581Mag": 7874, "\u2581Dalej": 7875, "\u2581oczekiwania": 7876, "\u2581wspomina": 7877, "\u2581rozdzie": 7878, "\u2581ukry\u0107": 7879, "\u2581wojennych": 7880, "\u2581Kost": 7881, "\u2581istnienie": 7882, "via": 7883, "tw\u00f3r": 7884, "\u2581ogni": 7885, "\u2581dozna": 7886, "czyna": 7887, "\u2581opowie": 7888, "\u2581idei": 7889, "\u2581Widz\u0119": 7890, "czaj\u0105c": 7891, "\u017c\u0105c": 7892, "\u2581wyma": 7893, "\u2581ocena": 7894, "\u2581160": 7895, "\u2581tragi": 7896, "EL": 7897, "\u2581owych": 7898, "\u2581zgadzam": 7899, "\u2581dopuszcza": 7900, "\u2581opowie\u015bci": 7901, "cher": 7902, "\u2581trze": 7903, "\u0142ego": 7904, "\u2581samolotu": 7905, "\u2581najwy\u017cej": 7906, "\u2581pozosta\u0107": 7907, "\u2581poma": 7908, "\u2581sko\u0144czy\u0142": 7909, "\u2581zaludnienia": 7910, "\u2581Shi": 7911, "\u2581przesy": 7912, "\u2581oddali": 7913, "\u2581biskupa": 7914, "owuje": 7915, "\u2581Bon": 7916, "chn\u0105\u0142": 7917, "\u2581rozli": 7918, "\u2581S\u0142owa": 7919, "\u2581ci\u0105\u017cy": 7920, "\u2581sypialni": 7921, "\u2581spad": 7922, "\u2581Platformy": 7923, "\u2581Mari": 7924, "ert": 7925, "\u0142ow": 7926, "\u2581sztuk": 7927, "\u2581post": 7928, "piony": 7929, "s\u0105": 7930, "niania": 7931, "\u2581Cz\u0142owieka": 7932, "\u2581Joe": 7933, "czy\u0144ski": 7934, "\u2581interpretacji": 7935, "owemu": 7936, "\u2581Mo\u017cesz": 7937, "\u2581Szko\u0142y": 7938, "\u2581podejmowane": 7939, "\u2581kompetencje": 7940, "\u2581prawna": 7941, "\u2581osi": 7942, "\u2581prawdopodob": 7943, "czymi": 7944, "\u2581towarzystwie": 7945, "\u2581Zn\u00f3w": 7946, "\u2581rozwi\u0105za\u0107": 7947, "\u258178": 7948, "dla": 7949, "\u2581Lepiej": 7950, "\u2581zarz\u0105": 7951, "\u2581departamencie": 7952, "\u2581----": 7953, "\u2581\u015bwi\u0119": 7954, "\u2581organizacja": 7955, "\u2581ustali\u0107": 7956, "\u2581sekretarz": 7957, "\u2581sejmowej": 7958, "dno\u015bci": 7959, "\u2581(...)": 7960, "\u2581orygina": 7961, "\u2581el": 7962, "gat": 7963, "\u2581Spe": 7964, "\u2581my\u015blisz": 7965, "\u0163": 7966, "\u2581Sport": 7967, "metr": 7968, "\u2581zdolno\u015b\u0107": 7969, "\u2581nieza": 7970, "\u2581W\u0142och": 7971, "the": 7972, "wala": 7973, "\u2581Prac": 7974, "szanie": 7975, "\u2581uciec": 7976, "\u2581uda\u0142": 7977, "\u2581znajdowa\u0142y": 7978, "kwi": 7979, "\u2581litera": 7980, "\u2581ciszy": 7981, "\u2581rozwi\u0105zaniem": 7982, "\u2581b\u0142\u0119ki": 7983, "\u2581przemocy": 7984, "\u2581prac\u0105": 7985, "\u2581bia\u0142y": 7986, "cina": 7987, "\u2581Rzymie": 7988, "\u0443": 7989, "\u2581przeko": 7990, "\u2581tworzenie": 7991, "dera": 7992, "\u2581Kobiety": 7993, "\u2581mie\u015bci": 7994, "\u2581wyr\u00f3\u017c": 7995, "\u2581odczy": 7996, "\u25811962": 7997, "\u2581trwa\u0142": 7998, "\u2581poeta": 7999, "\u2581wysokich": 8000, "\u2581trzecim": 8001, "\u2581drewna": 8002, "\u2581poety": 8003, "\u2581matk\u0119": 8004, "\u2581odleg\u0142o\u015b\u0107": 8005, "\u2581wolny": 8006, "\u2581perspektywy": 8007, "\u2581powo\u0142ania": 8008, "\u2581po\u0142\u0105": 8009, "\u2581%": 8010, "\u2581z\u0142oty": 8011, "\u2581najwi\u0119kszym": 8012, "\u258182": 8013, "\u2581Mont": 8014, "\u2581ko\u015bciele": 8015, "wi\u0142y": 8016, "\u2581diagno": 8017, "\u2581skierowane": 8018, "\u2581zagad": 8019, "\u2581wymu": 8020, "Pi": 8021, "\u2581dokumentacji": 8022, "\u2581mechanizm": 8023, "fel": 8024, "\u2581Zak\u0142ad": 8025, "\u2581odda\u0107": 8026, "\u2581przeciwnie": 8027, "{": 8028, "\u2581s\u0119dzia": 8029, "\u2581110": 8030, "\u25811961": 8031, "\u2581600": 8032, "\u2581Para": 8033, "\u2581wska\u017anik": 8034, "\u2581dzwo": 8035, "k\u0142o": 8036, "waj\u0105ce": 8037, "\u2581szczeg\u00f3\u0142y": 8038, "\u2581zg\u0142osi\u0142": 8039, "\u2581uznania": 8040, "\u2581istniej\u0105cych": 8041, "\u2581doda\u0142a": 8042, "\u2581czytaniu": 8043, "\u2581Moskwie": 8044, "\u2581k\u00f3\u0142": 8045, "\u2581nale": 8046, "ownika": 8047, "\u2581d\u0142ug\u0105": 8048, "bio": 8049, "\u2581minuty": 8050, "\u2581umy": 8051, "\u2581rze\u017a": 8052, "\u2581wi\u0119kszego": 8053, "\u2581ryba": 8054, "\u2581druk": 8055, "\u258188": 8056, "\u2581punktem": 8057, "\u2581obserwa": 8058, "\u0434": 8059, "\u2581wol\u0119": 8060, "stor": 8061, "\u2581obecnego": 8062, "\u2581poczu\u0142a": 8063, "jnie": 8064, "\u2581siedmiu": 8065, "\u2581wnioskodawc\u00f3w": 8066, "\u2581rz\u0119": 8067, "\u2581starej": 8068, "\u2581Gda\u0144sku": 8069, "\u2581z\u0142o\u017cone": 8070, "\u2581kar\u0119": 8071, "\u2581Jaros\u0142aw": 8072, "\u2581Tour": 8073, "\u2581otwiera": 8074, "\u2581Nauki": 8075, "\u2581wpis": 8076, "\u2581wzruszy\u0142": 8077, "pka": 8078, "\u2581Prawdopodobnie": 8079, "\u2581zy": 8080, "lno\u015bci\u0105": 8081, "\u2581Dodatkowo": 8082, "\u2581rzuci\u0142a": 8083, "ni\u0119t\u0105": 8084, "rzy\u0142em": 8085, "\u2581ocen\u0119": 8086, "\u2581buty": 8087, "\u2581mieszkaniowych": 8088, "\u2581uzasadnienie": 8089, "\u2581fur": 8090, "\u2581Ksi\u0119": 8091, "\u2581M\u0119\u017cczyzna": 8092, "\u2581pojawiaj\u0105": 8093, "\u2581zgin\u0105\u0142": 8094, "\u2581blo": 8095, "\u2581ujrza\u0142": 8096, "\u2581S\u0142u\u017cby": 8097, "\u2581okre\u015blonej": 8098, "\u2581po\u015br\u00f3d": 8099, "\u2581Dotyczy": 8100, "zami": 8101, "\u2581niezb\u0119dnych": 8102, "\u2581uczyni\u0142": 8103, "\u2581organiz": 8104, "\u2581substancji": 8105, "\u2581grzy": 8106, "\u2581XI": 8107, "\u2581odpowiedniej": 8108, "\u25811921": 8109, "\u2581dym": 8110, "\u0441": 8111, "\u2581czyta\u0107": 8112, "powie": 8113, "\u2581etap": 8114, "ves": 8115, "\u2581wroga": 8116, "\u2581NFZ": 8117, "\u25811958": 8118, "\u2581foto": 8119, "\u2581\u015bpiew": 8120, "giel": 8121, "\u2581nych": 8122, "siu": 8123, "\u2581Ksi\u0105\u017c\u0119": 8124, "\u2581Miko\u0142aj": 8125, "\u2581podzi\u0119kowa\u0107": 8126, "\u2581(197": 8127, "AP": 8128, "\u2581znanych": 8129, "\u2581\u017co\u0142nierz": 8130, "\u2581T\u0119": 8131, "\u2581got": 8132, "\u2581prawn\u0105": 8133, "\u2581przebiega": 8134, "\u2581utworzenia": 8135, "\u2581kolejnym": 8136, "\u2581przychod\u00f3w": 8137, "\u2581Zygmunt": 8138, "\u2581fach": 8139, "\u258119.": 8140, "\u2581Ca\u0142a": 8141, "\u2581istotnych": 8142, "\u2581dopuszcz": 8143, "\u2581d\u017awi": 8144, "\u2581jako\u015b\u0107": 8145, "wiam": 8146, "\u2581podnosi": 8147, "\u2581Ewa": 8148, "\u2581szkody": 8149, "\u2581techniki": 8150, "\u2581kontro": 8151, "\u017caj\u0105c": 8152, "\u2581docho": 8153, "\u2581wez": 8154, "\u2581till": 8155, "gor": 8156, "\u2581uszy": 8157, "\u2581pobo": 8158, "\u2581techno": 8159, "\u2581Zwracam": 8160, "\u2581ministr\u00f3w": 8161, "\u2581Wci\u0105\u017c": 8162, "\u2581stabi": 8163, "\u2581nadzorowanych": 8164, "\u2581Bas": 8165, "\u2581Hans": 8166, "\u2581kilkunastu": 8167, "\u2581poda": 8168, "\u2581wygl\u0105da\u0142o": 8169, "pi\u0142a": 8170, "\u2581tworz\u0105": 8171, "die": 8172, "\u2581palcem": 8173, "\u2581250": 8174, "dzka": 8175, "\u2581szanowni": 8176, "\u2581cze\u015b\u0107": 8177, "\u2581XV": 8178, "ds": 8179, "\u2581xD": 8180, "wn\u0105": 8181, "\u2581s\u0142ucha\u0107": 8182, "\u2581wali": 8183, "kuj\u0105": 8184, "gn\u0119\u0142a": 8185, "st\u0119p": 8186, "druk": 8187, "\u2581ogromn\u0105": 8188, "\u2581sytuacje": 8189, "\u2581zwro": 8190, "\u2581przyspie": 8191, "./": 8192, "\u2581przekro": 8193, "\u2581wysokiej": 8194, "\u2581Mur": 8195, "cza\u0142o": 8196, "pij": 8197, "\u2581wchodz\u0105": 8198, "\u2581przeni\u00f3s\u0142": 8199, "\u2581otrzyma": 8200, "\u2581obda": 8201, "kaz": 8202, "\u2581szans": 8203, "\u2581wpad": 8204, "dziel": 8205, "\u2581powiada": 8206, "\u2581fu": 8207, "\u2581kolejowych": 8208, "\u2581szpitalu": 8209, "\u2581Nu": 8210, "\u2581bli": 8211, "\u2581opan": 8212, "\u2581miesi\u0105cach": 8213, "\u2581Lek": 8214, "\u2581obra": 8215, "\u2581Inspekcji": 8216, "ryk": 8217, "\u2581zapra": 8218, "szed\u0142": 8219, "uj\u0105ce": 8220, "yo": 8221, "\u2581ogromny": 8222, "\u2581dzia\u0142alno\u015bci\u0105": 8223, "\u2581dwo": 8224, "mir": 8225, "\u2581agencji": 8226, "\u2581stosowa\u0107": 8227, "\u2581wybuchu": 8228, "\u017a\u0107": 8229, "\u2581samolot": 8230, "\u2581wst\u0119pie": 8231, "mii": 8232, "rys": 8233, "\u2581und": 8234, "\u2581189": 8235, "form": 8236, "\u2581potrafi\u0105": 8237, "\u2581Musia\u0142": 8238, "\u2581pozostali": 8239, "chen": 8240, "\u2581w\u0142a\u015bcicieli": 8241, "\u00f8": 8242, "\u2581kr\u0105": 8243, "kowska": 8244, "\u2581wypadk\u00f3w": 8245, "\u2581s\u0105dy": 8246, "\u2581sygna\u0142": 8247, "\u2581zapytania": 8248, "\u2581P\u0142a": 8249, "\u2581nap\u0119": 8250, "\u2581Wiemy": 8251, "\u2581r\u00f3wnowagi": 8252, "\u2581Bli": 8253, "gowych": 8254, "\u2581krze": 8255, "\u2581obrazy": 8256, "\u2581wykona\u0107": 8257, "\u2581spodziewa\u0107": 8258, "danie": 8259, "mienie": 8260, "\u2581us": 8261, "\u2581Orderu": 8262, "\u2581ukaza\u0142": 8263, "\u2581pr\u00f3b\u0119": 8264, "\u2581brze": 8265, "\u2581czysto": 8266, "mistrz": 8267, "\u2581Kir": 8268, "\u2581wzgl\u0119dzie": 8269, "\u2581Cat": 8270, "\":": 8271, "\u2581Ul": 8272, "\u2581paliwa": 8273, "\u258100": 8274, "\u2581Dem": 8275, "\u2581osobowych": 8276, "\u2581przyj\u0119ciu": 8277, "\u2581socjali": 8278, "\u2581Parlamentu": 8279, "\u2581lesie": 8280, "St": 8281, "\u2581Czy\u017c": 8282, "\u2581wypu": 8283, "\u2581z\u0142oto": 8284, "\u2581trakt": 8285, "ciele": 8286, "\u2581walka": 8287, "\u2581budowie": 8288, "\u2581przed\u0142u": 8289, "\u2581tr": 8290, "\u2581Ken": 8291, "\u2581rado\u015b\u0107": 8292, "\u2581zakupu": 8293, "\u2581Komitet": 8294, "\u2581prosi\u0142": 8295, "bem": 8296, "\u2581racjona": 8297, "\u2581wp\u00f3\u0142": 8298, "\u2581unijnych": 8299, "\u2581upad": 8300, "\u2581g\u0142upi": 8301, "uri": 8302, "\u2581zmian\u0105": 8303, "\u2581odzna": 8304, "\u2581jecha\u0107": 8305, "pek": 8306, "\u2581umoc": 8307, "\u25812:0": 8308, "\u2581najwi\u0119ksz\u0105": 8309, "\u2581rozporz\u0105dzeniu": 8310, "\u2581komputer": 8311, "\u2581zakr\u0119": 8312, "\u2581poprawkami": 8313, "\u2581130": 8314, "\u2581Francja": 8315, "iusz": 8316, "\u2581stwarza": 8317, "rol": 8318, "\u2581dotrze\u0107": 8319, "\u2581siedzia\u0142a": 8320, "dyj": 8321, "\u2581chwil": 8322, "\u258130.": 8323, "\u2581Maj\u0105": 8324, "onem": 8325, "\u2581Po\u0142udniowej": 8326, "tania": 8327, "\u00f3wki": 8328, "\u2581\u015bmia\u0142": 8329, "\u2581spu": 8330, "\u2581wysu": 8331, "\u2581prowadz\u0105cych": 8332, "\u2581istnie\u0107": 8333, "anci": 8334, "\u2581Spi": 8335, "\u2581szach": 8336, "\u2581zapas": 8337, "\u2581zamkni\u0119te": 8338, "\u2581El\u017cbieta": 8339, "\u2581cena": 8340, "AB": 8341, "\u2581kwot": 8342, "\u2581odwr\u00f3ci\u0142a": 8343, "fikacja": 8344, "wca": 8345, "\u2581alkoholu": 8346, "\u2581Kal": 8347, "\u2581fizycznej": 8348, "niez": 8349, "\u2581r\u00f3\u017cnice": 8350, "\u2581przys\u0142uguje": 8351, "\u2581rodu": 8352, "zmem": 8353, "\u2581przebywa": 8354, "\u2581zapad": 8355, "sio": 8356, "\u2581fakty": 8357, "\u2581Krakowa": 8358, "\u2581komunika": 8359, "\u2581generalnego": 8360, "10.": 8361, "\u25811936": 8362, "\u2581Czemu": 8363, "\u2581k\u0105": 8364, "\u25811957": 8365, "\u2581widzimy": 8366, "\u2581Obywatelskiej": 8367, "\u2581Dziewczyna": 8368, "\u2581d\u00f3br": 8369, "\u2581negocjacji": 8370, "\u2581reform": 8371, "\u2581trwa\u0142a": 8372, "ingu": 8373, "\u2581obiektu": 8374, "\u2581tote\u017c": 8375, "\u017cy\u0142o": 8376, "\u2581Bud": 8377, "\u25811,5": 8378, "\u2581Istnieje": 8379, "\u2581s\u0142owami": 8380, "\u2581niepodleg\u0142o\u015bci": 8381, "\u2581szkolnictwa": 8382, "\u2581ukszta\u0142": 8383, "nau": 8384, "mus": 8385, "\u2581po\u0142\u0105czenie": 8386, "\u2581niewoli": 8387, "\u2581sk\u00f3r\u0119": 8388, "ruj\u0105c": 8389, "ceniu": 8390, "lana": 8391, "\u2581stal": 8392, "\u2581codziennie": 8393, "\u2581eksport": 8394, "\u2581handlowych": 8395, "\u2581nigdzie": 8396, "\u2581planowane": 8397, "szed\u0142em": 8398, "vy": 8399, "\u2581magi": 8400, "\u2581dnie": 8401, "\u2581wykonuje": 8402, "\u2581upadku": 8403, "\u2581wk\u0142ad": 8404, "\u2581Mali": 8405, "yer": 8406, "\u2581w\u0142a\u015bciciela": 8407, "\u25811952": 8408, "\u2581zby": 8409, "\u2581komunikacji": 8410, "\u2581gnie": 8411, "\u2581okre\u015blonym": 8412, "\u2581Kle": 8413, "\u2581wcze\u015bnie": 8414, "\u00c4TM": 8415, "\u2581my\u015bla\u0142em": 8416, "\u2581ab": 8417, "\u2581sko\u0144": 8418, "\u2581muzyka": 8419, "bert": 8420, "\u2581wynagrodzenie": 8421, "\u2581przewodni": 8422, "\u2581spo\u0142eczn\u0105": 8423, "iel": 8424, "\u2581wzru": 8425, "luje": 8426, "rey": 8427, "\u2581Powiem": 8428, "\u2581chcia\u0142am": 8429, "kn\u0105\u0107": 8430, "\u25811937": 8431, "\u2581obj\u0119te": 8432, "\u2581Komisjo": 8433, "\u2581Sytuacja": 8434, "\u2581sekretarza": 8435, "\u2581Mora": 8436, "\u2581car": 8437, "\u2581\u015brednich": 8438, "\u2581rozpa": 8439, "\u2581wymy": 8440, "\u2581cof": 8441, "\u2581bia\u0142ych": 8442, "\u2581oper": 8443, "\u2581dokonania": 8444, "sin": 8445, "lanie": 8446, "\u2581wyodr\u0119b": 8447, "\u2581matk\u0105": 8448, "\u2581aktorka": 8449, "\u2581ciep\u0142o": 8450, "\u2581mart": 8451, "\u2581dysponuje": 8452, "\u2581Van": 8453, "\u2581og\u0142o": 8454, "dzia\u0142em": 8455, "\u2581zabiera": 8456, "\u2581s\u0142u\u017cy\u0142": 8457, "So": 8458, "ory": 8459, "mierz": 8460, "\u2581statk\u00f3w": 8461, "\u2581zasi\u0119gu": 8462, "\u2581bazie": 8463, "\u2581partner": 8464, "\u2581wojsko": 8465, "rano": 8466, "\u2581rewolu": 8467, "bri": 8468, "\u258187": 8469, "\u2581\u015awi": 8470, "\u2581rana": 8471, "\u2581Izb\u0119": 8472, "\u2581setki": 8473, "\u2581re\u017cyser": 8474, "\u2581przeprowadzenie": 8475, "\u2581Kre": 8476, "\u2581zwal": 8477, "\u2581przest\u0119p": 8478, "\u2581wra\u017cenia": 8479, "pal": 8480, "ding": 8481, "\u2581fundusz": 8482, "\u2581pomieszczenia": 8483, "\u2581porusza": 8484, "\u2581pokazuje": 8485, "\u2581A\u017c": 8486, "\u2581Szko": 8487, "\u2581\u0307": 8488, "\u2581okr\u0119t\u00f3w": 8489, "lizacj\u0119": 8490, "dowi": 8491, "://": 8492, "jecha\u0142": 8493, "\u2581stosowanie": 8494, "\u2581zgodno\u015bci": 8495, "\u2581wiatru": 8496, "\u2581wyprowa": 8497, "\u2581m\u0142oda": 8498, "\u2581nagr\u00f3d": 8499, "\u2581Cza": 8500, "\u2581pr\u00f3buje": 8501, "\u2581autom": 8502, "lega": 8503, "\u2581Prawie": 8504, "\u2581zachodzi": 8505, "\u2581mi\u0119\u015bni": 8506, "\u2581korzysta": 8507, "sc": 8508, "\u2581strza\u0142": 8509, "\u2581cios": 8510, "\u2581pa\u0144stwowego": 8511, "biony": 8512, "larz": 8513, "\u2581odpowiedniego": 8514, "\u2581podaje": 8515, "\u2581Smith": 8516, "\u2581widzieli": 8517, "ni\u0142em": 8518, "\u2581szcz\u0119": 8519, "sus": 8520, "rzami": 8521, "szli\u015bmy": 8522, "dio": 8523, "\u258184": 8524, "\u2581Ostatecznie": 8525, "\u2581Czu": 8526, "\u2581nak\u0142ad\u00f3w": 8527, "\u2581r\u00f3w": 8528, "\u2581\u0142\u0105czno\u015bci": 8529, "\u2581reprezent": 8530, "\u2581muzeum": 8531, "\u2581170": 8532, "\u017cka": 8533, "\u2581owe": 8534, "\u2581przesz\u0142o": 8535, "\u2581regulacje": 8536, "\u2581Kolej": 8537, "\u2581W\u0142a\u015bciwie": 8538, "54": 8539, "\u2581le\u017ca\u0142a": 8540, "\u0105t": 8541, "\u2581wykorzystanie": 8542, "\u25811914": 8543, "\u2581portu": 8544, "ben": 8545, "\u2581otwo": 8546, "\u2581drobne": 8547, "\u2581ture": 8548, "\u2581Nowe": 8549, "\u2581wzor": 8550, "\u2581broni\u0107": 8551, "\u2581upowa\u017cnienia": 8552, "\u2581umiera": 8553, "\u25811959": 8554, "\u2581rzuca": 8555, "\u2581Kr\u00f3lestwa": 8556, "nie\u0144": 8557, "\u2581stosowne": 8558, "\u2581zastanawia\u0142": 8559, "\u2581patrzy\u0142a": 8560, "wiali": 8561, "v\u00e1": 8562, "anda": 8563, "kier": 8564, "\u2581idio": 8565, "mia\u0142y": 8566, "\u2581trwaj\u0105": 8567, "\u2581wa\u017cnym": 8568, "\u2581kosz": 8569, "\u2581trzymaj\u0105c": 8570, "\u25811963": 8571, "\u2581\u017c\u0105": 8572, "\u2581obchodzi": 8573, "\u2581ludno\u015b\u0107": 8574, "\u2581wedle": 8575, "\u2581kontrol": 8576, "WA": 8577, "nanie": 8578, "rania": 8579, "\u2581owego": 8580, "\u2581przedsi\u0119biorcy": 8581, "-6": 8582, "\u017ca\u0142a": 8583, "lany": 8584, "\u2581traktowa\u0107": 8585, "ida": 8586, "\u2581klient\u00f3w": 8587, "\u2581podniesienie": 8588, "\u2581zmieni\u0142a": 8589, "\u2581XIV": 8590, "\u2581g\u0142\u00f3wn\u0105": 8591, "\u2581zaakcep": 8592, "\u2581Kiedy\u015b": 8593, "\u2581wyjecha\u0142": 8594, "\u2581sp\u0142y": 8595, "\u2581zwrot": 8596, "\u2581chwyci\u0142": 8597, "\u2581jad": 8598, "\u2581rezultacie": 8599, "\u2581wymaga\u0144": 8600, "\u2581przeciwnych": 8601, "\u2581g\u0119sto\u015b\u0107": 8602, "pa\u0142a": 8603, "\u2581ram": 8604, "\u2581przekazu": 8605, "\u2581po\u015bredni": 8606, "\u2581umowie": 8607, "\u2581Nagrody": 8608, "\u2581szyj\u0119": 8609, "\u2581dowod\u00f3w": 8610, "\u2581Barbara": 8611, "\u2581kle": 8612, "\u2581zba": 8613, "\u2581Wsp\u00f3\u0142": 8614, "wa\u0142am": 8615, "\u258186": 8616, "\u2581ucz": 8617, "\u2581dooko\u0142a": 8618, "\u258114,": 8619, "nim": 8620, "\u0432": 8621, "\u2581zbud": 8622, "\u2581oddzia\u0142ywania": 8623, "IT": 8624, "czer": 8625, "\u2581rozp": 8626, "uj\u0105cy": 8627, "\u2581bezrobotnych": 8628, "\u2581faktem": 8629, "\u2581czci": 8630, "\u2581Szy": 8631, "\u2581podlegaj\u0105": 8632, "\u25811934": 8633, "\u2581nar\u00f3d": 8634, "\u2581pracowni": 8635, "\u2581cia": 8636, "\u2581dzia\u0142acz": 8637, "\u2581Tan": 8638, "AD": 8639, "dawc\u00f3w": 8640, "\u2581zapom": 8641, "\u2581Si\u0142": 8642, "miesz": 8643, "gry": 8644, "\u2581diecezji": 8645, "\u2581ch\u0142opcy": 8646, "\u2581sprzyja": 8647, "krotnie": 8648, "\u2581rozstrzyg": 8649, "czami": 8650, "\u2581wyj\u0105\u0142": 8651, "\u2581pracodawc\u00f3w": 8652, "\u2581linia": 8653, "\u2581powo\u0142any": 8654, "\u2581dostaw": 8655, "\u2581opiek\u0119": 8656, "\u2581boj": 8657, "\u2581obiekty": 8658, "szk": 8659, "\u2581oka\u017ce": 8660, "\u2581nast\u0105pi\u0142": 8661, "\u2581owo": 8662, "\u2581podanie": 8663, "wo\u015b\u0107": 8664, "\u2581podnios\u0142a": 8665, "\u2581Austrii": 8666, "\u2581st\u0142u": 8667, "muj\u0119": 8668, "\u2581pr\u0119": 8669, "\u2581prze\u0142o": 8670, "\u2581b\u0142o": 8671, "\u2581domem": 8672, "\u2581Drugie": 8673, "\u2581ziemi\u0105": 8674, "ga\u0142a": 8675, "\u2581klasie": 8676, "\u2581przerzu": 8677, "\u2581szczeg\u00f3lnym": 8678, "ES": 8679, "\u2581Pia": 8680, "\u2581dost\u0119pne": 8681, "\u2581gli": 8682, "\u2581szerokie": 8683, "ma\u0142a": 8684, "\u2581zatrudnia": 8685, "lacje": 8686, "\u2581dowiedzia\u0142": 8687, "\u2581Sprzeciwu": 8688, "\u2581wzrasta": 8689, "\u2581pracodawcy": 8690, "\u2581har": 8691, "lok": 8692, "\u2581rewolucji": 8693, "\u2581Club": 8694, "\u2581syn\u00f3w": 8695, "\u2581ulgi": 8696, "kiewicza": 8697, "\u2581jak\u017ce": 8698, "\u2581posiadania": 8699, "\u2581ubezpieczeni": 8700, "\u2581junior\u00f3w": 8701, "\u2581egzeku": 8702, "\u2581naukowe": 8703, "\u2581wychowaw": 8704, "owce": 8705, "\u2581ste": 8706, "\u2581opu": 8707, "\u2581cyklu": 8708, "\u2581W\u0142oszech": 8709, "\u2581podmiotu": 8710, "\u2581wymagania": 8711, "\u2581Rzymu": 8712, "\u2581Punkty": 8713, "\u2581broni\u0105": 8714, "rea": 8715, "\u2581zjawisk": 8716, "\u2581ucha": 8717, "\u2581podpis": 8718, "\u2581Londynu": 8719, "\u2581pami\u0119": 8720, "\u2581plecach": 8721, "\u2581prawdziwy": 8722, "\u2581niedaleko": 8723, "zuj\u0105c": 8724, "czko": 8725, "JPG": 8726, "\u2581uzasad": 8727, "torze": 8728, "\u2581Jim": 8729, "\u2581wierz": 8730, "laj\u0105": 8731, "n\u0119\u0142am": 8732, "\u2581przygotowane": 8733, "\u2581planety": 8734, "\u2581wid": 8735, "\u2581filmie": 8736, "kaj\u0105": 8737, "\u2581modernizacji": 8738, "\u2581skrzyd\u0142a": 8739, "\u2581krzes\u0142a": 8740, "p\u0105": 8741, "\u2581katoli": 8742, "\u2581Zamie": 8743, "\u2581Afryki": 8744, "\u2581zab\u00f3j": 8745, "\u2581die": 8746, "PS": 8747, "\u25814:": 8748, "\u2581przypada": 8749, "\u2581skrom": 8750, "\u2581ostatni\u0105": 8751, "\u2581dzia\u0142aj\u0105": 8752, "\u2581trzecia": 8753, "\u2581powiat\u00f3w": 8754, "nny": 8755, "\u2581rany": 8756, "\u2581doszed\u0142": 8757, "\u258179": 8758, "kowania": 8759, "\u2581adresem": 8760, "\u2581zgadza": 8761, "\u2581ba\u0142": 8762, "\u2581pogr\u0105": 8763, "\u2581styl": 8764, "\u2581\u015bcie": 8765, "\u2581Najwy\u017cszego": 8766, "\u2581pojazdu": 8767, "\u2581Nowej": 8768, "\u2581mi\u0142o": 8769, "minu": 8770, "\u2581sena": 8771, "\u2581nagrod\u0119": 8772, "\u2581instrumenty": 8773, "lewski": 8774, "wo\u015bci": 8775, "sz\u00f3w": 8776, "\u2581Wniosek": 8777, "\u2581pr\u0119dzej": 8778, "\u2581Oj": 8779, "\u2581usprawiedli": 8780, "\u2581wraca\u0107": 8781, "\u2581grafi": 8782, "\u2581d\u0142ugich": 8783, "menta": 8784, "\u2581G\u0142\u00f3wnego": 8785, "\u2581efekcie": 8786, "\u2581okre\u015blonego": 8787, "\u2581trwania": 8788, "\u2581poro": 8789, "\u2581rodzin\u0119": 8790, "\u2581silnik": 8791, "\u2581kryzysu": 8792, "gene": 8793, "sz\u0105c": 8794, "\u2581Austria": 8795, "\u2581chcecie": 8796, "\u2581g\u0142u": 8797, "\u2581zacze": 8798, "\u2581Sym": 8799, "\u2581rangi": 8800, "\u2581emisji": 8801, "\u2581Anto": 8802, "\u25811930": 8803, "\u2581przeciwnika": 8804, "wianie": 8805, ".\u201d": 8806, "\u2581wyba": 8807, "\u2581kontrola": 8808, "\u2581owi": 8809, "\u2581zga": 8810, "\u2581Zamiast": 8811, "\u2581przystos": 8812, "\u2581Emi": 8813, "\u2581kontakty": 8814, "\u2581t\u0142o": 8815, "nia\u0142o": 8816, "\u2581zobaczy": 8817, "\u2581Usta": 8818, "\u2581niemniej": 8819, "\u2581ciemne": 8820, "56": 8821, "\u2581dali": 8822, "\u2581wyru": 8823, "\u2581przemawia": 8824, "\u2581Kobieta": 8825, "\u2581S\u0142a": 8826, "\u2581konkurs": 8827, "gaj\u0105c": 8828, "\u2581s\u0119dziego": 8829, "\u2581obiad": 8830, "\u2581Zosta\u0142a": 8831, "tno\u015b\u0107": 8832, "\u2581stwierdzenia": 8833, "ath": 8834, "02": 8835, "\u2581obiekt": 8836, "\u2581odej\u015b\u0107": 8837, "dzia\u0142a": 8838, "\u2581NATO": 8839, "ury": 8840, "\u2581XIII": 8841, "\u2581przeszko": 8842, "\u2581etat\u00f3w": 8843, "\u2581oficjalnie": 8844, "\u2581oszu": 8845, "zny": 8846, "\u2581\u017cal": 8847, "\u2581cia\u0142em": 8848, "\u2581specjalnego": 8849, "\u2581Premier": 8850, "mian": 8851, "grafia": 8852, "\u2581mienia": 8853, "\u2581University": 8854, "\u2581opisu": 8855, "\u2581podpisa\u0142": 8856, "\u2581gad": 8857, "\u2581klubie": 8858, "\u2581mleka": 8859, "\u2581dziewczyn\u0119": 8860, "\u2581krwi\u0105": 8861, "\u2581widzisz": 8862, "\u2581spe": 8863, "con": 8864, "\u258171": 8865, "prawdopodobniej": 8866, "tch": 8867, "\u2581wz\u00f3r": 8868, "anom": 8869, "\u2581powt\u00f3": 8870, "\u0159": 8871, "\u25811924": 8872, "\u2581dworze": 8873, "muj\u0105": 8874, "-8": 8875, "ias": 8876, "\u2581Kraj": 8877, "\u2581dokonuje": 8878, "\u2581pogl\u0105dy": 8879, "\u2581Air": 8880, "\u2581przesz\u0142a": 8881, "\u2581skupi": 8882, "\u2581roszcze\u0144": 8883, "\u2581\u015bwiadczenie": 8884, "\u2581kandydat": 8885, "\u2581nazwa\u0107": 8886, "\u2581neuro": 8887, "\u2581rozstrzygni\u0119cia": 8888, "\u2581wizyty": 8889, "\u2581PRL": 8890, "\u2581pru": 8891, "\u2581wprowadzone": 8892, "\u2581\u017cyj\u0105": 8893, "\u2581roz\u0142o": 8894, "\u017cki": 8895, "\u2581Simon": 8896, "\u2581Anny": 8897, "chodzi": 8898, "\u2581za\u0142a": 8899, "\u2581Ok": 8900, "\u2581zajmuj\u0105": 8901, "\u2581Japonii": 8902, "\u2581posze": 8903, "\u2581lokali": 8904, "\u2581Dane": 8905, "\u2581zadowolony": 8906, "\u2581tylu": 8907, "\u2581Wol": 8908, "\u2581zbi": 8909, "rd": 8910, "\u2581starszych": 8911, "\u2581M\u0119\u017cczy\u017ani": 8912, "\u2581d\u0142ugo\u015b\u0107": 8913, "\u2581Dal": 8914, "\u2581strat": 8915, "\u2581linie": 8916, "\u2581o\u015bwiadczenie": 8917, "\u2581Order": 8918, "\u2581zapro": 8919, "ka\u0142y": 8920, "dnik": 8921, "\u2581metra": 8922, "\u2581wino": 8923, "\u2581Leon": 8924, "\u2581li\u015bci": 8925, "ctwem": 8926, "cznika": 8927, "\u2581nast\u0105pi\u0142a": 8928, "dzi\u0142am": 8929, "sten": 8930, "linie": 8931, "\u2581dofinansowania": 8932, "jej": 8933, "\u2581przedmiotu": 8934, "\u2581niemieckie": 8935, "\u2581zanie": 8936, "\u2581przeciwie\u0144stwie": 8937, "\u2581Wraz": 8938, "\u2581poprzedni": 8939, "\u2581zauwa\u017c": 8940, "\u2581kontakt\u00f3w": 8941, "\u2581mieszkanie": 8942, "\u2581obronie": 8943, "\u25811917": 8944, "\u2581dostrzec": 8945, "wk\u0119": 8946, "\u2581\u0142agodnie": 8947, "\u2581zaci\u0105g": 8948, "\u2581liczy\u0142a": 8949, "\u2581US": 8950, "\u2581pe\u0142nego": 8951, "\u2581przeciwnym": 8952, "sse": 8953, "niaj\u0105c": 8954, "\u2581medi\u00f3w": 8955, "\u2581188": 8956, "\u2581eksportu": 8957, "\u2581P\u00f3\u0142nocnej": 8958, "\u2581most": 8959, "\u2581utrudnia": 8960, "mi\u0105": 8961, "\u2581Kul": 8962, "\u2581pozostanie": 8963, "\u2581Micha\u0142a": 8964, "\u2581uniemo\u017cli": 8965, "\u2581zasi": 8966, "\u2581Mecze": 8967, "\u2581w\u0105tpliwo\u015b\u0107": 8968, "\u2581podj\u0119te": 8969, "\u2581definicji": 8970, "\u2581prosi": 8971, "\u25814)": 8972, "\u2581wykorzysty": 8973, "towana": 8974, "\u2581Telewizji": 8975, "\u2581Sta\u0142": 8976, "\u2581reszty": 8977, "\u2581ksi\u0119\u017cyc": 8978, "\u2581Chcesz": 8979, "\u2581nieod": 8980, "turze": 8981, "\u2581powinienem": 8982, "\u2581nisko": 8983, "\u2581wierz\u0119": 8984, "shi": 8985, "ciami": 8986, "\u2581pa\u0142ac": 8987, "dzon\u0105": 8988, "\u2581Ma\u0142o": 8989, "\u2581(0": 8990, "Tak": 8991, "\u2581teat": 8992, "\u2581wykonane": 8993, "\u2581oceni\u0107": 8994, "\u2581rzymskokatoli": 8995, "\u2581po\u017car": 8996, "use": 8997, "\u2581mno": 8998, "cle": 8999, "\u2581ojcu": 9000, "\u2581Open": 9001, "\u2581popraw\u0119": 9002, "\u2581D\u0142ugo": 9003, "57": 9004, "dyn": 9005, "rena": 9006, "ma\u0142": 9007, "byt": 9008, "\u2581wybiera": 9009, "heim": 9010, "ujemy": 9011, "\u2581uwzgl\u0119dni": 9012, "\u2581Ka\u017cda": 9013, "szonej": 9014, "\u2581Lam": 9015, "\u2581Daj": 9016, "\u2581powtarza": 9017, "\u2581przeby": 9018, "\u2581bezrobocia": 9019, "\u2581jakichkolwiek": 9020, "\u2581dochodu": 9021, "\u2581interwencji": 9022, "IC": 9023, "\u2581)": 9024, "niane": 9025, "\u2581zdarzy\u0142o": 9026, "\u2581banki": 9027, "\u2581odezwa\u0142a": 9028, "\u2581obj\u0119tych": 9029, "\u2581szczycie": 9030, "\u2581powiedz": 9031, "\u2581Ilu": 9032, "\u2581pewno\u015bci": 9033, "\u2581popra": 9034, "Je": 9035, "\u2581\u015bniegu": 9036, "\u2581dzia\u0142a\u0142": 9037, "\u2581uczestniczy\u0142": 9038, "\u2581wyst\u0105pi\u0107": 9039, "\u2581wygl\u0105d": 9040, "\u2581fotelu": 9041, "\u2581podobnego": 9042, "\u2581Pozna": 9043, "\u2581wej\u015bciu": 9044, "\u2581Poz": 9045, "\u2581sprawozdawcy": 9046, "hr": 9047, "\u2581wyposa": 9048, "\u2581zagadnie\u0144": 9049, "\u2581kosztem": 9050, "\u2581za\u0142at": 9051, "\u2581kredy": 9052, "\u2581powa\u017c": 9053, "\u2581Plat": 9054, "\u2581odby": 9055, "\u2581urz\u0119dy": 9056, "\u2581ogl\u0105da": 9057, "\u2581wskazuj\u0105c": 9058, "\u2581brytyjski": 9059, "owem": 9060, "\u2581og\u00f3lnie": 9061, "\u2581Doktor": 9062, "\u2581katolicki": 9063, "\u2581Pad": 9064, "bi\u0142a": 9065, "\u2581odcinek": 9066, "\u2581radi": 9067, "up": 9068, "jnej": 9069, "\u2581intensyw": 9070, "\u2581wst\u0119p": 9071, "ub": 9072, "\u2581kop": 9073, "w\u00f3j": 9074, "\u2581Prix": 9075, "styki": 9076, "atycznych": 9077, "\u2581Za\u0142o": 9078, "dae": 9079, "\u2581Zjednoczone": 9080, "\u2581Wydawa\u0142o": 9081, "tat": 9082, "\u2581Fla": 9083, "\u2581wybud": 9084, "var": 9085, "rza\u0142em": 9086, "wnie": 9087, "ciach": 9088, "\u2581chodzi\u0107": 9089, "\u2581ro\u015bnie": 9090, "03": 9091, "\u2581robotnik\u00f3w": 9092, "\u2581hipote": 9093, "\u2581s\u0142owach": 9094, "\u2581ulic\u0119": 9095, "\u2581rozmowa": 9096, "dowa": 9097, "\u2581sposoby": 9098, "\u2581obserw": 9099, "\u2581w\u0142adza": 9100, "rki": 9101, "\u2581Bran": 9102, "\u0144cy": 9103, "\u2581Dru": 9104, "\u2581zostawi\u0107": 9105, "logicznego": 9106, "\u2581umar\u0142": 9107, "\u2581zdarza": 9108, "nel": 9109, "\u00f3z": 9110, "\u2581decyzj\u0105": 9111, "czyni": 9112, "rowa\u0142": 9113, "\u2581G\u0142\u00f3wny": 9114, "\u2581zg\u0142o": 9115, "szy\u0142y": 9116, "\u2581powtarz": 9117, "\u2581przera": 9118, "\u2581Szwecji": 9119, "\u2581spali": 9120, "\u2581Gdybym": 9121, "\u2581wewn\u0119trzne": 9122, "\u2581Szwe": 9123, "\u2581przed\u0142o": 9124, "\u2581podejmowania": 9125, "\u2581kr": 9126, "logi": 9127, "\u2581ga\u0142\u0119zi": 9128, "\u2581KS": 9129, "\u2581nacisk": 9130, "\u2581walk": 9131, "\u2581opu\u015bci\u0107": 9132, "\u2581wewn\u0119trznej": 9133, "\u25811922": 9134, "\u2581ch\u0142opc\u00f3w": 9135, "\u2581stowarzyszenia": 9136, "\u2581Bydgoszczy": 9137, "\u2581ROZDZIA\u0141": 9138, "nad": 9139, "ric": 9140, "\u2581obj\u0119": 9141, "\u2581Mistrz": 9142, "\u2581\u0141\u00f3d\u017a": 9143, "\u2581w\u0105tpienia": 9144, "\u2581zg\u0142oszone": 9145, "\u2581wolna": 9146, "\u2581prowadzona": 9147, "\u2581wyprawy": 9148, "\u2581przekaza\u0142": 9149, "\u2581inspektora": 9150, "\u2581wojn\u0105": 9151, "\u2581albowiem": 9152, "\u2581Oba": 9153, "\u2581Wspom": 9154, "\u2581przecie": 9155, "\u2581br\u0105zowy": 9156, "\u2581prywaty": 9157, "chanie": 9158, "owny": 9159, "\u2581spotka": 9160, "Czy": 9161, "\u2581wspomnienia": 9162, "cz\u0105cym": 9163, "\u2581opada": 9164, "\u2581postanowi\u0142a": 9165, "\u2581zwr\u00f3ci\u0142a": 9166, "wia\u0142y": 9167, "duj\u0105": 9168, "\u2581opisy": 9169, "dt": 9170, "\u2581Cer": 9171, "\u2581Tadeusza": 9172, "\u2581s\u0142ysze\u0107": 9173, "\u2581Skrzy": 9174, "laty": 9175, "\u2581Lee": 9176, "\u2581wytw\u00f3r": 9177, "\u2581Bo\u017cej": 9178, "szcza\u0142": 9179, "\u2581Psych": 9180, "\u2581wsp\u00f3lnej": 9181, "\u2581konwencji": 9182, "\u2581Ligi": 9183, "\u2581odpowiedzialny": 9184, "\u2581d\u0142ugim": 9185, "\u2581trwa\u0142o": 9186, "\u2581pos\u0142om": 9187, "\u2581trudu": 9188, "\u2581dodatek": 9189, "gue": 9190, "\u25811933": 9191, "\u2581drogach": 9192, "conego": 9193, "\u2581b\u0142y": 9194, "\u2581p\u00f3jdzie": 9195, "\u2581stanowi\u0142a": 9196, "\u2581staj\u0105": 9197, "\u2581unik": 9198, "dent": 9199, "\u2581wiecie": 9200, "\u2581Len": 9201, "\u2581Tal": 9202, "\u2581wsta": 9203, "tacj\u0105": 9204, "\u2581kolejnego": 9205, "\u2581rozmawia": 9206, "\u2581stanowi\u0142o": 9207, "\u2581nap\u0142y": 9208, "\u2581uzale\u017c": 9209, "\u2581spoj": 9210, "szczone": 9211, "stry": 9212, "cyj": 9213, "lacj\u0119": 9214, "\u2581jemu": 9215, "\u2581Zarz\u0105d": 9216, "wce": 9217, "nist": 9218, "OT": 9219, "\u2581twoich": 9220, "inte": 9221, "\u2581przekona": 9222, "pia\u0142": 9223, "piec": 9224, "\u2581Dobra": 9225, "\u2581naraz": 9226, "bienia": 9227, "\u2581k\u0142am": 9228, "rzej": 9229, "\u2581telekomunika": 9230, "\u2581kolejno": 9231, "\u2581meta": 9232, "\u2581rosyjski": 9233, "\u2581kontra": 9234, "\u2581morzu": 9235, "\u2581wy\u017cszego": 9236, "\u2581spowodowa\u0142o": 9237, "\u2581obcy": 9238, "\u2581r\u00f3\u017cnic": 9239, "cz\u00f3w": 9240, "szny": 9241, "\u2581jakiekolwiek": 9242, "j\u0119zy": 9243, "\u2581zatrudnienie": 9244, "\u2581ny": 9245, "\u2581p\u0142yty": 9246, "\u2581\u015bwietnie": 9247, "\u2581ponosi": 9248, "eld": 9249, "kty": 9250, "ori": 9251, "\u2581po\u0142o\u017cone": 9252, "\u2581Strze": 9253, "\u2581dem": 9254, "\u2581otrzymali": 9255, "mia\u0142a": 9256, "\u2581stanowi\u0142": 9257, "\u2581Zdaje": 9258, "\u2581interesuje": 9259, "\u2581zamieszkiwa\u0142o": 9260, "\u2581palc\u00f3w": 9261, "\u2581ni\u017cej": 9262, "tko": 9263, "\u2581id": 9264, "59": 9265, "bek": 9266, "\u2581papie\u017ca": 9267, "\u2581Informuj\u0119": 9268, "\u2581wojewod\u00f3w": 9269, "\u2581Pau": 9270, "\u2581rodzaje": 9271, "\u2581patrio": 9272, "sta\u0107": 9273, "my\u015bl": 9274, "\u2581jedyna": 9275, "\u2581wio": 9276, "\u2581uzyska\u0142a": 9277, "\u00f3n": 9278, "\u2581realizowa\u0107": 9279, "\u2581cia\u0142": 9280, "\u2581Mieczys\u0142aw": 9281, "\u2581pr\u00f3buj\u0105c": 9282, "\u2581posa": 9283, "\u2581techniczne": 9284, "\u2581dochodowym": 9285, "\u2581w\u0142asno\u015bci\u0105": 9286, "\u2581ucho": 9287, "arka": 9288, "\u2581kr\u0119gu": 9289, "\u2581uzasadnione": 9290, "\u2581dok\u0142ad": 9291, "\u2581wyrazu": 9292, "\u2581wilgot": 9293, "\u2581owej": 9294, "\u2581wybory": 9295, "\u2581Tem": 9296, "\u2581przypominam": 9297, "hor": 9298, "\u2581Jar": 9299, "\u2581gdyby\u015bmy": 9300, "r\u00f3d": 9301, "\u2581przest\u0119pstw": 9302, "\u2581nade": 9303, "\u2581morder": 9304, "towanie": 9305, "\u2581fak": 9306, "i\u0119k": 9307, "UR": 9308, "\u2581hrabia": 9309, "\u2581elektrycznej": 9310, "\u2581pr\u00f3ba": 9311, "\u25811926": 9312, "\u2581ow": 9313, "wio": 9314, "\u2581pozytywne": 9315, "\u2581panowania": 9316, "\u2581reali": 9317, "brze": 9318, "\u2581zu": 9319, "\u2581polecenie": 9320, "\u2581140": 9321, "\u2581chy": 9322, "\u25811932": 9323, "\u2581fina\u0142": 9324, "\u2581Wprawdzie": 9325, "\u2581zaj": 9326, "\u2581\u2192": 9327, "\u2581radzie": 9328, "aniach": 9329,
[...]
